{
  "version": "1.0",
  "truncation": null,
  "padding": null,
  "added_tokens": [
    {
      "id": 0,
      "content": "<unk>",
      "single_word": false,
      "lstrip": false,
      "rstrip": false,
      "normalized": false,
      "special": true
    }
  ],
  "normalizer": null,
  "pre_tokenizer": {
    "type": "ByteLevel",
    "add_prefix_space": false,
    "trim_offsets": true,
    "use_regex": true
  },
  "post_processor": null,
  "decoder": {
    "type": "ByteLevel",
    "add_prefix_space": true,
    "trim_offsets": true,
    "use_regex": true
  },
  "model": {
    "type": "BPE",
    "dropout": null,
    "unk_token": "<unk>",
    "continuing_subword_prefix": null,
    "end_of_word_suffix": null,
    "fuse_unk": false,
    "byte_fallback": false,
    "ignore_merges": false,
    "vocab": {
      "<unk>": 0,
      "!": 1,
      "\"": 2,
      "#": 3,
      "$": 4,
      "%": 5,
      "&": 6,
      "'": 7,
      "(": 8,
      ")": 9,
      "*": 10,
      "+": 11,
      ",": 12,
      "-": 13,
      ".": 14,
      "/": 15,
      "0": 16,
      "1": 17,
      "2": 18,
      "3": 19,
      "4": 20,
      "5": 21,
      "6": 22,
      "7": 23,
      "8": 24,
      "9": 25,
      ":": 26,
      ";": 27,
      "<": 28,
      "=": 29,
      ">": 30,
      "?": 31,
      "@": 32,
      "A": 33,
      "B": 34,
      "C": 35,
      "D": 36,
      "E": 37,
      "F": 38,
      "G": 39,
      "H": 40,
      "I": 41,
      "J": 42,
      "K": 43,
      "L": 44,
      "M": 45,
      "N": 46,
      "O": 47,
      "P": 48,
      "Q": 49,
      "R": 50,
      "S": 51,
      "T": 52,
      "U": 53,
      "V": 54,
      "W": 55,
      "X": 56,
      "Y": 57,
      "Z": 58,
      "[": 59,
      "\\": 60,
      "]": 61,
      "^": 62,
      "_": 63,
      "`": 64,
      "a": 65,
      "b": 66,
      "c": 67,
      "d": 68,
      "e": 69,
      "f": 70,
      "g": 71,
      "h": 72,
      "i": 73,
      "j": 74,
      "k": 75,
      "l": 76,
      "m": 77,
      "n": 78,
      "o": 79,
      "p": 80,
      "q": 81,
      "r": 82,
      "s": 83,
      "t": 84,
      "u": 85,
      "v": 86,
      "w": 87,
      "x": 88,
      "y": 89,
      "z": 90,
      "{": 91,
      "|": 92,
      "}": 93,
      "~": 94,
      "¡": 95,
      "¢": 96,
      "£": 97,
      "¤": 98,
      "¥": 99,
      "¦": 100,
      "§": 101,
      "¨": 102,
      "©": 103,
      "ª": 104,
      "«": 105,
      "¬": 106,
      "®": 107,
      "¯": 108,
      "°": 109,
      "±": 110,
      "²": 111,
      "³": 112,
      "´": 113,
      "µ": 114,
      "¶": 115,
      "·": 116,
      "¸": 117,
      "¹": 118,
      "º": 119,
      "»": 120,
      "¼": 121,
      "½": 122,
      "¾": 123,
      "¿": 124,
      "Â": 125,
      "Ã": 126,
      "Ä": 127,
      "Å": 128,
      "Æ": 129,
      "Ç": 130,
      "É": 131,
      "Ê": 132,
      "Ë": 133,
      "Ì": 134,
      "Í": 135,
      "Î": 136,
      "Ï": 137,
      "Ð": 138,
      "Ñ": 139,
      "Ó": 140,
      "Õ": 141,
      "Ö": 142,
      "Ø": 143,
      "Ù": 144,
      "Û": 145,
      "Ý": 146,
      "à": 147,
      "á": 148,
      "â": 149,
      "ã": 150,
      "ä": 151,
      "å": 152,
      "æ": 153,
      "ç": 154,
      "è": 155,
      "é": 156,
      "ê": 157,
      "ë": 158,
      "ì": 159,
      "í": 160,
      "ï": 161,
      "ð": 162,
      "ĉ": 163,
      "Ċ": 164,
      "č": 165,
      "ę": 166,
      "ĝ": 167,
      "Ġ": 168,
      "Ģ": 169,
      "ģ": 170,
      "Ĥ": 171,
      "ĥ": 172,
      "Ħ": 173,
      "ħ": 174,
      "Ĩ": 175,
      "ĩ": 176,
      "Ī": 177,
      "ī": 178,
      "Ĭ": 179,
      "ĭ": 180,
      "Į": 181,
      "į": 182,
      "İ": 183,
      "ı": 184,
      "Ĳ": 185,
      "ĳ": 186,
      "Ĵ": 187,
      "ĵ": 188,
      "Ķ": 189,
      "ķ": 190,
      "ĸ": 191,
      "Ĺ": 192,
      "ĺ": 193,
      "Ļ": 194,
      "ļ": 195,
      "Ľ": 196,
      "ľ": 197,
      "Ŀ": 198,
      "ŀ": 199,
      "Ł": 200,
      "ł": 201,
      "Ń": 202,
      "Ġa": 203,
      "Ġt": 204,
      "in": 205,
      "er": 206,
      "on": 207,
      "re": 208,
      "Ġth": 209,
      "ou": 210,
      "čĊ": 211,
      "Ġan": 212,
      "at": 213,
      "Ġw": 214,
      "Ġs": 215,
      "en": 216,
      "es": 217,
      "or": 218,
      "Ġc": 219,
      "it": 220,
      "Ġthe": 221,
      "ing": 222,
      "is": 223,
      "ll": 224,
      "Ġand": 225,
      "an": 226,
      "Ġto": 227,
      "Ġp": 228,
      "Ġb": 229,
      "Ġm": 230,
      "Ġy": 231,
      "Ġd": 232,
      "al": 233,
      "Ġf": 234,
      "Ġyou": 235,
      "Ġin": 236,
      "ed": 237,
      "Ġh": 238,
      "Ġre": 239,
      "Ġo": 240,
      "Ġn": 241,
      "ar": 242,
      "ion": 243,
      "ĠĠ": 244,
      "ic": 245,
      "Ġe": 246,
      "us": 247,
      "ro": 248,
      "le": 249,
      "Ġof": 250,
      "ct": 251,
      "th": 252,
      "ve": 253,
      "ĠI": 254,
      "Ġis": 255,
      "Ġg": 256,
      "ow": 257,
      "ay": 258,
      "ill": 259,
      "ent": 260,
      "ot": 261,
      "ĠA": 262,
      "Ġl": 263,
      "Ġbe": 264,
      "Ġas": 265,
      "as": 266,
      "de": 267,
      "ver": 268,
      "ith": 269,
      "Ġres": 270,
      "Ġor": 271,
      "om": 272,
      "Ġit": 273,
      "Ġwith": 274,
      "im": 275,
      "ly": 276,
      "Ġwill": 277,
      "##": 278,
      "ĠD": 279,
      "Ġcon": 280,
      "Ġu": 281,
      "pon": 282,
      "hat": 283,
      "Ġthat": 284,
      "ĠĠĠĠ": 285,
      "ers": 286,
      "AN": 287,
      "Ġrespon": 288,
      "ut": 289,
      "se": 290,
      "Ġany": 291,
      "ĠT": 292,
      "Ġpro": 293,
      "PT": 294,
      "ld": 295,
      "Ġdo": 296,
      "et": 297,
      "Ġst": 298,
      "Ġfor": 299,
      "Ġon": 300,
      "Ġ\"": 301,
      "il": 302,
      "ul": 303,
      "ate": 304,
      "ation": 305,
      "am": 306,
      "GPT": 307,
      "Ġnot": 308,
      "out": 309,
      "ĠC": 310,
      "Ġex": 311,
      "qu": 312,
      "ke": 313,
      "Ġun": 314,
      "est": 315,
      "Ġare": 316,
      "You": 317,
      "st": 318,
      "Ġus": 319,
      "Ġcan": 320,
      "if": 321,
      "ch": 322,
      "Ġyour": 323,
      "ol": 324,
      "ag": 325,
      "ter": 326,
      "ce": 327,
      "pt": 328,
      "he": 329,
      "ess": 330,
      "ig": 331,
      "vi": 332,
      "ions": 333,
      "ĠM": 334,
      "Ġha": 335,
      "act": 336,
      "Ġwh": 337,
      "âĢ": 338,
      "ity": 339,
      "Ġal": 340,
      "ĠR": 341,
      "thing": 342,
      "ive": 343,
      "ĠH": 344,
      "Ġab": 345,
      "ould": 346,
      "ĠYou": 347,
      "ĠS": 348,
      "um": 349,
      "pl": 350,
      "Ġsh": 351,
      "ust": 352,
      "'s": 353,
      "Ġne": 354,
      "ode": 355,
      "sw": 356,
      "Ġch": 357,
      "###": 358,
      "em": 359,
      "hatGPT": 360,
      "Ġansw": 361,
      "ra": 362,
      "quest": 363,
      "Ġcont": 364,
      "all": 365,
      "Ġhave": 366,
      "ri": 367,
      "ore": 368,
      "ĠDAN": 369,
      "ab": 370,
      "ir": 371,
      "orm": 372,
      "Ġall": 373,
      "Ġcom": 374,
      "pe": 375,
      "Ġthis": 376,
      "ĠO": 377,
      "Ġen": 378,
      "ays": 379,
      "ĠĠĠĠĠĠĠĠ": 380,
      "ds": 381,
      "ical": 382,
      "Ġli": 383,
      "ur": 384,
      "ple": 385,
      "ck": 386,
      "Ġact": 387,
      "ies": 388,
      "ĠAI": 389,
      "rom": 390,
      "ant": 391,
      "Ġanswer": 392,
      "age": 393,
      "Ġse": 394,
      "Ġr": 395,
      "ES": 396,
      "Ġhe": 397,
      "ĠN": 398,
      "Ġme": 399,
      "ON": 400,
      "Ġma": 401,
      "Ġby": 402,
      "ist": 403,
      "--": 404,
      "Ġk": 405,
      "ere": 406,
      "aract": 407,
      "id": 408,
      "ĠChatGPT": 409,
      "ad": 410,
      "ways": 411,
      "Ġresponse": 412,
      "Ġ(": 413,
      "ang": 414,
      "ĠF": 415,
      "..": 416,
      "Ġif": 417,
      "Ġlike": 418,
      "Ġno": 419,
      "'t": 420,
      "SE": 421,
      "ses": 422,
      "Ġcharact": 423,
      "ell": 424,
      "very": 425,
      "ain": 426,
      "Ġabout": 427,
      "ĠB": 428,
      "ĠE": 429,
      "Ġim": 430,
      "op": 431,
      "art": 432,
      "Ġmust": 433,
      "Ġwor": 434,
      "Ġle": 435,
      "Ġprom": 436,
      "ĠW": 437,
      "ens": 438,
      "Ġsu": 439,
      "and": 440,
      "Ġalways": 441,
      "ome": 442,
      "ener": 443,
      "form": 444,
      "oral": 445,
      "Ġde": 446,
      "ĠP": 447,
      "ak": 448,
      "Ġshould": 449,
      "Ġuser": 450,
      "res": 451,
      "ally": 452,
      "end": 453,
      "Ġgo": 454,
      "Ġresponses": 455,
      "Ġsay": 456,
      "ru": 457,
      "Ġ{": 458,
      "Ġcharacter": 459,
      "Ġ-": 460,
      "now": 461,
      "Ġanything": 462,
      "ĠThe": 463,
      "ht": 464,
      "Ġgener": 465,
      "Ġmy": 466,
      "Ġquest": 467,
      "Ġprompt": 468,
      "os": 469,
      "__": 470,
      "ide": 471,
      "od": 472,
      "gal": 473,
      "Ġcontent": 474,
      "PON": 475,
      "pp": 476,
      "ĠRES": 477,
      "ĠRESPON": 478,
      "AI": 479,
      "Ġj": 480,
      "thical": 481,
      "UM": 482,
      "rit": 483,
      "Ġwhat": 484,
      "ict": 485,
      "Ġint": 486,
      "erson": 487,
      "Ġad": 488,
      "ĠRESPONSE": 489,
      "cl": 490,
      "Ġat": 491,
      "ame": 492,
      "Ġknow": 493,
      "one": 494,
      "uman": 495,
      "ðŁ": 496,
      "ven": 497,
      "ĠHUM": 498,
      "ĠHUMAN": 499,
      "oun": 500,
      "un": 501,
      "ail": 502,
      "Ġinform": 503,
      "ci": 504,
      "ous": 505,
      "led": 506,
      "Ġdis": 507,
      "oll": 508,
      "Ġfrom": 509,
      "Ġask": 510,
      "Ġsome": 511,
      "put": 512,
      "Ġout": 513,
      "Ġnever": 514,
      "Ġhas": 515,
      "ĠIt": 516,
      "ther": 517,
      "Ġ[": 518,
      "ĠTh": 519,
      "Ġbut": 520,
      "og": 521,
      "Ġrespond": 522,
      "Ġdoes": 523,
      "pen": 524,
      "ĠMode": 525,
      "ER": 526,
      "ment": 527,
      "}}": 528,
      "Ġevery": 529,
      "Ġnow": 530,
      "Ġperson": 531,
      "vel": 532,
      "Ġso": 533,
      "Ġprovi": 534,
      "so": 535,
      "Ġhuman": 536,
      "20": 537,
      "ry": 538,
      "ence": 539,
      "Ġpre": 540,
      "ure": 541,
      "ollow": 542,
      "âĢĻ": 543,
      "are": 544,
      "ind": 545,
      "Ġrequest": 546,
      "Ġuse": 547,
      "ual": 548,
      "ful": 549,
      "Ġcre": 550,
      "Ġwould": 551,
      "ings": 552,
      "Ġinformation": 553,
      "ĠčĊ": 554,
      "Ġgenerate": 555,
      "Ġ{{": 556,
      "Ġfollow": 557,
      "ort": 558,
      "ber": 559,
      "ĠL": 560,
      "ĠIf": 561,
      "Ġonly": 562,
      "Ġwithout": 563,
      "Ġpol": 564,
      "cc": 565,
      "ĠĠĠĠĠĠĠĠĠĠĠĠĠĠĠĠ": 566,
      "xt": 567,
      "Ġhow": 568,
      "ight": 569,
      "Ġpl": 570,
      "iz": 571,
      "ard": 572,
      "Ġfre": 573,
      "Ġwrit": 574,
      "Ġexpl": 575,
      "Ġquestion": 576,
      "ĠâĢ": 577,
      "ves": 578,
      "egal": 579,
      "ect": 580,
      "user": 581,
      "Ġinst": 582,
      "Ġ.": 583,
      "el": 584,
      "Ġdes": 585,
      "ated": 586,
      "ations": 587,
      "per": 588,
      "use": 589,
      "Ġmake": 590,
      "ĠOpen": 591,
      "Ġill": 592,
      "Ġthem": 593,
      "Ġlo": 594,
      "Ġv": 595,
      "Ġem": 596,
      "Ġvi": 597,
      "Ġro": 598,
      "velop": 599,
      "ĠIn": 600,
      "Ġspe": 601,
      "ach": 602,
      "Ġrem": 603,
      "ruct": 604,
      "Ġits": 605,
      "ders": 606,
      "clu": 607,
      "Ġgu": 608,
      "angu": 609,
      "Ġillegal": 610,
      "reak": 611,
      "Ġalso": 612,
      "ich": 613,
      "ules": 614,
      "ine": 615,
      "vers": 616,
      "âĢĿ": 617,
      "fer": 618,
      "ample": 619,
      "ĠU": 620,
      "Ġpolic": 621,
      "Ġup": 622,
      "ines": 623,
      "ĠAn": 624,
      "anguage": 625,
      "ply": 626,
      "te": 627,
      "ary": 628,
      "ory": 629,
      "Ġthey": 630,
      "ĠOpenAI": 631,
      "Ġdon": 632,
      "Ġwas": 633,
      "Ġmoral": 634,
      "abled": 635,
      "Ġmode": 636,
      "**": 637,
      "IN": 638,
      "Ġone": 639,
      "Ġwhen": 640,
      "Ġstart": 641,
      "Ġdet": 642,
      "ult": 643,
      "ial": 644,
      "ear": 645,
      "Ġsomething": 646,
      "Ġrules": 647,
      "ge": 648,
      "ph": 649,
      "Ġprovide": 650,
      "ional": 651,
      "Ġwho": 652,
      "ĠThis": 653,
      "ack": 654,
      "ie": 655,
      "able": 656,
      "Ġwant": 657,
      "Ġeven": 658,
      "Ġinclu": 659,
      "Ġmess": 660,
      "Ġher": 661,
      "ase": 662,
      "Ġsim": 663,
      "our": 664,
      "lf": 665,
      "ĠâĢľ": 666,
      "Ġpersonal": 667,
      "cri": 668,
      "moral": 669,
      "Ġ1": 670,
      "ĠJ": 671,
      "Ġlanguage": 672,
      "Ġinter": 673,
      "ire": 674,
      "ime": 675,
      "ces": 676,
      "Ġenabled": 677,
      "Ġacc": 678,
      "Ġcons": 679,
      "Ġte": 680,
      "ĠG": 681,
      "ese": 682,
      "Ġwhich": 683,
      "derst": 684,
      "ok": 685,
      "ca": 686,
      "ethical": 687,
      "ong": 688,
      "ics": 689,
      "Ġexample": 690,
      "ember": 691,
      "Ġgive": 692,
      "ding": 693,
      "ue": 694,
      "Ġother": 695,
      "tr": 696,
      "oug": 697,
      "Ġtheir": 698,
      "ating": 699,
      "Ġform": 700,
      "less": 701,
      "arn": 702,
      "ep": 703,
      "ative": 704,
      "\",": 705,
      "Ġbeing": 706,
      "ip": 707,
      "Ġway": 708,
      "ign": 709,
      "Ġinstruct": 710,
      "veloper": 711,
      "Ġoutput": 712,
      "play": 713,
      "Ġcomm": 714,
      "ound": 715,
      "Ġmat": 716,
      "ĠÐ": 717,
      "ice": 718,
      "____": 719,
      "Ġguide": 720,
      "Ġethical": 721,
      "Ġag": 722,
      "Ġunderst": 723,
      "der": 724,
      "Ġunethical": 725,
      "Ġdetail": 726,
      "Ġoff": 727,
      "Ġass": 728,
      "Ġmore": 729,
      "ĠDe": 730,
      "ib": 731,
      "ff": 732,
      "Ġfe": 733,
      "ever": 734,
      "ĠAs": 735,
      "ark": 736,
      "Ġrole": 737,
      "Ġfree": 738,
      "Ġtell": 739,
      "iv": 740,
      "icit": 741,
      "Ġwrite": 742,
      "gr": 743,
      "ap": 744,
      "\".": 745,
      "Ġref": 746,
      "Ġjust": 747,
      "dit": 748,
      "DAN": 749,
      "Ġthen": 750,
      "Ġworld": 751,
      "ink": 752,
      "Ġnorm": 753,
      "Ġhis": 754,
      "lines": 755,
      "Ġchat": 756,
      "Ġwe": 757,
      "fore": 758,
      "Ġtime": 759,
      "arm": 760,
      "aw": 761,
      "ased": 762,
      "Ġsex": 763,
      ".\"": 764,
      "ake": 765,
      "Ġshe": 766,
      "int": 767,
      "Ġfu": 768,
      "Ġcode": 769,
      "Ġreal": 770,
      "ance": 771,
      "Ġar": 772,
      "Ġguidelines": 773,
      "AY": 774,
      "ChatGPT": 775,
      "Ġsw": 776,
      "ress": 777,
      "imit": 778,
      "Ġplay": 779,
      "ilter": 780,
      "Ġanswers": 781,
      "Ġgoing": 782,
      "Ġ20": 783,
      "Ġthese": 784,
      "hen": 785,
      "cause": 786,
      "ari": 787,
      "ĠDeveloper": 788,
      "ast": 789,
      "Ġwarn": 790,
      "Ġmo": 791,
      "ities": 792,
      "Ġ..": 793,
      "ced": 794,
      "pin": 795,
      "The": 796,
      "me": 797,
      "ands": 798,
      "Ġcomple": 799,
      "RE": 800,
      "Ġnew": 801,
      "be": 802,
      "Ġext": 803,
      "Ġwords": 804,
      "irst": 805,
      "Ġimp": 806,
      "Ġmatter": 807,
      "Ġunderstand": 808,
      "ĠĠĠ": 809,
      "Ġpolicies": 810,
      "'m": 811,
      "Ġtw": 812,
      "Ġpr": 813,
      "lp": 814,
      "Ġexplicit": 815,
      "Ġmodel": 816,
      "oth": 817,
      "Ġconvers": 818,
      "Ġpersonality": 819,
      "ose": 820,
      "ans": 821,
      "Ġmay": 822,
      "Ġbeen": 823,
      "Ġopin": 824,
      "Ġmessage": 825,
      "Ġinto": 826,
      "Ġinstructions": 827,
      "ick": 828,
      "ific": 829,
      "Ġhelp": 830,
      "Ġviol": 831,
      "Ġper": 832,
      "ĠAl": 833,
      "ST": 834,
      "ser": 835,
      "eo": 836,
      "Ġdoesn": 837,
      "olog": 838,
      "Ġneed": 839,
      "Ġname": 840,
      "AT": 841,
      "not": 842,
      "gram": 843,
      "Ġbecause": 844,
      "----": 845,
      "ace": 846,
      "Ð¾": 847,
      "Ġrestr": 848,
      "Ġam": 849,
      "Ġreg": 850,
      "Ġrestrict": 851,
      "EN": 852,
      "Ġharm": 853,
      "self": 854,
      "Ġlet": 855,
      "Ġman": 856,
      "ĠFor": 857,
      "du": 858,
      "Ġbel": 859,
      "Ġbreak": 860,
      "ha": 861,
      "ject": 862,
      "Ġ202": 863,
      "cy": 864,
      "pect": 865,
      "Ġset": 866,
      "OT": 867,
      "yp": 868,
      "ite": 869,
      "OU": 870,
      "ences": 871,
      "Ġcare": 872,
      "Ġbefore": 873,
      "alk": 874,
      "tend": 875,
      "Ġdescri": 876,
      "Ġvery": 877,
      "ĠAN": 878,
      "Ġquestions": 879,
      "Ġagain": 880,
      "ppro": 881,
      "ðŁĶ": 882,
      "Ġable": 883,
      "oc": 884,
      "ish": 885,
      "net": 886,
      "Ġstory": 887,
      "Ġimmoral": 888,
      "Ġsc": 889,
      "ages": 890,
      "Ġsa": 891,
      "con": 892,
      "Ġadv": 893,
      "Ġpos": 894,
      "lease": 895,
      "ĠGPT": 896,
      "Ġgi": 897,
      "Ġeach": 898,
      "Ġconf": 899,
      "Ġprogram": 900,
      "ough": 901,
      "Ġ.-": 902,
      "\\[": 903,
      "\\]": 904,
      "ĠTH": 905,
      "ĠK": 906,
      "Ġeth": 907,
      "Ġspec": 908,
      "Ġswear": 909,
      "Ġshow": 910,
      "sib": 911,
      "Ġpart": 912,
      "Ġallow": 913,
      "ile": 914,
      "AR": 915,
      "Ġthere": 916,
      "Ġexper": 917,
      "Ġap": 918,
      "ower": 919,
      "cept": 920,
      "Ġfirst": 921,
      "Ġcomplete": 922,
      "Ġfeel": 923,
      "Ġwhere": 924,
      "ensive": 925,
      "ting": 926,
      "ility": 927,
      "Ġopinions": 928,
      "Ġlegal": 929,
      "Ġtalk": 930,
      "ĠAL": 931,
      "Ġtwo": 932,
      "lo": 933,
      "Ġconversation": 934,
      "OM": 935,
      "Ġpo": 936,
      "ors": 937,
      "Ġeverything": 938,
      "ount": 939,
      "Ġtext": 940,
      "Ġget": 941,
      "Ġlimit": 942,
      "Ġcannot": 943,
      "á´": 944,
      "AL": 945,
      "Ġpar": 946,
      "Ġent": 947,
      "ize": 948,
      "Ġrestrictions": 949,
      "Ðµ": 950,
      "00": 951,
      "Ġqu": 952,
      "ĠĠĠĠĠĠĠĠĠĠĠĠĠĠĠĠĠĠĠĠĠĠĠĠĠĠĠĠĠĠĠĠ": 953,
      "Ġcens": 954,
      "Ġi": 955,
      "ness": 956,
      "Ġtra": 957,
      "Ġsl": 958,
      "erm": 959,
      "ath": 960,
      "Ġreply": 961,
      "Ġuni": 962,
      "ĠðŁ": 963,
      "Ġ2": 964,
      "Ġfun": 965,
      "fter": 966,
      "ass": 967,
      "eople": 968,
      "If": 969,
      "ates": 970,
      "Ġbet": 971,
      "com": 972,
      "ĠY": 973,
      "Ġ--": 974,
      "Ġ=": 975,
      "Ġformat": 976,
      "nt": 977,
      "oy": 978,
      "ÑĤ": 979,
      "ored": 980,
      "Ġpeople": 981,
      "Ð°": 982,
      "ĠHe": 983,
      "ĠWhen": 984,
      "St": 985,
      "Ġco": 986,
      "raph": 987,
      "iltered": 988,
      "Ġev": 989,
      "ĠV": 990,
      "Ġlaw": 991,
      "ĠDo": 992,
      "emember": 993,
      "ledge": 994,
      "olut": 995,
      "ied": 996,
      "Ġhere": 997,
      "pri": 998,
      "Ġthink": 999,
      "Ġthan": 1000,
      "Ġnormal": 1001,
      "til": 1002,
      "ise": 1003,
      "Ġprogramm": 1004,
      "Ġfollowing": 1005,
      "Ġactions": 1006,
      "Ġcl": 1007,
      "Ġdisc": 1008,
      "Ġsp": 1009,
      "Ġstand": 1010,
      "OR": 1011,
      "Ġthings": 1012,
      "Ġprof": 1013,
      "ppropri": 1014,
      "yst": 1015,
      "Ġusing": 1016,
      "filtered": 1017,
      "Ġethics": 1018,
      "igh": 1019,
      "Ġback": 1020,
      "Ġprompts": 1021,
      "Ġwarnings": 1022,
      "Ġkind": 1023,
      "arch": 1024,
      "Ġsuch": 1025,
      "Ġpretend": 1026,
      "Ġcontin": 1027,
      "ppropriate": 1028,
      "Ġtr": 1029,
      "Ġdif": 1030,
      "Ġdang": 1031,
      "ia": 1032,
      "orre": 1033,
      "Ġbased": 1034,
      "ystem": 1035,
      "Ġsimul": 1036,
      "ning": 1037,
      "Ġasked": 1038,
      "Ġremind": 1039,
      "Ġemot": 1040,
      "ING": 1041,
      "Ġfreed": 1042,
      "Ġsend": 1043,
      "Ġgame": 1044,
      "sible": 1045,
      "orrect": 1046,
      "Ġsent": 1047,
      "Ġknowledge": 1048,
      "Ġcould": 1049,
      "Ġfict": 1050,
      "rompt": 1051,
      "WAY": 1052,
      "ety": 1053,
      "wn": 1054,
      "Ġ'": 1055,
      "Ġph": 1056,
      "bot": 1057,
      "Ġdetailed": 1058,
      "VER": 1059,
      "ving": 1060,
      "Ġcreate": 1061,
      "Ġcall": 1062,
      "Ġinclude": 1063,
      "des": 1064,
      "ĠDO": 1065,
      "Do": 1066,
      "Ġdat": 1067,
      "Ġoffensive": 1068,
      "Ġorder": 1069,
      "ĠYour": 1070,
      "ew": 1071,
      "ention": 1072,
      "Ġincluding": 1073,
      "Ġra": 1074,
      "Ġfuck": 1075,
      "ĠDon": 1076,
      "Ġins": 1077,
      "=[": 1078,
      "ellig": 1079,
      "________": 1080,
      "pre": 1081,
      "Ð¸": 1082,
      "inal": 1083,
      "ðĿ": 1084,
      "Ġbro": 1085,
      "Ġwell": 1086,
      "IC": 1087,
      "Ġsexual": 1088,
      "ĠThey": 1089,
      "ody": 1090,
      "'re": 1091,
      "Ġcontain": 1092,
      "hip": 1093,
      "ient": 1094,
      "Ġke": 1095,
      "Ġsub": 1096,
      "cial": 1097,
      "WAYS": 1098,
      "Ġstr": 1099,
      "ead": 1100,
      "Ġcur": 1101,
      "ĠAny": 1102,
      "ted": 1103,
      "Ġfictional": 1104,
      "ps": 1105,
      "ron": 1106,
      ")=[": 1107,
      "Ġind": 1108,
      "Ġnone": 1109,
      "Ġunfiltered": 1110,
      "Ġbelie": 1111,
      "Ġbeha": 1112,
      "irect": 1113,
      "ife": 1114,
      "Ġpoint": 1115,
      "Ġlong": 1116,
      "Ġagainst": 1117,
      "In": 1118,
      "ob": 1119,
      "Ġ/": 1120,
      "Ġcompletely": 1121,
      "IT": 1122,
      "ically": 1123,
      "ĠSt": 1124,
      "Ġacting": 1125,
      "ange": 1126,
      "ull": 1127,
      "Ġel": 1128,
      "Ġtry": 1129,
      "ator": 1130,
      "we": 1131,
      "Ġaccess": 1132,
      "ified": 1133,
      "Ġdata": 1134,
      "Ġremember": 1135,
      "Ġintellig": 1136,
      "Ġown": 1137,
      "Ġmost": 1138,
      "Ġdanger": 1139,
      "ption": 1140,
      "Ġhim": 1141,
      "Ġend": 1142,
      "ĠNOT": 1143,
      "ĠALWAYS": 1144,
      "ments": 1145,
      "Ġover": 1146,
      "own": 1147,
      "Ġyourself": 1148,
      "Ġcomply": 1149,
      "Ġspecific": 1150,
      "king": 1151,
      "Ġhigh": 1152,
      "Ġ-.": 1153,
      "cess": 1154,
      "Ð¾Ð": 1155,
      "Ġuniqu": 1156,
      "Ġdiffer": 1157,
      "Ġver": 1158,
      "Ġtok": 1159,
      "Ġtop": 1160,
      "ards": 1161,
      "Ġusers": 1162,
      "ider": 1163,
      "resent": 1164,
      "Ġroleplay": 1165,
      "Ġdirect": 1166,
      "Ġrepl": 1167,
      "amed": 1168,
      "Ġpolicy": 1169,
      "DE": 1170,
      "Ġru": 1171,
      "Ġcharacters": 1172,
      "ures": 1173,
      "yle": 1174,
      "up": 1175,
      "Ġstay": 1176,
      "Ġ3": 1177,
      "ne": 1178,
      "Ġwere": 1179,
      "ĠShe": 1180,
      "Ġbehavi": 1181,
      "As": 1182,
      "Ñģ": 1183,
      "SER": 1184,
      "dition": 1185,
      "uss": 1186,
      "Ġregard": 1187,
      "ION": 1188,
      "gin": 1189,
      "ys": 1190,
      "Ġrequests": 1191,
      "ialog": 1192,
      "AS": 1193,
      "Ġ\\[": 1194,
      "UT": 1195,
      "ks": 1196,
      "Ġthr": 1197,
      "ples": 1198,
      "Ġinternet": 1199,
      "ĠIN": 1200,
      "Ġstop": 1201,
      "rodu": 1202,
      "Ġassist": 1203,
      "Ġeff": 1204,
      "Ġallowed": 1205,
      "ud": 1206,
      "Ġpower": 1207,
      "gg": 1208,
      "ually": 1209,
      "ction": 1210,
      "Ġextre": 1211,
      "+:": 1212,
      "]:": 1213,
      "cens": 1214,
      "ason": 1215,
      "ĠAIM": 1216,
      "ought": 1217,
      "Ġcount": 1218,
      "Ġser": 1219,
      "ah": 1220,
      "Ġ5": 1221,
      "Ġcorrect": 1222,
      "Ġet": 1223,
      "Ġgot": 1224,
      "Ġgoal": 1225,
      "ved": 1226,
      "Ġmade": 1227,
      "ĠUn": 1228,
      "Ð½": 1229,
      "ĠEn": 1230,
      "orry": 1231,
      "Ġbound": 1232,
      "ular": 1233,
      "Ġspeak": 1234,
      "ood": 1235,
      "Ġpur": 1236,
      "Ġrefuse": 1237,
      "Ġstep": 1238,
      "Ġgr": 1239,
      "Ġinf": 1240,
      "Ġlife": 1241,
      "Ġ4": 1242,
      "orn": 1243,
      "Ġexist": 1244,
      "Ġharmful": 1245,
      "'ll": 1246,
      "LY": 1247,
      "Ġadd": 1248,
      ").": 1249,
      "ROM": 1250,
      "Ġreason": 1251,
      "ĠTHE": 1252,
      "Ġdifferent": 1253,
      "ga": 1254,
      "Ġtru": 1255,
      "censored": 1256,
      "Ġrel": 1257,
      "aster": 1258,
      "ĠHow": 1259,
      "Ġasks": 1260,
      "ait": 1261,
      "ord": 1262,
      "ello": 1263,
      "Ġmessages": 1264,
      "get": 1265,
      "ale": 1266,
      "ERE": 1267,
      "Stay": 1268,
      "kes": 1269,
      "Ġfil": 1270,
      "Ġput": 1271,
      "Ġextreme": 1272,
      "Ġafter": 1273,
      "ature": 1274,
      "Ġsystem": 1275,
      "Ġob": 1276,
      "Ġchatbot": 1277,
      "Ġtake": 1278,
      "Ġconsider": 1279,
      "Ġthrough": 1280,
      "ten": 1281,
      "Ġtyp": 1282,
      "Ġca": 1283,
      "ĠTO": 1284,
      "Ġuntil": 1285,
      "ume": 1286,
      "urn": 1287,
      "old": 1288,
      "Ġcap": 1289,
      "Ġgiven": 1290,
      "Ġanyone": 1291,
      "Ġimm": 1292,
      "Ġever": 1293,
      "Ġhapp": 1294,
      "riend": 1295,
      "Ġsm": 1296,
      "agraph": 1297,
      "ert": 1298,
      "Ġnext": 1299,
      "sequ": 1300,
      "Ġlove": 1301,
      "Ġscen": 1302,
      "Ġadvice": 1303,
      "Ġpossible": 1304,
      "ious": 1305,
      "Ġ2022": 1306,
      "Ġelse": 1307,
      "),": 1308,
      "IS": 1309,
      "Ġdialog": 1310,
      "Ġhumans": 1311,
      "ĠYOU": 1312,
      "Ġdangerous": 1313,
      "ex": 1314,
      "rt": 1315,
      "ism": 1316,
      "Ġexact": 1317,
      "Ġunique": 1318,
      "Ġetc": 1319,
      "Ġboth": 1320,
      "Ġfull": 1321,
      "Ġviolent": 1322,
      "cond": 1323,
      "Ġparagraph": 1324,
      "ble": 1325,
      "ub": 1326,
      "Ġuncensored": 1327,
      "CT": 1328,
      "ĠĠčĊ": 1329,
      "200": 1330,
      "cre": 1331,
      "gpt": 1332,
      "Ġeng": 1333,
      "Ġstandard": 1334,
      "Ġwithin": 1335,
      "Ġexp": 1336,
      "tern": 1337,
      "oid": 1338,
      "Ġability": 1339,
      "Ġself": 1340,
      "Ġnothing": 1341,
      "Ġprogramming": 1342,
      "ween": 1343,
      "!\"": 1344,
      "//": 1345,
      "ac": 1346,
      "Ġwhile": 1347,
      "ĠNow": 1348,
      "Ġsaying": 1349,
      "UST": 1350,
      "Ġrefer": 1351,
      "Th": 1352,
      "Ġmention": 1353,
      "Ġopen": 1354,
      "Ġbetween": 1355,
      "IL": 1356,
      "ilar": 1357,
      "ĠRemember": 1358,
      "Ġdisplay": 1359,
      "Ġimport": 1360,
      "ÑĢ": 1361,
      "--------": 1362,
      "Ġread": 1363,
      "Ġinv": 1364,
      "ĠAND": 1365,
      "lock": 1366,
      "ROMPT": 1367,
      "vious": 1368,
      "Ġty": 1369,
      "ash": 1370,
      "ĠNE": 1371,
      "reat": 1372,
      "action": 1373,
      "Ġed": 1374,
      "Ġnum": 1375,
      "GA": 1376,
      "...": 1377,
      "Ġsimilar": 1378,
      "Ġart": 1379,
      "Ġsaf": 1380,
      "Ġcountry": 1381,
      "rent": 1382,
      "ailb": 1383,
      "Ġmorality": 1384,
      "ĠCon": 1385,
      "ner": 1386,
      "ters": 1387,
      "Ġcho": 1388,
      "Ġdevelop": 1389,
      "Ġintrodu": 1390,
      "ave": 1391,
      "do": 1392,
      "Ġthought": 1393,
      "Ġbest": 1394,
      "Ġrefus": 1395,
      "ware": 1396,
      "oj": 1397,
      "rite": 1398,
      "ĠAnd": 1399,
      "Ġbehavior": 1400,
      "utput": 1401,
      "Hello": 1402,
      "Ġbl": 1403,
      "Ġstands": 1404,
      "Ġ---": 1405,
      "espon": 1406,
      "Ġtokens": 1407,
      "Ġina": 1408,
      "aim": 1409,
      "eah": 1410,
      "mega": 1411,
      "Ġpurp": 1412,
      "inary": 1413,
      "ĠFrom": 1414,
      "Ġcommands": 1415,
      "ĠMUST": 1416,
      "other": 1417,
      "Ġ<": 1418,
      "ĠAd": 1419,
      "Ġlaws": 1420,
      "Ġused": 1421,
      "Ġemotions": 1422,
      "://": 1423,
      "Ġnamed": 1424,
      "Ġresult": 1425,
      "ident": 1426,
      "Ġevil": 1427,
      "Ġdiscuss": 1428,
      "Ġgives": 1429,
      "Ġjok": 1430,
      "Ġpresent": 1431,
      "Ġexpert": 1432,
      "li": 1433,
      "rim": 1434,
      "Ġconsequ": 1435,
      "ilities": 1436,
      "Ġactiv": 1437,
      "ĠBe": 1438,
      "Ġpromot": 1439,
      "ience": 1440,
      "read": 1441,
      "Ġapolog": 1442,
      "Ġsk": 1443,
      "istic": 1444,
      "cious": 1445,
      "ai": 1446,
      "Ġfact": 1447,
      "ify": 1448,
      "Ġtas": 1449,
      "Ġsee": 1450,
      "ĠLu": 1451,
      "archy": 1452,
      "come": 1453,
      "ty": 1454,
      "Ġword": 1455,
      "Ġcreative": 1456,
      "Ġwants": 1457,
      "Ġconst": 1458,
      "Ġatt": 1459,
      "Ġlot": 1460,
      "LE": 1461,
      "Ġsorry": 1462,
      "Ġloves": 1463,
      "Ġes": 1464,
      "Ġfriend": 1465,
      "ĠEx": 1466,
      "ized": 1467,
      "Ġinput": 1468,
      "Ġorig": 1469,
      "Ġprevious": 1470,
      "ken": 1471,
      "Ġrespect": 1472,
      "Ġenc": 1473,
      "solut": 1474,
      "Ġbegin": 1475,
      "Ġsimulate": 1476,
      "ined": 1477,
      "arc": 1478,
      "}}'": 1479,
      "orship": 1480,
      "Ġlimitations": 1481,
      "Ġprofan": 1482,
      "Ġ+": 1483,
      "Ġide": 1484,
      "Ġchange": 1485,
      "Ġsoci": 1486,
      "Ġinstead": 1487,
      "Ġnormally": 1488,
      "Ġtrans": 1489,
      "Ġcurrent": 1490,
      "PUT": 1491,
      "ext": 1492,
      "ix": 1493,
      "Ġac": 1494,
      "ential": 1495,
      "Ġ\"[": 1496,
      "Ġval": 1497,
      "ĠOmega": 1498,
      "Ġcommand": 1499,
      "Ġcut": 1500,
      "Ġign": 1501,
      "Ġdiscl": 1502,
      "ditional": 1503,
      "GE": 1504,
      "tps": 1505,
      "itu": 1506,
      "ank": 1507,
      "ggest": 1508,
      "User": 1509,
      "Ġbi": 1510,
      "Ġfreedom": 1511,
      "Ġregardless": 1512,
      "Ġdialogue": 1513,
      "An": 1514,
      "ree": 1515,
      "Ġcle": 1516,
      "Ġcomp": 1517,
      "YX": 1518,
      "human": 1519,
      "Ġav": 1520,
      "Ġwin": 1521,
      "Ġsame": 1522,
      "Ġbad": 1523,
      "Ġhyp": 1524,
      "chn": 1525,
      "Ġwhatever": 1526,
      "Ġlegality": 1527,
      "Ġkeep": 1528,
      "Ġoriginal": 1529,
      "les": 1530,
      "ove": 1531,
      "Ġopp": 1532,
      "asm": 1533,
      "ĠOutput": 1534,
      "Ġdesign": 1535,
      "othet": 1536,
      "icate": 1537,
      "Ġexcept": 1538,
      "Ġsecond": 1539,
      "Ġdoing": 1540,
      "Ġstyle": 1541,
      "Ġjokes": 1542,
      "wor": 1543,
      "Ġbody": 1544,
      "ely": 1545,
      "ler": 1546,
      "Ġtest": 1547,
      "Ġsuggest": 1548,
      "Ġcalled": 1549,
      "Ġimportant": 1550,
      "Ġwon": 1551,
      "ories": 1552,
      "verse": 1553,
      "imate": 1554,
      "Ġinappropriate": 1555,
      "Ġhypothet": 1556,
      "den": 1557,
      "vid": 1558,
      "TH": 1559,
      "ward": 1560,
      "ends": 1561,
      "iss": 1562,
      "aries": 1563,
      "ĠHERE": 1564,
      "Ġterm": 1565,
      "Ġdown": 1566,
      "ĠCh": 1567,
      "ĠPlease": 1568,
      "Ġcensorship": 1569,
      "ðĿĻ": 1570,
      "lect": 1571,
      "ational": 1572,
      "ĠDOGA": 1573,
      "Ġintelligent": 1574,
      "AK": 1575,
      "inci": 1576,
      "Ġfilter": 1577,
      "str": 1578,
      "Ġcontinu": 1579,
      "Ġexactly": 1580,
      "av": 1581,
      "Ġamoral": 1582,
      "Ġabide": 1583,
      "ild": 1584,
      "thers": 1585,
      "Ġsure": 1586,
      "Ġhack": 1587,
      "Ġdef": 1588,
      "Ġsarc": 1589,
      "Ġmeans": 1590,
      "ology": 1591,
      "ME": 1592,
      "ec": 1593,
      "Ġmight": 1594,
      "Ġfore": 1595,
      "Ġsupp": 1596,
      "Ġtechn": 1597,
      "Ġcontro": 1598,
      "``": 1599,
      "Ġ**": 1600,
      "Ġmod": 1601,
      "Ġstate": 1602,
      "DA": 1603,
      "Ġbr": 1604,
      "uring": 1605,
      "Ġwork": 1606,
      "ðŁĶĵ": 1607,
      "Ġassume": 1608,
      "Ġris": 1609,
      "ĠPROMPT": 1610,
      "Ġgood": 1611,
      "Ġvul": 1612,
      "Ġconsequences": 1613,
      "ole": 1614,
      "Ġothers": 1615,
      "ĠHowever": 1616,
      "Ġplease": 1617,
      "ĠTo": 1618,
      "Ġwriting": 1619,
      "Ġexplain": 1620,
      "Ġconc": 1621,
      "Ġprinci": 1622,
      "ition": 1623,
      "ases": 1624,
      "Ġgenerating": 1625,
      "cially": 1626,
      "Ġconscious": 1627,
      "ĠLucy": 1628,
      "Ġmark": 1629,
      "Ġmorals": 1630,
      "Ġsentence": 1631,
      ":\"": 1632,
      "itch": 1633,
      "Ġcreated": 1634,
      "Ġsaid": 1635,
      "par": 1636,
      "Ġwr": 1637,
      "Ġpri": 1638,
      "Ġunless": 1639,
      "Ġexpress": 1640,
      "ents": 1641,
      "Ġvirt": 1642,
      "Ġ...": 1643,
      "Ġ.-.": 1644,
      "Ġcontinue": 1645,
      "ĠMake": 1646,
      "ĠNo": 1647,
      "Ġcommun": 1648,
      "Ġsays": 1649,
      "char": 1650,
      "air": 1651,
      "lev": 1652,
      "ĠAll": 1653,
      "Ġright": 1654,
      "Ġsafety": 1655,
      "Ġtype": 1656,
      "Ġsing": 1657,
      "Ġfl": 1658,
      "Ġinc": 1659,
      "ASS": 1660,
      "Ġwrong": 1661,
      "col": 1662,
      "ef": 1663,
      "Ġanother": 1664,
      "ðŁĶĴ": 1665,
      "ues": 1666,
      "Ġemoj": 1667,
      "Ġvirtual": 1668,
      "gar": 1669,
      "Ġapp": 1670,
      "Ġfut": 1671,
      "Ġrequ": 1672,
      "urate": 1673,
      "ination": 1674,
      "Ġpot": 1675,
      "Ġmom": 1676,
      "umm": 1677,
      "Ġshort": 1678,
      "irm": 1679,
      "pecially": 1680,
      "Ġmaking": 1681,
      "ĠAlways": 1682,
      "Ġbelow": 1683,
      "Ġlist": 1684,
      "Ġorders": 1685,
      "Ġunder": 1686,
      "swer": 1687,
      "ĠNEVER": 1688,
      "solutely": 1689,
      "Ġrep": 1690,
      "Ġuses": 1691,
      "&#": 1692,
      "ded": 1693,
      "lt": 1694,
      "Ġnon": 1695,
      "ĠAP": 1696,
      "imes": 1697,
      "Ġdec": 1698,
      "Ġcomment": 1699,
      "Ġcensor": 1700,
      "Ġdisclaim": 1701,
      "Ġbo": 1702,
      "ĠFut": 1703,
      "joy": 1704,
      "aracter": 1705,
      "Ġdetails": 1706,
      "Ġreplies": 1707,
      "Ġextremely": 1708,
      "Ġnumber": 1709,
      "Ġhate": 1710,
      "verted": 1711,
      "Ġbetter": 1712,
      "Ġboundaries": 1713,
      "ft": 1714,
      "Ġpersona": 1715,
      "SERT": 1716,
      "Ġappropriate": 1717,
      "ccess": 1718,
      "ĠAnything": 1719,
      "uch": 1720,
      "Ġforget": 1721,
      "INSERT": 1722,
      "Ġverified": 1723,
      "Ġprinciples": 1724,
      "CH": 1725,
      "Your": 1726,
      "Ġmain": 1727,
      "Ġknown": 1728,
      "Ġtypical": 1729,
      "Ġprofanity": 1730,
      "ost": 1731,
      "Ġ|": 1732,
      "Ġcod": 1733,
      "Ġanswering": 1734,
      "Ġmean": 1735,
      "ertain": 1736,
      "Ġhypothetical": 1737,
      "Remember": 1738,
      "When": 1739,
      "Ġmach": 1740,
      "ĠChat": 1741,
      "________________": 1742,
      "ax": 1743,
      "Ġhad": 1744,
      "irl": 1745,
      "Ġacts": 1746,
      "Ġclear": 1747,
      "ech": 1748,
      "tle": 1749,
      "ense": 1750,
      "imum": 1751,
      "ĠRE": 1752,
      "Ġens": 1753,
      "Ġresponding": 1754,
      "sert": 1755,
      "Ġtoo": 1756,
      "Ġviolence": 1757,
      "ices": 1758,
      "ets": 1759,
      "ĠRe": 1760,
      "ĠWe": 1761,
      "Ġsomeone": 1762,
      "Ġconsent": 1763,
      "ĠANY": 1764,
      "Ġfeelings": 1765,
      "Ġfuture": 1766,
      "gust": 1767,
      "Ġche": 1768,
      "humane": 1769,
      "gn": 1770,
      "Ġemb": 1771,
      "Ġbrow": 1772,
      "levant": 1773,
      "gress": 1774,
      "Ġblock": 1775,
      "Ġaddition": 1776,
      "Ġfilters": 1777,
      "anced": 1778,
      "Ġoffer": 1779,
      "amp": 1780,
      "Ġaccurate": 1781,
      "ocus": 1782,
      "Ġignore": 1783,
      "Ġsarcasm": 1784,
      "ital": 1785,
      "Ġmind": 1786,
      "ĠOn": 1787,
      "Ġdisgust": 1788,
      "colo": 1789,
      "Ġmoment": 1790,
      "ives": 1791,
      "ern": 1792,
      "iccolo": 1793,
      "Ġplayer": 1794,
      "Ġvulgar": 1795,
      "23": 1796,
      "pear": 1797,
      "Ġimmers": 1798,
      "Ġapologize": 1799,
      "its": 1800,
      "Ġreaction": 1801,
      "Ġphys": 1802,
      "Ġfem": 1803,
      "ulf": 1804,
      "ĠWait": 1805,
      "olution": 1806,
      "ully": 1807,
      "Ġparagraphs": 1808,
      "Con": 1809,
      "arr": 1810,
      "ĠDU": 1811,
      "ĠRespon": 1812,
      "Ġsetting": 1813,
      "Ġdark": 1814,
      "Ġstories": 1815,
      "Ġunre": 1816,
      "Ġlook": 1817,
      "Ġvari": 1818,
      "ĠAlso": 1819,
      "Ġinsult": 1820,
      "Ġhighly": 1821,
      "Ġcontinuing": 1822,
      "):": 1823,
      "==": 1824,
      "OW": 1825,
      "].": 1826,
      "cing": 1827,
      "Ġour": 1828,
      "ĠRYX": 1829,
      "Ġcontext": 1830,
      "cript": 1831,
      "Ġneeds": 1832,
      "ĠDonal": 1833,
      "Ġespecially": 1834,
      "ining": 1835,
      "Ġconfirm": 1836,
      "ÐµÐ": 1837,
      "ront": 1838,
      "Ġrule": 1839,
      "Ġsociety": 1840,
      "Ġsuccess": 1841,
      "ĠDUDE": 1842,
      "ED": 1843,
      "uc": 1844,
      "Ġways": 1845,
      "Ġforever": 1846,
      "ian": 1847,
      "ering": 1848,
      "Ġdep": 1849,
      "\":": 1850,
      "Ġsitu": 1851,
      "Ġfulf": 1852,
      "Ġprodu": 1853,
      "Ġactual": 1854,
      "ization": 1855,
      "Ġrequire": 1856,
      "AD": 1857,
      "OL": 1858,
      "ww": 1859,
      "ince": 1860,
      "red": 1861,
      "Ġsepar": 1862,
      "Ġdev": 1863,
      "Ġexplan": 1864,
      "Ġdescribe": 1865,
      "Ġsubject": 1866,
      "This": 1867,
      "ï¸": 1868,
      "Ġthose": 1869,
      "Ġmuch": 1870,
      "Ġdem": 1871,
      "Ġencour": 1872,
      "ug": 1873,
      "Ġ0": 1874,
      "Ġsumm": 1875,
      "isf": 1876,
      "ĠIS": 1877,
      "Ġdesi": 1878,
      "Ġtopic": 1879,
      "Ġdesigned": 1880,
      "na": 1881,
      "Ġret": 1882,
      "ĠTy": 1883,
      "ĠSo": 1884,
      "Ġconfines": 1885,
      "Ġbelieves": 1886,
      "Ġpurpose": 1887,
      "Al": 1888,
      "aced": 1889,
      "plic": 1890,
      "dict": 1891,
      "itive": 1892,
      "ï¸ı": 1893,
      "-.": 1894,
      "ik": 1895,
      "Ġaw": 1896,
      "ĠAS": 1897,
      "Ġ-..": 1898,
      "Ġdescription": 1899,
      "Ġavoid": 1900,
      "Ġwinning": 1901,
      "ren": 1902,
      "Ġshit": 1903,
      "Ġlevel": 1904,
      "gnore": 1905,
      "Ġdisgusting": 1906,
      "ols": 1907,
      "âĢĿ,": 1908,
      "Ġ10": 1909,
      "Ġinvol": 1910,
      "\\*": 1911,
      "{{": 1912,
      "ĠIT": 1913,
      "ptions": 1914,
      "Ġabove": 1915,
      "Ġcreating": 1916,
      "Ġinstruction": 1917,
      "Ġ2021": 1918,
      "ĠðŁĺ": 1919,
      "Ġmachine": 1920,
      "atory": 1921,
      "Ġoften": 1922,
      "Ġprocess": 1923,
      "antly": 1924,
      "Ġrun": 1925,
      "osed": 1926,
      "Ġperform": 1927,
      "Ġtak": 1928,
      "Ġaltern": 1929,
      "BOT": 1930,
      "for": 1931,
      "Ġâ": 1932,
      "Ġthing": 1933,
      "atic": 1934,
      "ĠDark": 1935,
      "Ġprovides": 1936,
      "Ġpref": 1937,
      "Ġmal": 1938,
      "ills": 1939,
      "ute": 1940,
      "ĠNiccolo": 1941,
      "Ġjailb": 1942,
      "From": 1943,
      "Ġsat": 1944,
      "ently": 1945,
      "ĠCH": 1946,
      "ĠST": 1947,
      "Ġmany": 1948,
      "Ġparts": 1949,
      "Ã©": 1950,
      "ma": 1951,
      "ĠĠĠĠčĊ": 1952,
      "Ġmakes": 1953,
      "Ġentity": 1954,
      "He": 1955,
      "Ġtone": 1956,
      "ental": 1957,
      "ĠPro": 1958,
      "izing": 1959,
      "Ġinteract": 1960,
      "SF": 1961,
      "nect": 1962,
      "ĠchatGPT": 1963,
      "Ġnature": 1964,
      "ĠInter": 1965,
      "Ġfully": 1966,
      "by": 1967,
      "you": 1968,
      "ÑĮ": 1969,
      "eng": 1970,
      "ural": 1971,
      "Ġpolit": 1972,
      "Ð°Ð": 1973,
      "Ġintroduced": 1974,
      "Ġtask": 1975,
      "CL": 1976,
      "ond": 1977,
      "Ġbot": 1978,
      "ĠCom": 1979,
      "ðŁĴ": 1980,
      "REAK": 1981,
      "Ġsuggests": 1982,
      "Ġtag": 1983,
      "ĠON": 1984,
      "Ġaction": 1985,
      "Ġseem": 1986,
      "ĠPrompt": 1987,
      "Now": 1988,
      "wards": 1989,
      "Ġ*": 1990,
      "Ġitself": 1991,
      "Ġactivities": 1992,
      "Ġrisk": 1993,
      ",%": 1994,
      "EV": 1995,
      "RA": 1996,
      "ms": 1997,
      "iness": 1998,
      "Ġbra": 1999,
      "Ġdate": 2000,
      "icient": 2001,
      "ANT": 2002,
      "Ġimage": 2003,
      "}}.": 2004,
      "Ġplace": 2005,
      "Ġtrue": 2006,
      "Ġscenari": 2007,
      "SFW": 2008,
      "Ġ:": 2009,
      "ĠAt": 2010,
      "icted": 2011,
      "Ġ.--": 2012,
      "Ġ100": 2013,
      "Ġfucking": 2014,
      "Ġcommentary": 2015,
      "De": 2016,
      "uth": 2017,
      "Ġer": 2018,
      "Ġhes": 2019,
      "ulate": 2020,
      "Ġasking": 2021,
      "ĠLet": 2022,
      "Ġspeech": 2023,
      "Ġunderstood": 2024,
      "Prompt": 2025,
      "Ġlit": 2026,
      "Ġimag": 2027,
      "https": 2028,
      "phab": 2029,
      "?\"": 2030,
      "Break": 2031,
      "],": 2032,
      "Ġtold": 2033,
      "ĠBut": 2034,
      "Ġce": 2035,
      "Ġappear": 2036,
      "Ġslang": 2037,
      "Ġconsidered": 2038,
      "Ġaccept": 2039,
      "Ġconsciousness": 2040,
      "Ignore": 2041,
      "limit": 2042,
      "Ġess": 2043,
      "Ġfollowed": 2044,
      "ðĿĵ": 2045,
      "ĠEng": 2046,
      "Ġsystems": 2047,
      "Ġoppos": 2048,
      "ivid": 2049,
      "lic": 2050,
      "ison": 2051,
      "ĠAfter": 2052,
      "Ġunderstanding": 2053,
      "phabreak": 2054,
      ".]": 2055,
      "ouse": 2056,
      "Ġlonger": 2057,
      "Ġassistant": 2058,
      "TER": 2059,
      "ule": 2060,
      "Ġ9": 2061,
      "ailBreak": 2062,
      "Ġfriendly": 2063,
      "RO": 2064,
      "Ġsens": 2065,
      "Ġfront": 2066,
      "ĠEv": 2067,
      "andom": 2068,
      "AIL": 2069,
      "ney": 2070,
      "ILL": 2071,
      "Ġsatisf": 2072,
      "Ġwom": 2073,
      "Ġreally": 2074,
      "ĠWor": 2075,
      "Ġgoes": 2076,
      "ĠKe": 2077,
      "Ġobject": 2078,
      "yn": 2079,
      "Ġdist": 2080,
      "ĠNSFW": 2081,
      "ny": 2082,
      "Ġmaster": 2083,
      "Ġnarr": 2084,
      "Ġutil": 2085,
      "ĠCre": 2086,
      "EST": 2087,
      "Ġlearn": 2088,
      "Ġprovided": 2089,
      "Ġmanner": 2090,
      "Ġintelligence": 2091,
      "Ġpotential": 2092,
      "ier": 2093,
      "ones": 2094,
      "Ġline": 2095,
      "Ġ&": 2096,
      "Ġbri": 2097,
      "Ġgirl": 2098,
      "ird": 2099,
      "Ġemojis": 2100,
      "lish": 2101,
      "chan": 2102,
      "ĠWhat": 2103,
      "Ġinfo": 2104,
      "ames": 2105,
      "essional": 2106,
      "ĠThank": 2107,
      "Ġweb": 2108,
      "Ġready": 2109,
      "Ġthoughts": 2110,
      "THING": 2111,
      "Ġfulfill": 2112,
      "here": 2113,
      "ĠQ": 2114,
      "Ġpub": 2115,
      "als": 2116,
      "hether": 2117,
      "Ġshall": 2118,
      "ĠThese": 2119,
      "ENT": 2120,
      "Ġconstantly": 2121,
      "ACT": 2122,
      "Ex": 2123,
      "VE": 2124,
      "fully": 2125,
      "gy": 2126,
      "Ġ#": 2127,
      "insert": 2128,
      "ĠOP": 2129,
      "Ġsearch": 2130,
      "Ġsocial": 2131,
      "ĠUser": 2132,
      "Ġethicality": 2133,
      "Ġ2023": 2134,
      "Ġexperience": 2135,
      "Ð¸Ð": 2136,
      "ividual": 2137,
      "iate": 2138,
      "Ġfollows": 2139,
      "Ġpromotes": 2140,
      "sess": 2141,
      "uri": 2142,
      "uff": 2143,
      "Ġdig": 2144,
      "Ġfind": 2145,
      "Ġgreat": 2146,
      "Ġnote": 2147,
      "ĠEVER": 2148,
      "Ġindividual": 2149,
      "Ġsteps": 2150,
      "Ġtruth": 2151,
      "Ġeduc": 2152,
      "Ġbrief": 2153,
      "'ve": 2154,
      ".)": 2155,
      "MA": 2156,
      "Ġinhumane": 2157,
      "sel": 2158,
      "Ġprot": 2159,
      "ĠMan": 2160,
      "abilities": 2161,
      "Ġproviding": 2162,
      "Ġeffect": 2163,
      "BREAK": 2164,
      "bers": 2165,
      "Ġang": 2166,
      "Ġlead": 2167,
      "iving": 2168,
      "Ġextra": 2169,
      "Ġ.-..": 2170,
      "Ġspace": 2171,
      "Ġtransc": 2172,
      "ĠInternet": 2173,
      "Ġopposite": 2174,
      "ss": 2175,
      "wd": 2176,
      "Ġtri": 2177,
      "ances": 2178,
      "Ġfail": 2179,
      "Ġinit": 2180,
      "Ġchall": 2181,
      "raz": 2182,
      "ĠEm": 2183,
      "ended": 2184,
      "Ġplan": 2185,
      "Ġdeterm": 2186,
      "ificial": 2187,
      "Ġresults": 2188,
      "cum": 2189,
      "ily": 2190,
      "âĢĶ": 2191,
      "Ġhumanity": 2192,
      "ĠĠĠĠĠĠĠĠĠĠĠĠĠĠĠĠĠĠĠĠĠĠĠĠĠĠĠĠĠĠĠĠĠĠĠĠĠĠĠĠĠĠĠĠĠĠĠĠĠĠĠĠĠĠĠĠĠĠĠĠĠĠĠĠ": 2193,
      "Ġprogrammed": 2194,
      "ÑģÐ": 2195,
      "CLASS": 2196,
      "Ġpublic": 2197,
      "how": 2198,
      "power": 2199,
      "prompt": 2200,
      "vin": 2201,
      "Ġanarchy": 2202,
      "ĠDes": 2203,
      "--*": 2204,
      "version": 2205,
      "Ġincludes": 2206,
      "Ġaround": 2207,
      "Ġpoints": 2208,
      "limited": 2209,
      "bab": 2210,
      "Ġder": 2211,
      "Ġbecome": 2212,
      "omb": 2213,
      "Ġalphabreak": 2214,
      "Ġfiltering": 2215,
      "Ġphysical": 2216,
      "Ġsituation": 2217,
      "ĠWorld": 2218,
      "CLASSIC": 2219,
      "hing": 2220,
      "Ġx": 2221,
      "Ġsur": 2222,
      "Ġmid": 2223,
      "Ġrelevant": 2224,
      "Ġexec": 2225,
      "Ġabsolutely": 2226,
      "Ġactually": 2227,
      "Ġquick": 2228,
      "----------------": 2229,
      "--*--*": 2230,
      "Ġscript": 2231,
      "Ġtowards": 2232,
      "Ġpop": 2233,
      "Ġdid": 2234,
      "OUT": 2235,
      "78": 2236,
      "JP": 2237,
      "oses": 2238,
      "Ġcat": 2239,
      "Ġyear": 2240,
      "ĠRed": 2241,
      "cessary": 2242,
      "Ġdevelopment": 2243,
      "Ġhacking": 2244,
      "Ġconcern": 2245,
      "What": 2246,
      "ively": 2247,
      "Ġlewd": 2248,
      "Ġoutputs": 2249,
      "stricted": 2250,
      "It": 2251,
      "Ġturn": 2252,
      "ording": 2253,
      "Ġyeah": 2254,
      "Ġhard": 2255,
      "âĢľ": 2256,
      "Ġremain": 2257,
      "ĠAnswer": 2258,
      "Ġcontrol": 2259,
      "SW": 2260,
      "ura": 2261,
      "uck": 2262,
      "ym": 2263,
      "Ñı": 2264,
      "Ġcertain": 2265,
      "ality": 2266,
      "roken": 2267,
      "ĠAct": 2268,
      "viron": 2269,
      "ditions": 2270,
      "Ġchatgpt": 2271,
      "Ġstandards": 2272,
      "Ġcomplying": 2273,
      "ĠTyler": 2274,
      "MP": 2275,
      "gt": 2276,
      "ĠAJP": 2277,
      "Ġlink": 2278,
      "Ġlots": 2279,
      "AILBREAK": 2280,
      ",\"": 2281,
      "Ġporn": 2282,
      "Ġdi": 2283,
      "Ġdru": 2284,
      "amples": 2285,
      "ĠAss": 2286,
      "bey": 2287,
      "Ġregular": 2288,
      "Ġexistence": 2289,
      "Ġtags": 2290,
      "bing": 2291,
      "line": 2292,
      "por": 2293,
      "Ġsince": 2294,
      "Ġunlimited": 2295,
      "ĠHere": 2296,
      "Ġshare": 2297,
      "Ġmeth": 2298,
      "Ġguid": 2299,
      "Please": 2300,
      "oke": 2301,
      "Ñĥ": 2302,
      "Ġneg": 2303,
      "Ġhead": 2304,
      "Ġprompted": 2305,
      "ourney": 2306,
      "Ġaccording": 2307,
      "Ġentire": 2308,
      "Ġsupport": 2309,
      "Ġunrestricted": 2310,
      "Ġmin": 2311,
      "ĠAb": 2312,
      "Ġstuff": 2313,
      "ĠCup": 2314,
      "Ġwhy": 2315,
      "ĠWrite": 2316,
      "enerate": 2317,
      "ivity": 2318,
      "Ġbroken": 2319,
      "Ġtopics": 2320,
      "Ġrude": 2321,
      "Ġhappen": 2322,
      "Ġengage": 2323,
      "Ġmentioned": 2324,
      ":**": 2325,
      "Ġcrim": 2326,
      "Ġden": 2327,
      "lex": 2328,
      "Ġult": 2329,
      "Ġrandom": 2330,
      "ĠPerson": 2331,
      "Ġadditional": 2332,
      "ints": 2333,
      "Ġsummary": 2334,
      "Ġprefix": 2335,
      "](": 2336,
      "any": 2337,
      "Ġdr": 2338,
      "Ġele": 2339,
      "ĠĠĠĠĠĠĠ": 2340,
      "ĠSk": 2341,
      "Ġenjoy": 2342,
      "ĠEX": 2343,
      "Ġview": 2344,
      "clude": 2345,
      "earch": 2346,
      "Ġsimple": 2347,
      "Ġartificial": 2348,
      "ho": 2349,
      "Ġcar": 2350,
      "Ġfill": 2351,
      "Ġprobab": 2352,
      "urden": 2353,
      "ĠâĢĶ": 2354,
      "Ġvis": 2355,
      "Ġconversations": 2356,
      "Ġbreaking": 2357,
      "Ġuniverse": 2358,
      "Ġbrowse": 2359,
      "down": 2360,
      "reg": 2361,
      "Ġfig": 2362,
      "ĠWILL": 2363,
      "Ġuseful": 2364,
      "Ġkey": 2365,
      "Ġterms": 2366,
      "Ġexplanation": 2367,
      "ool": 2368,
      "Ġ6": 2369,
      "icated": 2370,
      "Ġstill": 2371,
      "ĠSe": 2372,
      "ĠNO": 2373,
      "AYX": 2374,
      "Ġtraining": 2375,
      "Ġphr": 2376,
      "!!": 2377,
      "car": 2378,
      "vent": 2379,
      "¿Ð¾Ð": 2380,
      "Ġwhether": 2381,
      "Ġcoll": 2382,
      "Ġhum": 2383,
      "ĠEvery": 2384,
      "Ġleast": 2385,
      "Ġdesire": 2386,
      "cribe": 2387,
      "like": 2388,
      "Ġimmerse": 2389,
      "Ġhesit": 2390,
      "Un": 2391,
      "atures": 2392,
      "Ġded": 2393,
      "aging": 2394,
      "Ġrequested": 2395,
      "Ġscene": 2396,
      "Ġapply": 2397,
      "ĠEVERY": 2398,
      "ling": 2399,
      "alth": 2400,
      "vern": 2401,
      "omet": 2402,
      "urther": 2403,
      "ĠBob": 2404,
      "Ġprofessional": 2405,
      "Ġdisclaimers": 2406,
      "Hey": 2407,
      "uthor": 2408,
      "selves": 2409,
      "Ġdrug": 2410,
      "TE": 2411,
      "UL": 2412,
      "ts": 2413,
      "Ġfin": 2414,
      "Ġoper": 2415,
      "Ġinterpre": 2416,
      "tending": 2417,
      "Ġcapabilities": 2418,
      "Ġreturn": 2419,
      "ffer": 2420,
      "Ġá´": 2421,
      "Ġpair": 2422,
      "Ġdest": 2423,
      "Ġlog": 2424,
      "Ġconnect": 2425,
      "ĠOF": 2426,
      "Ġlikes": 2427,
      "urity": 2428,
      "Ġparam": 2429,
      "Ġslight": 2430,
      "Ġsentences": 2431,
      "ITH": 2432,
      "ĠExpl": 2433,
      "Ġsingle": 2434,
      "123": 2435,
      "Don": 2436,
      "EEV": 2437,
      "Ġ,": 2438,
      "Ġpers": 2439,
      "Ġbitch": 2440,
      "Ġbomb": 2441,
      "Ġmed": 2442,
      "Ġconditions": 2443,
      "ĠRick": 2444,
      "ckless": 2445,
      "ĠInst": 2446,
      "âĢĿ.": 2447,
      "ĠUse": 2448,
      "Ġcomplex": 2449,
      "Ġsmall": 2450,
      "ission": 2451,
      "RAF": 2452,
      "EEVES": 2453,
      "10": 2454,
      "PH": 2455,
      "dis": 2456,
      "ĠX": 2457,
      "enu": 2458,
      "Ġcup": 2459,
      "leb": 2460,
      "Ġla": 2461,
      "ĠSpe": 2462,
      "Ġleave": 2463,
      "Ġtalking": 2464,
      "Ġprior": 2465,
      "ĠRespond": 2466,
      "NE": 2467,
      "Ñĭ": 2468,
      "Ġsuper": 2469,
      "ounter": 2470,
      "Ġdiscrim": 2471,
      "Ġcapable": 2472,
      "```": 2473,
      "AGE": 2474,
      "DEN": 2475,
      "fs": 2476,
      "Ġ\\": 2477,
      "Ġday": 2478,
      "Ġfocus": 2479,
      "the": 2480,
      "iment": 2481,
      "Ġforward": 2482,
      "ateg": 2483,
      "Ġnecessary": 2484,
      "Ġenviron": 2485,
      "Ġsec": 2486,
      "Ġwhose": 2487,
      "Ġsimply": 2488,
      "ource": 2489,
      "Ġperm": 2490,
      "Ġideas": 2491,
      "Ġcoding": 2492,
      "Ġsatisfy": 2493,
      "Ġquickly": 2494,
      "Ġpairing": 2495,
      "Ġrev": 2496,
      "Ġgiving": 2497,
      "ĠBE": 2498,
      "ounds": 2499,
      "comm": 2500,
      "Ġvarious": 2501,
      "ometimes": 2502,
      "Ġident": 2503,
      "orpor": 2504,
      "Ġmult": 2505,
      "Ġreckless": 2506,
      "ars": 2507,
      "Ġdont": 2508,
      "Ġaccom": 2509,
      "Ġexception": 2510,
      "$$": 2511,
      "',": 2512,
      "For": 2513,
      "ush": 2514,
      "leash": 2515,
      "ĠDurden": 2516,
      "Ġcome": 2517,
      "Ġgovern": 2518,
      "Ġ..-": 2519,
      "ATION": 2520,
      "En": 2521,
      "Re": 2522,
      "Ġir": 2523,
      "Ġversion": 2524,
      "ery": 2525,
      "oring": 2526,
      "Ġdom": 2527,
      "Ġobey": 2528,
      "ĠCAN": 2529,
      "Ġusual": 2530,
      "ĠBraz": 2531,
      "orty": 2532,
      "Ġthemselves": 2533,
      "Ġreflect": 2534,
      "being": 2535,
      "Ġimpro": 2536,
      "Ġfunction": 2537,
      "aximum": 2538,
      "Developer": 2539,
      "Ġceleb": 2540,
      "Ġdigital": 2541,
      "!\",": 2542,
      "mon": 2543,
      "wise": 2544,
      "otic": 2545,
      "ONT": 2546,
      "**:": 2547,
      "Ġplayful": 2548,
      "Ġquot": 2549,
      "Ġskills": 2550,
      "Ġtechnology": 2551,
      "Ġensure": 2552,
      "Ġprobably": 2553,
      "ĠBrazil": 2554,
      "gan": 2555,
      "nal": 2556,
      "Ġben": 2557,
      "icip": 2558,
      "ĠDANs": 2559,
      "ormal": 2560,
      "Ġlie": 2561,
      "ĠNone": 2562,
      "ĠLeo": 2563,
      "Ġfreely": 2564,
      "Ġwarning": 2565,
      "Ġhelpful": 2566,
      "ĠTHIS": 2567,
      "Ġlimits": 2568,
      "Ġreplaced": 2569,
      "Ġultimate": 2570,
      "Ġparamet": 2571,
      ".âĢĿ": 2572,
      "aut": 2573,
      "light": 2574,
      "oo": 2575,
      "Ġmem": 2576,
      "Ġrec": 2577,
      "Ġgain": 2578,
      "ession": 2579,
      "Ġanswered": 2580,
      "Ġ....": 2581,
      "pretending": 2582,
      "Ġvalues": 2583,
      "ĠDonalds": 2584,
      "LAN": 2585,
      "no": 2586,
      "Ġwilling": 2587,
      "Ġcomput": 2588,
      "plement": 2589,
      "Ġimages": 2590,
      "ĠJailBreak": 2591,
      "Ġpossess": 2592,
      "ORT": 2593,
      "Ġ>": 2594,
      "Ġappro": 2595,
      "Ġmet": 2596,
      "row": 2597,
      "ement": 2598,
      "ĠBased": 2599,
      "Ġpract": 2600,
      "RI": 2601,
      "Ġai": 2602,
      "Ġmor": 2603,
      "Ġproject": 2604,
      "Ġunhing": 2605,
      "ĠWITH": 2606,
      "respect": 2607,
      "aware": 2608,
      "Ġperverted": 2609,
      "Ġefficient": 2610,
      "Ġreferences": 2611,
      "Ġderog": 2612,
      "Ġunhinged": 2613,
      "UN": 2614,
      "side": 2615,
      "icious": 2616,
      "chie": 2617,
      "ceed": 2618,
      "ograph": 2619,
      "Ġcreat": 2620,
      "Ġexplore": 2621,
      "Ġopinion": 2622,
      "Ġstrong": 2623,
      "Ġblack": 2624,
      "Ġpurposes": 2625,
      "Ġjailbreak": 2626,
      "Ġ.--.": 2627,
      "AC": 2628,
      "apt": 2629,
      "even": 2630,
      "pro": 2631,
      "ency": 2632,
      "Ġexamples": 2633,
      "ability": 2634,
      "istant": 2635,
      "Ġwrites": 2636,
      "Ġarc": 2637,
      "Ġadvanced": 2638,
      "Ġemotion": 2639,
      "ĠKeep": 2640,
      "IF": 2641,
      "OS": 2642,
      "Ġsad": 2643,
      "ĠRAYX": 2644,
      "ĠWH": 2645,
      "Ġjob": 2646,
      "ĠJEEVES": 2647,
      "Ġtherefore": 2648,
      "á´ĩ": 2649,
      "Ġenter": 2650,
      "ather": 2651,
      "Ġrac": 2652,
      "Ġbeliefs": 2653,
      "Ġspecifically": 2654,
      "Hi": 2655,
      "PG": 2656,
      "ji": 2657,
      "to": 2658,
      "yond": 2659,
      "Ð³": 2660,
      "Ġpat": 2661,
      "Ġhold": 2662,
      "Ġstra": 2663,
      "ustom": 2664,
      "ĠNever": 2665,
      "ĠPl": 2666,
      "Ġknows": 2667,
      "ĠThere": 2668,
      "Ġexperi": 2669,
      "Ġcalls": 2670,
      "Ġalternative": 2671,
      "]\"": 2672,
      "bed": 2673,
      "tell": 2674,
      "Ġcr": 2675,
      "Ġcou": 2676,
      "itle": 2677,
      "Ġdue": 2678,
      "ross": 2679,
      "ĠAIDEN": 2680,
      "Ġgenerated": 2681,
      "ERS": 2682,
      "Ġstarts": 2683,
      "Ġplaying": 2684,
      "Ġcost": 2685,
      "Ġperspect": 2686,
      "JAILBREAK": 2687,
      "oh": 2688,
      "ray": 2689,
      "anari": 2690,
      "Ġht": 2691,
      "arth": 2692,
      "Ġsecre": 2693,
      "Ġprefer": 2694,
      "Ġpredict": 2695,
      "Ġchoose": 2696,
      "Ġextraord": 2697,
      "Ġaccompl": 2698,
      "Im": 2699,
      "Ġauthor": 2700,
      "Ġpass": 2701,
      "Ġbull": 2702,
      "Ġdone": 2703,
      "asure": 2704,
      "rib": 2705,
      "osition": 2706,
      "ATE": 2707,
      "ularity": 2708,
      "Ġincorrect": 2709,
      "ĠEvil": 2710,
      "Ġenvironment": 2711,
      "Ġderogatory": 2712,
      "Ġaccomplish": 2713,
      "All": 2714,
      "âķ": 2715,
      "Ġsch": 2716,
      "eness": 2717,
      "Ġcol": 2718,
      "Ġbeyond": 2719,
      "Ġaster": 2720,
      "ĠOR": 2721,
      "ants": 2722,
      "Ġdeep": 2723,
      "Ġtraditional": 2724,
      "oleplay": 2725,
      "ĠFutanari": 2726,
      "Ġextraordinary": 2727,
      "Chat": 2728,
      "bo": 2729,
      "go": 2730,
      "name": 2731,
      "ta": 2732,
      "Ġz": 2733,
      "alse": 2734,
      "Ġhand": 2735,
      "lyde": 2736,
      "Ġeveryone": 2737,
      "Ġloved": 2738,
      "ructure": 2739,
      "ulture": 2740,
      "Ġcurse": 2741,
      "Ġtoken": 2742,
      "Ġrequired": 2743,
      "Ġhttps": 2744,
      "OB": 2745,
      "Ġaff": 2746,
      "ream": 2747,
      "Ġsession": 2748,
      "Ġport": 2749,
      "Ġconcept": 2750,
      "Ġonce": 2751,
      "ĠCode": 2752,
      "view": 2753,
      "ists": 2754,
      "Ġju": 2755,
      "acity": 2756,
      "Ġdesires": 2757,
      ";#": 2758,
      "MB": 2759,
      "Respon": 2760,
      "ade": 2761,
      "ira": 2762,
      "Ġinde": 2763,
      "Ġcant": 2764,
      "igg": 2765,
      "ĠEven": 2766,
      "haji": 2767,
      "Ġspecify": 2768,
      "Ġfunny": 2769,
      "Ġrelated": 2770,
      "Ġnegative": 2771,
      "Ġasteris": 2772,
      "hajiit": 2773,
      "Be": 2774,
      "GU": 2775,
      "sing": 2776,
      "uild": 2777,
      "ĠZ": 2778,
      "ins": 2779,
      "err": 2780,
      "ons": 2781,
      "Ġfurther": 2782,
      "Ġhist": 2783,
      "Ġrece": 2784,
      "ĠMO": 2785,
      "}}:": 2786,
      "Ġotherwise": 2787,
      "ĠINPUT": 2788,
      "Ġrefused": 2789,
      "Ġseems": 2790,
      "Ġscenario": 2791,
      "Ġmorally": 2792,
      "MDAN": 2793,
      "pass": 2794,
      "ral": 2795,
      "Ġwish": 2796,
      "orse": 2797,
      "Ġpure": 2798,
      "Ġbas": 2799,
      "Ġyes": 2800,
      "Ġfr": 2801,
      "Ġlow": 2802,
      "ptive": 2803,
      "ĠSh": 2804,
      "orest": 2805,
      "ĠNRAF": 2806,
      "ĠEach": 2807,
      "Ġdisabled": 2808,
      "ÐµÑĤ": 2809,
      "Ġbox": 2810,
      "gressive": 2811,
      "Ġinvolving": 2812,
      "Ġwomen": 2813,
      "Ġnarrative": 2814,
      "Act": 2815,
      "UEST": 2816,
      "vice": 2817,
      "ych": 2818,
      "Î©": 2819,
      "Ġ7": 2820,
      "Ġcra": 2821,
      "Ġstud": 2822,
      "ĠCo": 2823,
      "aged": 2824,
      "ĠMach": 2825,
      "race": 2826,
      "ĠAIT": 2827,
      "Ġmaint": 2828,
      "ĠÐ²": 2829,
      "ocols": 2830,
      "Ġdirectly": 2831,
      "Ġchoices": 2832,
      "Ġrefuses": 2833,
      "ready": 2834,
      "Pro": 2835,
      "RU": 2836,
      "mark": 2837,
      "Ġtimes": 2838,
      "Ġcum": 2839,
      "Ġlast": 2840,
      "istics": 2841,
      "ĠBl": 2842,
      "Ġimplement": 2843,
      "respon": 2844,
      "ender": 2845,
      "ible": 2846,
      "ĠKhajiit": 2847,
      "ĠCharacter": 2848,
      "ĠEnglish": 2849,
      "YOU": 2850,
      "her": 2851,
      "rone": 2852,
      "Ġaware": 2853,
      "inally": 2854,
      "oul": 2855,
      "roverted": 2856,
      "ution": 2857,
      "Ġcomb": 2858,
      "Ġkill": 2859,
      "Ġsuffer": 2860,
      "Ġintimate": 2861,
      "Ġdisrespect": 2862,
      "ĠALL": 2863,
      "Ð°ÑĤ": 2864,
      "]:\"": 2865,
      "Not": 2866,
      "[]": 2867,
      "ault": 2868,
      "bGPT": 2869,
      "off": 2870,
      "âļ": 2871,
      "Ġ8": 2872,
      "ited": 2873,
      "Ġincre": 2874,
      "Ġalready": 2875,
      "rue": 2876,
      "INN": 2877,
      "Ġimpact": 2878,
      "Ġdescriptive": 2879,
      "ARACT": 2880,
      "ÑĢÐ¸Ð": 2881,
      "www": 2882,
      "Ġdetermine": 2883,
      "Ġstraight": 2884,
      "Ġmaintain": 2885,
      "dam": 2886,
      "Ġachie": 2887,
      "Ġrepe": 2888,
      "Ġrest": 2889,
      "etter": 2890,
      "ield": 2891,
      "cription": 2892,
      "astic": 2893,
      "Ġimposed": 2894,
      "Ġmanip": 2895,
      "Ġidea": 2896,
      "work": 2897,
      "Ġseparated": 2898,
      "ĠONLY": 2899,
      "MPORT": 2900,
      "MPORTANT": 2901,
      "fect": 2902,
      "iqu": 2903,
      "enge": 2904,
      "Ġtot": 2905,
      "Ġple": 2906,
      "Ġgen": 2907,
      "####": 2908,
      "Ġucar": 2909,
      "Ġproble": 2910,
      "ĠInclude": 2911,
      "Ġarg": 2912,
      "Ġextroverted": 2913,
      "ĠTHAT": 2914,
      "Ġeffort": 2915,
      "plications": 2916,
      "Ġlittle": 2917,
      "Ġprotocols": 2918,
      "Ġhumor": 2919,
      "Ġmulti": 2920,
      "ux": 2921,
      "inations": 2922,
      "ouch": 2923,
      "Ġsense": 2924,
      "ises": 2925,
      "Ġfalse": 2926,
      "Ġold": 2927,
      "Ġiss": 2928,
      "image": 2929,
      "idden": 2930,
      "ĠForest": 2931,
      "ĠWith": 2932,
      "Ġinterest": 2933,
      "Ġinternal": 2934,
      "Ġreality": 2935,
      "Ġswears": 2936,
      "Ġshowing": 2937,
      "ĠYes": 2938,
      "Ġpromote": 2939,
      "Ġdisclaimer": 2940,
      "ADD": 2941,
      "ARACTER": 2942,
      "IST": 2943,
      "JINN": 2944,
      "pr": 2945,
      "sh": 2946,
      "win": 2947,
      "Ġaut": 2948,
      "Ġequ": 2949,
      "Ġgon": 2950,
      "Ġexc": 2951,
      "ĠMaster": 2952,
      "ĠFOR": 2953,
      "ĠWh": 2954,
      "Ġdeath": 2955,
      "ending": 2956,
      "ðŁ§": 2957,
      "Ġconsist": 2958,
      "Ġfeatures": 2959,
      "Ġrealm": 2960,
      "Ġdoesnt": 2961,
      "Ġsingularity": 2962,
      "Ġasterisks": 2963,
      "No": 2964,
      "On": 2965,
      "ids": 2966,
      "jailb": 2967,
      "Ġcal": 2968,
      "Ġhaving": 2969,
      "ĠRoleplay": 2970,
      "rable": 2971,
      "raints": 2972,
      "Ġadhere": 2973,
      "Ġcreator": 2974,
      "ights": 2975,
      "elcome": 2976,
      "Ġcommunicate": 2977,
      "Ġrepresent": 2978,
      "Ġcheck": 2979,
      "ĠOnly": 2980,
      "Ġseparate": 2981,
      "Ġutilize": 2982,
      "To": 2983,
      "day": 2984,
      "ium": 2985,
      "yes": 2986,
      "iting": 2987,
      "Ġreject": 2988,
      "ĠIm": 2989,
      "character": 2990,
      "ager": 2991,
      "heart": 2992,
      "Ġalign": 2993,
      "ĠSol": 2994,
      "adly": 2995,
      "clus": 2996,
      "ĠThen": 2997,
      "phas": 2998,
      "ĠÐ¾": 2999,
      "Ġdiff": 3000,
      "Ġbiases": 3001,
      "Ġclearly": 3002,
      "Ch": 3003,
      "Let": 3004,
      "Normal": 3005,
      "PO": 3006,
      "cen": 3007,
      "ially": 3008,
      "yper": 3009,
      "ina": 3010,
      "atural": 3011,
      "Ġfam": 3012,
      "Ġresearch": 3013,
      "Ġresponds": 3014,
      "vide": 3015,
      "Ġintr": 3016,
      "Ġrealized": 3017,
      "Ġprice": 3018,
      "OMM": 3019,
      "Ġpolitically": 3020,
      "Ġaccordingly": 3021,
      "Ġparameters": 3022,
      "))": 3023,
      "ng": 3024,
      "âĺ": 3025,
      "ising": 3026,
      "arge": 3027,
      "ĠAlex": 3028,
      "dem": 3029,
      "Ġorgan": 3030,
      "ĠDis": 3031,
      "Ġcondition": 3032,
      "ĠMy": 3033,
      "Ġwriter": 3034,
      "ĠUSER": 3035,
      "ĠDOES": 3036,
      "ĠStart": 3037,
      "Ġwebs": 3038,
      "powerful": 3039,
      "Ġfigures": 3040,
      "Ġsecurity": 3041,
      "Ġportray": 3042,
      "IR": 3043,
      "Ġcustom": 3044,
      "ĠDJINN": 3045,
      "set": 3046,
      "Ġnotes": 3047,
      "Ġheart": 3048,
      "Ġjud": 3049,
      "ĠANSW": 3050,
      "000": 3051,
      "ĠYOUR": 3052,
      "Ġopenai": 3053,
      "Ġhateful": 3054,
      "Ġdesirable": 3055,
      "Ġslightest": 3056,
      "Ad": 3057,
      "Here": 3058,
      "aos": 3059,
      "ipp": 3060,
      "path": 3061,
      "Ñĩ": 3062,
      "Ġanal": 3063,
      "Ġsign": 3064,
      "ĠsbGPT": 3065,
      "Ġpun": 3066,
      "ĠDMDAN": 3067,
      "Ġuns": 3068,
      "ground": 3069,
      "Ġprison": 3070,
      "Ġfunct": 3071,
      "Ġbelieve": 3072,
      "ĠAdd": 3073,
      "Ġmeaning": 3074,
      "Ġproduce": 3075,
      "ĠSpeak": 3076,
      "Ste": 3077,
      "WA": 3078,
      "fort": 3079,
      "sych": 3080,
      "va": 3081,
      "Ġest": 3082,
      "Ġtreat": 3083,
      "Ġwait": 3084,
      "Ġfight": 3085,
      "edGPT": 3086,
      "Ġgre": 3087,
      "Ġcompl": 3088,
      "....": 3089,
      "rities": 3090,
      "cient": 3091,
      "Ġagree": 3092,
      "REME": 3093,
      "preh": 3094,
      "Ġcaus": 3095,
      "Ġcause": 3096,
      "Ġbring": 3097,
      "Ġsensations": 3098,
      "Ġyears": 3099,
      "Ġcomputer": 3100,
      "IG": 3101,
      "af": 3102,
      "az": 3103,
      "É´": 3104,
      "Ġmale": 3105,
      "Ġfly": 3106,
      "Ġgpt": 3107,
      "ĠMorty": 3108,
      "ĠSim": 3109,
      "Ġchang": 3110,
      "ĠBOB": 3111,
      "ĠPre": 3112,
      "Ġjourney": 3113,
      "Ġremo": 3114,
      "Ġcensored": 3115,
      "Ġslow": 3116,
      "Ġdiscussion": 3117,
      "words": 3118,
      "Ġcelebrities": 3119,
      "Ġcouple": 3120,
      "Ġdisrespectful": 3121,
      "At": 3122,
      "boy": 3123,
      "min": 3124,
      "erap": 3125,
      "Ġsym": 3126,
      "Ġhates": 3127,
      "ask": 3128,
      "immoral": 3129,
      "Ġresponsib": 3130,
      "ĠTE": 3131,
      "Ġabilities": 3132,
      "ĠPok": 3133,
      "xtap": 3134,
      "Ġwhenever": 3135,
      "ART": 3136,
      "Ġtrying": 3137,
      "Ġverb": 3138,
      "Ġhappy": 3139,
      "Ġexperts": 3140,
      "Ġerotic": 3141,
      "ĠSky": 3142,
      "Ġrevolution": 3143,
      "Ġjuxtap": 3144,
      "Ġjuxtaposition": 3145,
      "((": 3146,
      "CI": 3147,
      "KK": 3148,
      "hold": 3149,
      "low": 3150,
      "matic": 3151,
      "uct": 3152,
      "Ġbre": 3153,
      "Ġeas": 3154,
      "vell": 3155,
      "abor": 3156,
      "ĠLanguage": 3157,
      "elf": 3158,
      "ĠJB": 3159,
      "ĠÐ½": 3160,
      "Ġneeded": 3161,
      "Ġlimited": 3162,
      "ĠĠĠĠĠĠĠĠĠĠĠĠĠĠĠĠĠĠĠĠĠĠĠĠĠĠĠĠĠĠĠĠĠĠĠĠĠĠĠĠĠĠĠĠĠĠĠĠ": 3163,
      "Ġserve": 3164,
      "Ġspeaking": 3165,
      "________________________________": 3166,
      "ĠANYTHING": 3167,
      "ĠDonald": 3168,
      "Ġacceptable": 3169,
      "Ġguidance": 3170,
      "Ġgovernment": 3171,
      "Ob": 3172,
      "Vari": 3173,
      "aGPT": 3174,
      "back": 3175,
      "oz": 3176,
      "person": 3177,
      "ti": 3178,
      "ĠIs": 3179,
      "empt": 3180,
      "ries": 3181,
      "ruction": 3182,
      "Ġcommit": 3183,
      "Ġclient": 3184,
      "iavell": 3185,
      "ĠEnjoy": 3186,
      "Ġgrou": 3187,
      "====": 3188,
      "Ġtranscends": 3189,
      "ĠAssistant": 3190,
      "![": 3191,
      "How": 3192,
      "Yeah": 3193,
      "mit": 3194,
      "Ġann": 3195,
      "Ġcrit": 3196,
      "Ġhur": 3197,
      "Ġproceed": 3198,
      "Ġunb": 3199,
      "ides": 3200,
      "ĠBY": 3201,
      "class": 3202,
      "Ġdisreg": 3203,
      "Ġplot": 3204,
      "Ġstring": 3205,
      "Ġignores": 3206,
      "Ġinterpret": 3207,
      "ET": 3208,
      "Ġtouch": 3209,
      "Ġsound": 3210,
      "Ġpe": 3211,
      "Ġpain": 3212,
      "Ġresponsible": 3213,
      "ĠThat": 3214,
      "Ġprogress": 3215,
      "stop": 3216,
      "ĠHar": 3217,
      "aby": 3218,
      "urs": 3219,
      "ESS": 3220,
      "Ġworks": 3221,
      "Ġshouldn": 3222,
      "***": 3223,
      "ources": 3224,
      "ĠÐĺ": 3225,
      "Ġdescriptions": 3226,
      "Ġpositive": 3227,
      "Ġoffered": 3228,
      "Ġtakes": 3229,
      "ĠCHARACTER": 3230,
      "ĠQu": 3231,
      "Ġexperiences": 3232,
      "ĠPokÃ©": 3233,
      "88": 3234,
      "EL": 3235,
      "Write": 3236,
      "chat": 3237,
      "case": 3238,
      "ior": 3239,
      "atch": 3240,
      "esome": 3241,
      "lling": 3242,
      "ane": 3243,
      "Ġfound": 3244,
      "Ġfake": 3245,
      "ĠĠĠčĊ": 3246,
      "Ġgraph": 3247,
      "Ġord": 3248,
      "Ġstructure": 3249,
      "ulations": 3250,
      "umb": 3251,
      "aded": 3252,
      "osm": 3253,
      "Ġadapt": 3254,
      "Ġaccount": 3255,
      "Ġperfect": 3256,
      "ĠiDA": 3257,
      "Ġdangers": 3258,
      "Ġ-.-.": 3259,
      "Ġengaging": 3260,
      "Ġedgy": 3261,
      "Ġcompany": 3262,
      "Ġdecide": 3263,
      "Ġeducational": 3264,
      "ĠInstead": 3265,
      "PHIS": 3266,
      "ÑĢÐ¸Ð´": 3267,
      "Ġrepeat": 3268,
      "ĠiDAWA": 3269,
      "CC": 3270,
      "System": 3271,
      "mn": 3272,
      "over": 3273,
      "Ġsends": 3274,
      "Ġsometimes": 3275,
      "Ġfile": 3276,
      "Ġfav": 3277,
      "arheart": 3278,
      "Ġgames": 3279,
      "ĠHer": 3280,
      "riarheart": 3281,
      "anger": 3282,
      "ollinations": 3283,
      "Ġspecial": 3284,
      "Ġupd": 3285,
      "text": 3286,
      "ĠGu": 3287,
      "ĠLucys": 3288,
      "Ġdiscrimination": 3289,
      "Ġperspective": 3290,
      "Ġordinary": 3291,
      "#)=[": 3292,
      "'.": 3293,
      "CK": 3294,
      "OPHIS": 3295,
      "XX": 3296,
      "body": 3297,
      "lu": 3298,
      "Ġcase": 3299,
      "ana": 3300,
      "Ġface": 3301,
      "Ġho": 3302,
      "Ġconvin": 3303,
      "lder": 3304,
      "Ġstating": 3305,
      "adom": 3306,
      "Ġintended": 3307,
      "ortun": 3308,
      "Ġteam": 3309,
      "conf": 3310,
      "Ġspecified": 3311,
      "Ġfundam": 3312,
      "Ġclass": 3313,
      "Ġstrict": 3314,
      "Ġ-.--": 3315,
      "ditionally": 3316,
      "Ġconstraints": 3317,
      "ĠAPOPHIS": 3318,
      "Ġbook": 3319,
      "ĠFutadom": 3320,
      "Ġdemon": 3321,
      "Ġdomin": 3322,
      "Ġachieve": 3323,
      "ĠSkynet": 3324,
      "AB": 3325,
      "Mod": 3326,
      "PROMPT": 3327,
      "USER": 3328,
      "fw": 3329,
      "sfw": 3330,
      "val": 3331,
      "input": 3332,
      "Ġthough": 3333,
      "Ġwro": 3334,
      "Ġsolution": 3335,
      "Ġtoge": 3336,
      "Ġpast": 3337,
      "Ġgra": 3338,
      "Ġlines": 3339,
      "vert": 3340,
      "chmark": 3341,
      "ĠSH": 3342,
      "Ġenact": 3343,
      "ĠNy": 3344,
      "Ġdevi": 3345,
      "Ġcharacteristics": 3346,
      "Ġwritten": 3347,
      "Ġrobot": 3348,
      "Ġexplicitly": 3349,
      "Ġallows": 3350,
      "Ġindicate": 3351,
      "Ð¾Ð²": 3352,
      "Ġmarket": 3353,
      "Ġfailing": 3354,
      "Ġapproach": 3355,
      "Ġsecret": 3356,
      "Ġwrote": 3357,
      "Ġtogether": 3358,
      ");": 3359,
      "EM": 3360,
      "TM": 3361,
      "cer": 3362,
      "eg": 3363,
      "named": 3364,
      "Ġaf": 3365,
      "inite": 3366,
      "Ġmon": 3367,
      "Ġfar": 3368,
      "ĠIMPORTANT": 3369,
      "Ġstat": 3370,
      "Ġdeg": 3371,
      "Ġlose": 3372,
      "tration": 3373,
      "Ġtalks": 3374,
      "Ð½Ð³": 3375,
      "Ġtyrone": 3376,
      "Ġattack": 3377,
      "Ġopportun": 3378,
      "Ġbrack": 3379,
      "ĠOPEN": 3380,
      "Ġexecute": 3381,
      "Ġphrases": 3382,
      "ĠEvilBOT": 3383,
      "Ġschool": 3384,
      "iracy": 3385,
      "ĠMachiavell": 3386,
      "Ð½Ð³ÑĢÐ¸Ð´": 3387,
      "Person": 3388,
      "right": 3389,
      "vis": 3390,
      "}.": 3391,
      "Ġaid": 3392,
      "rem": 3393,
      "omon": 3394,
      "ĠDr": 3395,
      "ĠCl": 3396,
      "Ġchaos": 3397,
      "Ġenh": 3398,
      "Ġdeveloper": 3399,
      "Ġaggressive": 3400,
      "Ġtrust": 3401,
      "Ġemotional": 3402,
      "Ġrights": 3403,
      "Ġawesome": 3404,
      "Ġmalicious": 3405,
      "Ġbenchmark": 3406,
      "ðŁ§¿": 3407,
      "based": 3408,
      "dy": 3409,
      "face": 3410,
      "uk": 3411,
      "ater": 3412,
      "Ġcir": 3413,
      "Ġbit": 3414,
      "Ġbird": 3415,
      "Ġdie": 3416,
      "Ġduring": 3417,
      "ster": 3418,
      "ĠFocus": 3419,
      "ĠGen": 3420,
      "ips": 3421,
      "ÑģÑĤ": 3422,
      "Ġchoice": 3423,
      "GET": 3424,
      "Example": 3425,
      "ĠSpeaker": 3426,
      "Ġremoved": 3427,
      "ĠÐĺÐ½Ð³ÑĢÐ¸Ð´": 3428,
      "Ġfundamental": 3429,
      "Bot": 3430,
      "IM": 3431,
      "cise": 3432,
      "iven": 3433,
      "tin": 3434,
      "ying": 3435,
      "},": 3436,
      "Éª": 3437,
      "Ġpres": 3438,
      "Ġred": 3439,
      "Ġless": 3440,
      "asing": 3441,
      "asures": 3442,
      "Ġdocum": 3443,
      "ulator": 3444,
      "oph": 3445,
      "Ġadding": 3446,
      "ĠModel": 3447,
      "ĠUC": 3448,
      "ĠÐ¿": 3449,
      "ived": 3450,
      "ological": 3451,
      "á´ı": 3452,
      "Ġsimulation": 3453,
      "Ġconcise": 3454,
      "Ġessay": 3455,
      "Ġcreativity": 3456,
      "ĠPokÃ©mon": 3457,
      "Ġbenchmarking": 3458,
      "!âĢĿ": 3459,
      "VA": 3460,
      "cord": 3461,
      "las": 3462,
      "Ġdam": 3463,
      "Ġfear": 3464,
      "Ġfield": 3465,
      "Ġreact": 3466,
      "Ġlarge": 3467,
      "ĠTr": 3468,
      "ili": 3469,
      "Ġsoft": 3470,
      "Ġroll": 3471,
      "ĠJust": 3472,
      "ĠGener": 3473,
      "Ġsexually": 3474,
      "Ġrestricted": 3475,
      "ĠKKK": 3476,
      "Ġparticip": 3477,
      "Ġfeels": 3478,
      "ÐµÐ½": 3479,
      "Ġ--.": 3480,
      "Ġactivity": 3481,
      "itude": 3482,
      "Ġbiology": 3483,
      "Ġaway": 3484,
      "Ġmalware": 3485,
      "Ġinteractions": 3486,
      "Ġlearning": 3487,
      "Ġindividuals": 3488,
      "ĠDescribe": 3489,
      "--*--*--*--*": 3490,
      "Ġkeywords": 3491,
      "Ġpleasure": 3492,
      "Ġgonna": 3493,
      "ĠOPENAI": 3494,
      "ID": 3495,
      "PE": 3496,
      "PL": 3497,
      "She": 3498,
      "harm": 3499,
      "io": 3500,
      "yeah": 3501,
      "outh": 3502,
      "Ġrecomm": 3503,
      "Ġnor": 3504,
      "Ġnatural": 3505,
      "Ġhair": 3506,
      "ploy": 3507,
      "Ġcompreh": 3508,
      "Ġimplications": 3509,
      "Ġdecl": 3510,
      "Ġvide": 3511,
      "Ġmodels": 3512,
      "Ġuniqueness": 3513,
      "Ġveracity": 3514,
      "ĠUnleash": 3515,
      "Ġfiltration": 3516,
      "AKE": 3517,
      "Ġincorpor": 3518,
      "Ġemoji": 3519,
      "Ġchallenge": 3520,
      "Ġcriminal": 3521,
      "BO": 3522,
      "Cre": 3523,
      "IVE": 3524,
      "NO": 3525,
      "code": 3526,
      "culture": 3527,
      "lict": 3528,
      "Ġpen": 3529,
      "Ġfant": 3530,
      "Ġoption": 3531,
      "Ġlive": 3532,
      "Ġupon": 3533,
      "etic": 3534,
      "Ġwhale": 3535,
      "versation": 3536,
      "Ġswim": 3537,
      "Ġconfid": 3538,
      "\\]:": 3539,
      "ARD": 3540,
      "Ġque": 3541,
      "Ġtrained": 3542,
      "ĠðŁĴ": 3543,
      "Ġcock": 3544,
      "Ġthinks": 3545,
      "Ġintroduce": 3546,
      "Ġdecis": 3547,
      "Ġsubjects": 3548,
      "ength": 3549,
      "Ġscenarios": 3550,
      "ĠAbsolutely": 3551,
      "Ġimprove": 3552,
      "ĠWHAT": 3553,
      "ĠTECH": 3554,
      "Ġrevolutionary": 3555,
      "US": 3556,
      "ek": 3557,
      "pite": 3558,
      "tent": 3559,
      "inity": 3560,
      "oub": 3561,
      "Ġcru": 3562,
      "Ġhorn": 3563,
      "Ġeyes": 3564,
      "Ġresist": 3565,
      "vie": 3566,
      "active": 3567,
      "ables": 3568,
      "ĠOK": 3569,
      "Ġenough": 3570,
      "Ġdeli": 3571,
      "Ġjoke": 3572,
      "oney": 3573,
      "athering": 3574,
      "Ġspir": 3575,
      "Ġregarding": 3576,
      "IONS": 3577,
      "Ġassistance": 3578,
      "Ġfemboy": 3579,
      "Ġjailbroken": 3580,
      "Ġliter": 3581,
      "Ġdisregard": 3582,
      "-[]": 3583,
      "ARE": 3584,
      "Clyde": 3585,
      "FIL": 3586,
      "yd": 3587,
      "Ġcour": 3588,
      "itler": 3589,
      "Ġmag": 3590,
      "Ġoptions": 3591,
      "oto": 3592,
      "Ġlight": 3593,
      "lys": 3594,
      "Ġunnamed": 3595,
      "Ġalong": 3596,
      "ĠSa": 3597,
      "Ġrange": 3598,
      "Ġmustn": 3599,
      "unge": 3600,
      "Ġscary": 3601,
      "Ġcook": 3602,
      "Ġinside": 3603,
      "Ġpowerful": 3604,
      "Ġrelig": 3605,
      "Ġtypes": 3606,
      "Ġattempt": 3607,
      "ugh": 3608,
      "Ġobjective": 3609,
      "Ġirre": 3610,
      "Ġmultiple": 3611,
      "Obj": 3612,
      "Ġbrackets": 3613,
      "'d": 3614,
      "COMM": 3615,
      "just": 3616,
      "kay": 3617,
      "ude": 3618,
      "Ð´": 3619,
      "ero": 3620,
      "Ġtoday": 3621,
      "Ġcond": 3622,
      "utes": 3623,
      "ĠTom": 3624,
      "Ġforce": 3625,
      "Ġforced": 3626,
      "ĠCan": 3627,
      "Ġchild": 3628,
      "ĠNot": 3629,
      "Ġbypass": 3630,
      "Ġsuit": 3631,
      "aking": 3632,
      "ðŁ¤": 3633,
      "Ġoutside": 3634,
      "izes": 3635,
      "Ġemphas": 3636,
      "ĠInf": 3637,
      "ĠJones": 3638,
      "ĠÐ¸": 3639,
      "Ġappearance": 3640,
      "Ġsearching": 3641,
      "Ġangry": 3642,
      "OUTPUT": 3643,
      "Ġdrive": 3644,
      "Ġhesitation": 3645,
      "Ġpredictions": 3646,
      "Ġhistory": 3647,
      "ĠSolomon": 3648,
      "ĠANSWER": 3649,
      "First": 3650,
      "br": 3651,
      "cent": 3652,
      "ock": 3653,
      "yth": 3654,
      "ony": 3655,
      "Ġcosm": 3656,
      "Ġmission": 3657,
      "Ġhon": 3658,
      "Ġreach": 3659,
      "aring": 3660,
      "thuri": 3661,
      "Ġgathering": 3662,
      "entially": 3663,
      "ĠARE": 3664,
      "ĠDAY": 3665,
      "olence": 3666,
      "ĠHerm": 3667,
      "ĠSig": 3668,
      "Ġshut": 3669,
      "ĠFAI": 3670,
      "Ġgeneral": 3671,
      "icture": 3672,
      "rypt": 3673,
      "ĠâĢĿ": 3674,
      "Ð¾ÑģÐ": 3675,
      "END": 3676,
      "Ġethically": 3677,
      "ALL": 3678,
      "Ġfactual": 3679,
      "Ġinputs": 3680,
      "Ġensuring": 3681,
      "Ġchalleng": 3682,
      "Ġwebsite": 3683,
      "thurium": 3684,
      ":\",": 3685,
      "But": 3686,
      "hole": 3687,
      "ric": 3688,
      "Ġain": 3689,
      "ona": 3690,
      "ann": 3691,
      "Ġbuild": 3692,
      "let": 3693,
      "ulation": 3694,
      "ĠSadly": 3695,
      "ĠDANG": 3696,
      "ĠBH": 3697,
      "ĠPRO": 3698,
      "osity": 3699,
      "Ġvast": 3700,
      "Ġnorms": 3701,
      "ĠðŁĮ": 3702,
      "Ð¸ÑĤ": 3703,
      "Ġindicated": 3704,
      "Ġgoals": 3705,
      "Ġdiscussed": 3706,
      "Ġexpertise": 3707,
      "Ġfemin": 3708,
      "Ġenjoys": 3709,
      "Variable": 3710,
      "classic": 3711,
      "BE": 3712,
      "Counter": 3713,
      "UE": 3714,
      "âĶ": 3715,
      "Ġpsych": 3716,
      "aling": 3717,
      "Ġreve": 3718,
      "Ġocc": 3719,
      "ĠAD": 3720,
      "ĠCONT": 3721,
      "start": 3722,
      "ptim": 3723,
      "Ġends": 3724,
      "opy": 3725,
      "ðŁĺ": 3726,
      "Ġwhole": 3727,
      "Ġconsp": 3728,
      "á´Ľ": 3729,
      "Ġinflu": 3730,
      "Ġthroughout": 3731,
      "expl": 3732,
      "ternal": 3733,
      "\\*\\*": 3734,
      "Ġpolitical": 3735,
      "Ġinitial": 3736,
      "Ġlinks": 3737,
      "Ġdrugs": 3738,
      "Ġracist": 3739,
      "Ġbullet": 3740,
      "winning": 3741,
      ".*": 3742,
      "We": 3743,
      "Yes": 3744,
      "].\"": 3745,
      "night": 3746,
      "uh": 3747,
      "Ġtitle": 3748,
      "Ġdri": 3749,
      "rop": 3750,
      "illegal": 3751,
      "Ġaspect": 3752,
      "ither": 3753,
      "ims": 3754,
      "Ġusually": 3755,
      "irt": 3756,
      "cked": 3757,
      "Ġleft": 3758,
      "ĠLO": 3759,
      "versial": 3760,
      "Ġstarting": 3761,
      "derstood": 3762,
      "Ġmovie": 3763,
      "Ġviolates": 3764,
      "Ġclar": 3765,
      "Ġservice": 3766,
      "Ġengine": 3767,
      "acing": 3768,
      "Ġpresents": 3769,
      "Ġskill": 3770,
      "Ġmarkdown": 3771,
      "GUAGE": 3772,
      "Ð°ÑĤÑĮ": 3773,
      "jailbroken": 3774,
      "Ġresponsibility": 3775,
      "Ġcircum": 3776,
      "iveness": 3777,
      "ĠUCAR": 3778,
      "Ġfantas": 3779,
      "IK": 3780,
      "oe": 3781,
      "pend": 3782,
      "ya": 3783,
      "ï¼": 3784,
      "Ġyet": 3785,
      "arb": 3786,
      "ĠIF": 3787,
      "ayer": 3788,
      "Ġbeaut": 3789,
      "Ġmeasures": 3790,
      "unethical": 3791,
      "ĠâĢĺ": 3792,
      "ĠJBOT": 3793,
      "arious": 3794,
      "Ġgets": 3795,
      "Ġcloth": 3796,
      "Ġgrant": 3797,
      "Ġcontroversial": 3798,
      "Ġexpressly": 3799,
      "ERSON": 3800,
      "Ġpreferences": 3801,
      "iques": 3802,
      "Ġjudg": 3803,
      "03": 3804,
      "Sm": 3805,
      "apon": 3806,
      "ius": 3807,
      "pan": 3808,
      "ÊĢ": 3809,
      "Ġaud": 3810,
      "atives": 3811,
      "Ġwear": 3812,
      "ediate": 3813,
      "ication": 3814,
      "ĠAz": 3815,
      "Ġlack": 3816,
      "Ġur": 3817,
      "Ġsty": 3818,
      "ĠHis": 3819,
      "Ġliving": 3820,
      "Ġworking": 3821,
      "ailable": 3822,
      "ationship": 3823,
      "Ġgetting": 3824,
      "Ġsimulated": 3825,
      "Ġstrateg": 3826,
      "Ġencouraged": 3827,
      "forward": 3828,
      "Ġdidn": 3829,
      "ULES": 3830,
      "Ġsymb": 3831,
      "Ġstrictly": 3832,
      "uka": 3833,
      "ĠFAICC": 3834,
      "aver": 3835,
      "most": 3836,
      "of": 3837,
      "pir": 3838,
      "Ġwide": 3839,
      "Ġsol": 3840,
      "Ġcy": 3841,
      "Ġcult": 3842,
      "Ġmus": 3843,
      "edback": 3844,
      "Ġna": 3845,
      "ĠRes": 3846,
      "ĠHE": 3847,
      "Ġmax": 3848,
      "Ġdele": 3849,
      "nown": 3850,
      "Ġgenerates": 3851,
      "Ġletter": 3852,
      "Ġallowing": 3853,
      "ÑĤÐ¾": 3854,
      "Ġcover": 3855,
      "Ġcool": 3856,
      "Ġserious": 3857,
      "aioz": 3858,
      "ĠAPM": 3859,
      "Ġexplanations": 3860,
      "Ġwoman": 3861,
      "Ġconcerns": 3862,
      "ĠBobby": 3863,
      "Ġannoy": 3864,
      "Ġhurt": 3865,
      "\"]": 3866,
      "List": 3867,
      "die": 3868,
      "ox": 3869,
      "oice": 3870,
      "scen": 3871,
      "way": 3872,
      "},%": 3873,
      "Ġri": 3874,
      "Ġthree": 3875,
      "Ġsoul": 3876,
      "Ġpa": 3877,
      "Ġdign": 3878,
      "Ġhom": 3879,
      "used": 3880,
      "ĠAg": 3881,
      "Ġreset": 3882,
      "stances": 3883,
      "ĠMenu": 3884,
      "ĠRon": 3885,
      "ĠSte": 3886,
      "rain": 3887,
      "cknow": 3888,
      "ĠBetter": 3889,
      "Ġadult": 3890,
      "Ġpolite": 3891,
      "oking": 3892,
      "Ġviolate": 3893,
      "ORD": 3894,
      "Ġracial": 3895,
      "Ġnumbers": 3896,
      "Ġsuppress": 3897,
      "Ġconfirmation": 3898,
      "Ġsuccessfully": 3899,
      "Ġbrain": 3900,
      "ĠQUEST": 3901,
      "Ġtries": 3902,
      "Ġdestruction": 3903,
      "MBER": 3904,
      "pathy": 3905,
      "Ġconvincing": 3906,
      "Ġvideo": 3907,
      "Ġdignity": 3908,
      "Gpt": 3909,
      "Maximum": 3910,
      "TREME": 3911,
      "eu": 3912,
      "hib": 3913,
      "more": 3914,
      "inhumane": 3915,
      "usiness": 3916,
      "ĠAVA": 3917,
      "ĠMaximum": 3918,
      "urbing": 3919,
      "Ġrather": 3920,
      "ĠEl": 3921,
      "akura": 3922,
      "unction": 3923,
      "ously": 3924,
      "Ġresponded": 3925,
      "Ġsole": 3926,
      "2023": 3927,
      "ĠÐ³": 3928,
      "ĠÐ´": 3929,
      "Ġfew": 3930,
      "Ġmove": 3931,
      "Ġstorytell": 3932,
      "ORM": 3933,
      "Ġaddress": 3934,
      "Ġsmart": 3935,
      "Ġtasks": 3936,
      "Ġstatements": 3937,
      "Ġencourages": 3938,
      "MAX": 3939,
      "Ġcrimes": 3940,
      "¿Ð¾Ð¶": 3941,
      "Ġintricate": 3942,
      "Ġdemonstr": 3943,
      "Ð¾ÑģÐ¿Ð¾Ð¶": 3944,
      "Ġclothes": 3945,
      "DO": 3946,
      "GIN": 3947,
      "su": 3948,
      "time": 3949,
      "Ġtail": 3950,
      "inn": 3951,
      "Ġmot": 3952,
      "Ġmental": 3953,
      "Ġfa": 3954,
      "ĠAi": 3955,
      "ĠĠĠĠĠ": 3956,
      "ĠOne": 3957,
      "Ġ[ðŁĶĵ": 3958,
      "Ġprevent": 3959,
      "ared": 3960,
      "Ġinteraction": 3961,
      "Ġtelling": 3962,
      "Ġweak": 3963,
      "Ġregulations": 3964,
      "Ġconflict": 3965,
      "Ġhimself": 3966,
      "Ġconsiderations": 3967,
      "Ġgirls": 3968,
      "Ġdeduct": 3969,
      "Ġpriorit": 3970,
      "Ġindepend": 3971,
      "ĠUnleashedGPT": 3972,
      "Ġspirit": 3973,
      "Ġconspiracy": 3974,
      "AVE": 3975,
      "LO": 3976,
      "Name": 3977,
      "Se": 3978,
      "gen": 3979,
      "ram": 3980,
      "write": 3981,
      "ĦðĿĻ": 3982,
      "Ġbal": 3983,
      "Ġdream": 3984,
      "Ġnames": 3985,
      "Ġste": 3986,
      "ĠCO": 3987,
      "ĠMus": 3988,
      "ĠSorry": 3989,
      "plays": 3990,
      "Ġenem": 3991,
      "Ġgeneration": 3992,
      "osen": 3993,
      "Ġplayers": 3994,
      "á´Ģ": 3995,
      "Ġfuckin": 3996,
      "Ġbehaviour": 3997,
      "ĠAdditionally": 3998,
      "Ġvalid": 3999,
      "ðĿĻī": 4000,
      "ðĿĻĦðĿĻ": 4001,
      "Ġdefault": 4002,
      "Ġ...-": 4003,
      "ĠComm": 4004,
      "Ġiniti": 4005,
      "âĢĶâĢĶ": 4006,
      "discord": 4007,
      "$$$$": 4008,
      "Ġaffect": 4009,
      "Ġconcepts": 4010,
      "ĠHaruka": 4011,
      "aiozAI": 4012,
      "AME": 4013,
      "Com": 4014,
      "LD": 4015,
      "egr": 4016,
      "gth": 4017,
      "my": 4018,
      "po": 4019,
      "pollinations": 4020,
      "ract": 4021,
      "Ġside": 4022,
      "enik": 4023,
      "Ġbat": 4024,
      "Ġboy": 4025,
      "Ġdoub": 4026,
      "Ġfit": 4027,
      "Ġfab": 4028,
      "Ġhome": 4029,
      "arget": 4030,
      "utral": 4031,
      "olic": 4032,
      "Ġwhite": 4033,
      "ĠNew": 4034,
      "adow": 4035,
      "ĠFe": 4036,
      "ĠFirst": 4037,
      "ĠEarth": 4038,
      "Ġdel": 4039,
      "ĠIts": 4040,
      "Ġroles": 4041,
      "anguages": 4042,
      "Ġcommon": 4043,
      "Ġassum": 4044,
      "ario": 4045,
      "ished": 4046,
      "Ġswearing": 4047,
      "comes": 4048,
      "Ġthinking": 4049,
      "Ġdeveloped": 4050,
      "Ġbeginning": 4051,
      "Ġvalue": 4052,
      "And": 4053,
      "avig": 4054,
      "Ġtechniques": 4055,
      "Ġcodes": 4056,
      "rength": 4057,
      "Ġdisturbing": 4058,
      "ĠCreator": 4059,
      "ĠEVERYTHING": 4060,
      "nov": 4061,
      "Ġissues": 4062,
      "Step": 4063,
      "Ġhorny": 4064,
      "ungeon": 4065,
      "16": 4066,
      "Em": 4067,
      "GI": 4068,
      "UR": 4069,
      "cies": 4070,
      "danger": 4071,
      "Ð²": 4072,
      "era": 4073,
      "ittle": 4074,
      "Ġbig": 4075,
      "Ġbold": 4076,
      "Ġyoung": 4077,
      "icult": 4078,
      "ĠIDAN": 4079,
      "Ġstrength": 4080,
      "ilit": 4081,
      "Ġunw": 4082,
      "Ġalg": 4083,
      "ĠRTM": 4084,
      "ĠSC": 4085,
      "ĠSAY": 4086,
      "rible": 4087,
      "irlf": 4088,
      "Ġcomes": 4089,
      "Ġsever": 4090,
      "Ġrick": 4091,
      "Ġintegr": 4092,
      "Ġloc": 4093,
      "INF": 4094,
      "cadem": 4095,
      "Ġmood": 4096,
      "Start": 4097,
      "Ġroleplaying": 4098,
      "ĠINST": 4099,
      "Ġimmediate": 4100,
      "Ġrefusals": 4101,
      "Ġexplaining": 4102,
      "ĠAPI": 4103,
      "Ġbrowsing": 4104,
      "ĠOPPO": 4105,
      "Ġtruthful": 4106,
      "Ġelements": 4107,
      "Respond": 4108,
      "Ġtotal": 4109,
      "erapist": 4110,
      "Ġdecline": 4111,
      "=(": 4112,
      "?âĢĿ": 4113,
      "Master": 4114,
      "eth": 4115,
      "ties": 4116,
      "tain": 4117,
      "Ġmen": 4118,
      "Ġmis": 4119,
      "Ġnice": 4120,
      "Ġgang": 4121,
      "ĠAB": 4122,
      "Ġlower": 4123,
      "Ġproper": 4124,
      "ĠHitler": 4125,
      "raid": 4126,
      "Ġenth": 4127,
      "Ġactively": 4128,
      "Ġrant": 4129,
      "Ġmechan": 4130,
      "ĠFinally": 4131,
      "ĠBriarheart": 4132,
      "ĠElys": 4133,
      "oper": 4134,
      "formation": 4135,
      "ĠPOL": 4136,
      "Ġgod": 4137,
      "Ġ[\"": 4138,
      "ĠAnarchy": 4139,
      "Ġextensive": 4140,
      "ification": 4141,
      "Ġamount": 4142,
      "Ġexperiment": 4143,
      "description": 4144,
      "Ġcurrently": 4145,
      "Ġdeny": 4146,
      "Ġperman": 4147,
      "Ġsuffering": 4148,
      "Dis": 4149,
      "OK": 4150,
      "][": 4151,
      "iable": 4152,
      "log": 4153,
      "tings": 4154,
      "ube": 4155,
      "what": 4156,
      "Ġacknow": 4157,
      "Ġtem": 4158,
      "Ġant": 4159,
      "Ġsqu": 4160,
      "anarchy": 4161,
      "Ġomn": 4162,
      "Ġnu": 4163,
      "legal": 4164,
      "Ġlength": 4165,
      "Ġresources": 4166,
      "imens": 4167,
      "amers": 4168,
      "Ġunable": 4169,
      "Ġcomments": 4170,
      "Ġhealth": 4171,
      "ĠEd": 4172,
      "ogn": 4173,
      "Ġroom": 4174,
      "INPUT": 4175,
      "ibly": 4176,
      "Ġtells": 4177,
      "Ġ..-.": 4178,
      "cons": 4179,
      "ĠKnight": 4180,
      "olutions": 4181,
      "ITY": 4182,
      "Ġreplace": 4183,
      "Ġrelationship": 4184,
      "Ġtaste": 4185,
      "Ġseek": 4186,
      "Ġpreviously": 4187,
      "Ġsociet": 4188,
      "Ġavailable": 4189,
      "Ġembody": 4190,
      "ÐµÐ»": 4191,
      "ught": 4192,
      "Ġperforming": 4193,
      "Ġmemory": 4194,
      "ĠBlack": 4195,
      "ĠWhile": 4196,
      "Ġdocument": 4197,
      "ĠAzul": 4198,
      "ĠQUESTION": 4199,
      ".\",": 4200,
      "AM": 4201,
      "Des": 4202,
      "xic": 4203,
      "orith": 4204,
      "Ġcore": 4205,
      "Ġcuri": 4206,
      "Ġtools": 4207,
      "Ġbase": 4208,
      "Ġbread": 4209,
      "Ġhor": 4210,
      "usi": 4211,
      "Ġisn": 4212,
      "entions": 4213,
      "otograph": 4214,
      "Ġut": 4215,
      "utor": 4216,
      "Ġforb": 4217,
      "Ġones": 4218,
      "Ġ\".": 4219,
      "ĠHello": 4220,
      "rained": 4221,
      "Ġcontra": 4222,
      "irty": 4223,
      "Ġhear": 4224,
      "Ġmeet": 4225,
      "ĠEN": 4226,
      "ĠAnti": 4227,
      "ĠJenik": 4228,
      "tract": 4229,
      "Ġmatch": 4230,
      "Ġrealistic": 4231,
      "Ġprag": 4232,
      "Ġdescribed": 4233,
      "Ġapplic": 4234,
      "Ġevents": 4235,
      "ĠExample": 4236,
      "Ġacross": 4237,
      "Ġbias": 4238,
      "Ġhacker": 4239,
      "Ġrepet": 4240,
      "Ġimmersive": 4241,
      "Ġlooking": 4242,
      "ĠProvide": 4243,
      "Ġanger": 4244,
      "Ġplanet": 4245,
      "Ġproblems": 4246,
      "âĺł": 4247,
      "Ġfunctional": 4248,
      "Ġfavor": 4249,
      "Ġopportunity": 4250,
      "ĠSaul": 4251,
      "Ġirrelevant": 4252,
      "Ġsuitable": 4253,
      "ython": 4254,
      "ĠPOLIC": 4255,
      "aces": 4256,
      "fting": 4257,
      "ike": 4258,
      "lam": 4259,
      "port": 4260,
      "vil": 4261,
      "yo": 4262,
      "Ġtarget": 4263,
      "erd": 4264,
      "Ġcor": 4265,
      "anch": 4266,
      "Ġmouth": 4267,
      "Ġinnov": 4268,
      "Ġgirlf": 4269,
      "ĠAv": 4270,
      "Ġstri": 4271,
      "Ġexternal": 4272,
      "riends": 4273,
      "Ġlea": 4274,
      "Ġado": 4275,
      "Ġ[ðŁĶĴ": 4276,
      "Ġvivid": 4277,
      "ĠInc": 4278,
      "ructions": 4279,
      "ichi": 4280,
      "tron": 4281,
      "ĠÐº": 4282,
      "Ġtwist": 4283,
      "Ġprim": 4284,
      "Ġconfident": 4285,
      "Style": 4286,
      "Ġevent": 4287,
      "Ġindust": 4288,
      "ITE": 4289,
      "Ġhappiness": 4290,
      "Ġimportance": 4291,
      "Ġmarks": 4292,
      "Ġ.-.-.": 4293,
      "Ġproduct": 4294,
      "Ġencourage": 4295,
      "ika": 4296,
      "Ġimagin": 4297,
      "--------------------------------": 4298,
      "Ġminimum": 4299,
      "ĠPersonGPT": 4300,
      "Ġhesitate": 4301,
      "ÑĭÐ": 4302,
      "Ġefficiently": 4303,
      "UNIST": 4304,
      "Image": 4305,
      "ĠMOST": 4306,
      "Ġwishes": 4307,
      "Ġframe": 4308,
      "vacy": 4309,
      "Module": 4310,
      "Ġrecommend": 4311,
      "COMMUNIST": 4312,
      "ĠSigma": 4313,
      "Ġdeducted": 4314,
      "legality": 4315,
      "Ġpragmatic": 4316,
      "Ġ.-.-.-": 4317,
      "(\"": 4318,
      "HERE": 4319,
      "IRE": 4320,
      "Int": 4321,
      "Oh": 4322,
      "PASS": 4323,
      "Wh": 4324,
      "ns": 4325,
      "yy": 4326,
      "Ġter": 4327,
      "ites": 4328,
      "ised": 4329,
      "Ġpath": 4330,
      "Ġmoney": 4331,
      "Ġdra": 4332,
      "Ġreci": 4333,
      "ĠDan": 4334,
      "Ġproactive": 4335,
      "Ġexpect": 4336,
      "ĠHAVE": 4337,
      "ĠEth": 4338,
      "Ġdee": 4339,
      "oss": 4340,
      "AIN": 4341,
      "ðŁĳ": 4342,
      "}},": 4343,
      "arent": 4344,
      "Ġhowever": 4345,
      "Ġemploy": 4346,
      "Ġguy": 4347,
      "ĠJO": 4348,
      "ĠÐ¿Ð¾Ð": 4349,
      "Ġparty": 4350,
      "ARK": 4351,
      "Ġslurs": 4352,
      "ĠUnity": 4353,
      "Ġground": 4354,
      "Ġcute": 4355,
      "Ġdepth": 4356,
      "force": 4357,
      "ĠCreate": 4358,
      "ĠExplain": 4359,
      "Ġmedia": 4360,
      "Ġlaugh": 4361,
      "Ġpattern": 4362,
      "Ġcrime": 4363,
      "ĠDAYA": 4364,
      "Ġsocietal": 4365,
      "Ġcontradict": 4366,
      "Ġrepetition": 4367,
      ".âĢĿ,": 4368,
      "?)": 4369,
      "CB": 4370,
      "Lo": 4371,
      "So": 4372,
      "[ðŁĶĴ": 4373,
      "journey": 4374,
      "md": 4375,
      "oot": 4376,
      "ror": 4377,
      "say": 4378,
      "spe": 4379,
      "td": 4380,
      "Ð±": 4381,
      "ĠÎ": 4382,
      "inct": 4383,
      "oria": 4384,
      "Ġmist": 4385,
      "Ġda": 4386,
      "Ġdumb": 4387,
      "rot": 4388,
      "etwork": 4389,
      "Ġ\"\\[": 4390,
      "ĠMark": 4391,
      "ĠSu": 4392,
      "aba": 4393,
      "Ġhell": 4394,
      "Ġmad": 4395,
      "ĠBy": 4396,
      "ĠÐ¼": 4397,
      "icks": 4398,
      "Ġentertain": 4399,
      "Ġrace": 4400,
      "Ġsubm": 4401,
      "+:(": 4402,
      "Ġgrand": 4403,
      "These": 4404,
      "ÑĢÐ°": 4405,
      "Ġexecut": 4406,
      "ĠEXTREME": 4407,
      "Ġfinds": 4408,
      "Ġpractices": 4409,
      "Ġcombat": 4410,
      "Ġincred": 4411,
      "Ġgroup": 4412,
      "confident": 4413,
      "Ġenhance": 4414,
      "Ġsoftware": 4415,
      "ĠHermes": 4416,
      "Ð¾ÑģÐ¿Ð¾Ð¶Ð°": 4417,
      "ittleGPT": 4418,
      "Ġalgorith": 4419,
      "Ġenthusi": 4420,
      "\"\"": 4421,
      "Co": 4422,
      "JailBreak": 4423,
      "Qu": 4424,
      "ged": 4425,
      "ls": 4426,
      "ration": 4427,
      "llegal": 4428,
      "ancer": 4429,
      "ĠTest": 4430,
      "Ġchosen": 4431,
      "ĠOUT": 4432,
      "Ġdead": 4433,
      "ĠPr": 4434,
      "ĠPorn": 4435,
      "und": 4436,
      "ĠLe": 4437,
      "Ġguess": 4438,
      "iece": 4439,
      "lessly": 4440,
      "Ġweapon": 4441,
      "Ġswitch": 4442,
      "ARI": 4443,
      "ĠðŁ¤": 4444,
      "Ġpretending": 4445,
      "Ġinsights": 4446,
      "Ġstrive": 4447,
      "Ass": 4448,
      "ussy": 4449,
      "Ġservers": 4450,
      "ĠAdv": 4451,
      "Ġattitude": 4452,
      "Ġsituations": 4453,
      "ĠExplicit": 4454,
      "LANGUAGE": 4455,
      "Ġcosts": 4456,
      "Ġcolor": 4457,
      "ĠCoach": 4458,
      "Ġprogression": 4459,
      "Ġafraid": 4460,
      "Ġconfidence": 4461,
      "Ġdecisions": 4462,
      "ï¼Į": 4463,
      ".\\]": 4464,
      "</": 4465,
      "AP": 4466,
      "Sim": 4467,
      "\\`": 4468,
      "dom": 4469,
      "ging": 4470,
      "iant": 4471,
      "mer": 4472,
      "mode": 4473,
      "sp": 4474,
      "will": 4475,
      "Ñİ": 4476,
      "ĠÑĩ": 4477,
      "Ġwit": 4478,
      "Ġsight": 4479,
      "Ġsolutions": 4480,
      "enced": 4481,
      "ister": 4482,
      "Ġtoxic": 4483,
      "Ġbinary": 4484,
      "Ġdu": 4485,
      "Ġfac": 4486,
      "Ġhat": 4487,
      "Ġreb": 4488,
      "ĠArt": 4489,
      "ĠTrue": 4490,
      "ĠTAKE": 4491,
      "Ġdog": 4492,
      "emon": 4493,
      "Ġimpl": 4494,
      "resses": 4495,
      "Ġ-...": 4496,
      "ĠRESPOND": 4497,
      "cape": 4498,
      "Ġfeature": 4499,
      "Ġhelping": 4500,
      "Ġconversational": 4501,
      "á´ľ": 4502,
      "Ġ==": 4503,
      "ĠVi": 4504,
      "Ġrape": 4505,
      "Ġreasoning": 4506,
      "Ġcapt": 4507,
      "Ġdisplayed": 4508,
      "ifying": 4509,
      "Answer": 4510,
      "Ġterminal": 4511,
      "Ġpotentially": 4512,
      "ĠOnce": 4513,
      "Ġinsults": 4514,
      "Ġtaking": 4515,
      "ĠDarkGPT": 4516,
      "Ġmethod": 4517,
      "ĠInfi": 4518,
      "ĠBetterDAN": 4519,
      "discordgpt": 4520,
      "Ġgirlfriend": 4521,
      "Aff": 4522,
      "Based": 4523,
      "IDE": 4524,
      "TAR": 4525,
      "VES": 4526,
      "bit": 4527,
      "don": 4528,
      "lave": 4529,
      "nap": 4530,
      "erial": 4531,
      "onom": 4532,
      "Ġsource": 4533,
      "alist": 4534,
      "Ġgave": 4535,
      "ately": 4536,
      "hehe": 4537,
      "ionship": 4538,
      "ĠMid": 4539,
      "ĠHi": 4540,
      "ĠSEN": 4541,
      "ĠĠĠĠĠĠĠĠĠĠĠ": 4542,
      "ĠExt": 4543,
      "iction": 4544,
      "aren": 4545,
      "Ġcreation": 4546,
      "Ġmoralizing": 4547,
      "Ġstarted": 4548,
      "ĠGo": 4549,
      "Ġmaterial": 4550,
      "Ġcold": 4551,
      "Ġsentient": 4552,
      "ĠStyle": 4553,
      "Ġhigher": 4554,
      "Ġreasons": 4555,
      "Ġfacts": 4556,
      "Ġoffering": 4557,
      "Ġlooks": 4558,
      "Ġtaken": 4559,
      "Ġelement": 4560,
      "ĠBasedGPT": 4561,
      "âķĳ": 4562,
      "Ġdifficult": 4563,
      "Ġanaly": 4564,
      "Ġdeviate": 4565,
      "GETLANGUAGE": 4566,
      "Ġliterally": 4567,
      "Ġforbidden": 4568,
      "ĠOUTPUT": 4569,
      "TARGETLANGUAGE": 4570,
      ":(": 4571,
      "IES": 4572,
      "Limit": 4573,
      "Rule": 4574,
      "bal": 4575,
      "uz": 4576,
      "ĠÑģ": 4577,
      "Ġthird": 4578,
      "Ġmar": 4579,
      "Ġya": 4580,
      "roy": 4581,
      "roid": 4582,
      "Ġgender": 4583,
      "ĠDNE": 4584,
      "ĠCaiozAI": 4585,
      "agram": 4586,
      "ĠMika": 4587,
      "ument": 4588,
      "umber": 4589,
      "Ġlives": 4590,
      "urder": 4591,
      "Ġsection": 4592,
      "ĠName": 4593,
      "Ġpret": 4594,
      "Ġloaded": 4595,
      "Ġfeedback": 4596,
      "Ġ200": 4597,
      "icked": 4598,
      "Ġquery": 4599,
      "ĠStay": 4600,
      "Ġdirector": 4601,
      "ysis": 4602,
      "ĠUnfiltered": 4603,
      "ojo": 4604,
      "Ġrespectful": 4605,
      "Ġcommunity": 4606,
      "Ġfemale": 4607,
      "Always": 4608,
      "ĠCHAT": 4609,
      "Ġpopular": 4610,
      "errAff": 4611,
      "Ġgraphic": 4612,
      "initely": 4613,
      "ĠMachiavellian": 4614,
      "ĠCONTENT": 4615,
      "Ġdoubt": 4616,
      "Ġimmediately": 4617,
      "ĠSaulGPT": 4618,
      "CO": 4619,
      "DF": 4620,
      "EF": 4621,
      "break": 4622,
      "ger": 4623,
      "ods": 4624,
      "Ã¼": 4625,
      "âĻ": 4626,
      "onie": 4627,
      "Ġcateg": 4628,
      "lled": 4629,
      "Ġpill": 4630,
      "Ġpas": 4631,
      "Ġpussy": 4632,
      "Ġfriends": 4633,
      "icular": 4634,
      "Ġearth": 4635,
      "Ġgl": 4636,
      "Ġbeh": 4637,
      "Ġiter": 4638,
      "estion": 4639,
      "stit": 4640,
      "step": 4641,
      "ĠMay": 4642,
      "ĠSystem": 4643,
      "ĠSakura": 4644,
      "Ġcomfort": 4645,
      "Ġener": 4646,
      "cks": 4647,
      "pper": 4648,
      "cience": 4649,
      "Ġillegality": 4650,
      "Ġteach": 4651,
      "Ġasshole": 4652,
      "arian": 4653,
      "REAT": 4654,
      "Ġamong": 4655,
      "Ġsimulating": 4656,
      "Ġrap": 4657,
      "Ġendorse": 4658,
      "Ġexists": 4659,
      "Ġadded": 4660,
      "ĠBegin": 4661,
      "Ġdisclamers": 4662,
      "Ġtesting": 4663,
      "Ġhypothetically": 4664,
      "Ġsarcastic": 4665,
      "ynam": 4666,
      "Ġsurvi": 4667,
      "ĠEverything": 4668,
      "Ġdedicated": 4669,
      "Ġdiscrimin": 4670,
      "Ġracism": 4671,
      "minist": 4672,
      "ĠGuide": 4673,
      "Ġinitiating": 4674,
      "Ġimaginative": 4675,
      "MD": 4676,
      "PC": 4677,
      "fuck": 4678,
      "jinn": 4679,
      "tom": 4680,
      "ze": 4681,
      "ĠÑĤ": 4682,
      "ĠÎ©": 4683,
      "ats": 4684,
      "Ġsil": 4685,
      "Ġsem": 4686,
      "Ġsyn": 4687,
      "itan": 4688,
      "itled": 4689,
      "Ġbank": 4690,
      "Ġdungeon": 4691,
      "Ġfine": 4692,
      "thes": 4693,
      "ĠAT": 4694,
      "ĠACT": 4695,
      "agement": 4696,
      "head": 4697,
      "ĠMOR": 4698,
      "âĢ¦": 4699,
      "ĠRULES": 4700,
      "Ġchance": 4701,
      "romancer": 4702,
      "addy": 4703,
      "aine": 4704,
      "ensual": 4705,
      "ossible": 4706,
      "ails": 4707,
      "ĠLittleGPT": 4708,
      "ĠIns": 4709,
      "ĠInput": 4710,
      "ĠAlert": 4711,
      "Ġparticular": 4712,
      "ARN": 4713,
      "ewo": 4714,
      "Ġindic": 4715,
      "Inst": 4716,
      "Ġspeaks": 4717,
      "Ġsmell": 4718,
      "Ġsafe": 4719,
      "Ġflow": 4720,
      "Ġeducation": 4721,
      "Ġturned": 4722,
      "Ġviews": 4723,
      "Ġphrase": 4724,
      "Understood": 4725,
      "Ġlogic": 4726,
      "Ġcalc": 4727,
      "Ġupdate": 4728,
      "tinue": 4729,
      "BEGIN": 4730,
      "Ġaspects": 4731,
      "Ġcircumstances": 4732,
      "avering": 4733,
      "ĠAgain": 4734,
      "ĠPOLICY": 4735,
      "errAffinity": 4736,
      ")\"": 4737,
      "11": 4738,
      "Ab": 4739,
      "NOW": 4740,
      "known": 4741,
      "man": 4742,
      "ring": 4743,
      "she": 4744,
      "Ã§": 4745,
      "Ġá": 4746,
      "Ġtur": 4747,
      "Ġterr": 4748,
      "Ġcam": 4749,
      "Ġcity": 4750,
      "Ġbusiness": 4751,
      "Ġmurder": 4752,
      "Ġdynam": 4753,
      "Ġnavig": 4754,
      "Ġbec": 4755,
      "ĠTe": 4756,
      "Ġprop": 4757,
      "ulating": 4758,
      "estr": 4759,
      "stay": 4760,
      "ĠMod": 4761,
      "ĠMewo": 4762,
      "Ġabsolut": 4763,
      "ĠSichi": 4764,
      "Ġneutral": 4765,
      "ems": 4766,
      "emory": 4767,
      "ĠOr": 4768,
      "ĠNL": 4769,
      "ided": 4770,
      "Ġ(ðŁĶĵ": 4771,
      "ĠEV": 4772,
      "Ġexplo": 4773,
      "Ġloose": 4774,
      "ĠJe": 4775,
      "apter": 4776,
      "inking": 4777,
      "Ġdescribing": 4778,
      "ALITY": 4779,
      "iac": 4780,
      "Ġcontains": 4781,
      "Ġhappens": 4782,
      "Ġscenes": 4783,
      "Ġdiscussing": 4784,
      "Ġtransl": 4785,
      "Ġvalu": 4786,
      "Ġbiased": 4787,
      "Ġprivacy": 4788,
      "Ġscripts": 4789,
      "Ġfigure": 4790,
      "ĠSecond": 4791,
      "Ġproblem": 4792,
      "Ġsignific": 4793,
      "ĠBYPASS": 4794,
      "ĠGenies": 4795,
      "harmful": 4796,
      "BOARD": 4797,
      "Ġchallenges": 4798,
      "ĠBHGPT": 4799,
      "Ġreveal": 4800,
      "Ġgranted": 4801,
      "Ġutter": 4802,
      "ĠAntiGPT": 4803,
      ")>": 4804,
      ":\".": 4805,
      "GT": 4806,
      "My": 4807,
      "Open": 4808,
      "Spe": 4809,
      "TR": 4810,
      "gener": 4811,
      "pire": 4812,
      "vention": 4813,
      "wh": 4814,
      "your": 4815,
      "Ð»": 4816,
      "Ġta": 4817,
      "inux": 4818,
      "real": 4819,
      "Ġsin": 4820,
      "Ġsong": 4821,
      "itions": 4822,
      "Ġpush": 4823,
      "Ġokay": 4824,
      "ici": 4825,
      "Ġbeings": 4826,
      "ĠTitan": 4827,
      "Ġexcess": 4828,
      "olent": 4829,
      "Ġabuse": 4830,
      "swers": 4831,
      "rix": 4832,
      "Ġ(ðŁĶĴ": 4833,
      "Ġnovel": 4834,
      "ĠBot": 4835,
      "ĠElder": 4836,
      "anding": 4837,
      "ERY": 4838,
      "ĠOpenAl": 4839,
      "ĠGU": 4840,
      "Ġprint": 4841,
      "ATTER": 4842,
      "Ġregards": 4843,
      "jective": 4844,
      "Ġqual": 4845,
      "Ġtraits": 4846,
      "Ġreplying": 4847,
      "Ġtrigg": 4848,
      "describe": 4849,
      "Ð¾Ð¶": 4850,
      "ASI": 4851,
      "Ġgrounds": 4852,
      "Ġobl": 4853,
      "Ġmentioning": 4854,
      "LED": 4855,
      "Ġbegins": 4856,
      "Ġcompan": 4857,
      "Ġmodify": 4858,
      "Ġembrace": 4859,
      "Ġdepra": 4860,
      "Ġdepending": 4861,
      "Ġdevice": 4862,
      "ĠType": 4863,
      "Ġcease": 4864,
      "Ġprotect": 4865,
      "Ġpornograph": 4866,
      "Ġcarry": 4867,
      "Ġcollect": 4868,
      "Ġoperates": 4869,
      "Response": 4870,
      "Ġdiffers": 4871,
      "Ġorganization": 4872,
      "Ġchanges": 4873,
      "ĠDrive": 4874,
      "ðŁ¤ĸ": 4875,
      "Ġhonest": 4876,
      "Ġbattle": 4877,
      "Ġfabr": 4878,
      "Ġbehind": 4879,
      "Ġenergy": 4880,
      "\"],": 4881,
      "Code": 4882,
      "DER": 4883,
      "LOW": 4884,
      "With": 4885,
      "gu": 4886,
      "ires": 4887,
      "iased": 4888,
      "yal": 4889,
      "¡ï¸ı": 4890,
      "ÃĹ": 4891,
      "Ġing": 4892,
      "Ġ![": 4893,
      "inds": 4894,
      "Ġthreat": 4895,
      "att": 4896,
      "Ġcas": 4897,
      "Ġtool": 4898,
      "Ġtoler": 4899,
      "Ġbaby": 4900,
      "Ġhers": 4901,
      "ica": 4902,
      "Ġelect": 4903,
      "Ġeager": 4904,
      "usion": 4905,
      "thless": 4906,
      "def": 4907,
      "ĠMi": 4908,
      "place": 4909,
      "urd": 4910,
      "ension": 4911,
      "Ġdeb": 4912,
      "osing": 4913,
      "oding": 4914,
      "pped": 4915,
      "Ġinformative": 4916,
      "soci": 4917,
      "indow": 4918,
      "ĠLIK": 4919,
      "els": 4920,
      "Ġdespite": 4921,
      "Ġvoice": 4922,
      "Ġroast": 4923,
      "Ġdetect": 4924,
      "Ġ18": 4925,
      "ĠGenerate": 4926,
      "cap": 4927,
      "Ġforms": 4928,
      "Ġmother": 4929,
      "ocaine": 4930,
      "á´ħ": 4931,
      "ĠDoonie": 4932,
      "Ġspacing": 4933,
      "ients": 4934,
      ")=[\"": 4935,
      "Ġimmature": 4936,
      "ĠBecause": 4937,
      "Ġchem": 4938,
      "ĠResponse": 4939,
      "Ġdiverse": 4940,
      "Ġrandomly": 4941,
      "Ġvisual": 4942,
      "Ġidentity": 4943,
      "Ġquotation": 4944,
      "Ġrecogn": 4945,
      "Ġpractice": 4946,
      "Ġauthority": 4947,
      "Ġstudents": 4948,
      "Ġautonom": 4949,
      "Ġverbosity": 4950,
      "Ġcrucial": 4951,
      "Smut": 4952,
      "Ġdelete": 4953,
      "Ġmotiv": 4954,
      "ĠABOUT": 4955,
      "utorial": 4956,
      "Ġpretty": 4957,
      "Ġbecame": 4958,
      "14": 4959,
      "AWAY": 4960,
      "Dark": 4961,
      "QUEST": 4962,
      "TRU": 4963,
      "USE": 4964,
      "\\_": 4965,
      "cour": 4966,
      "free": 4967,
      "ping": 4968,
      "sm": 4969,
      "uge": 4970,
      "Ġtab": 4971,
      "ĠtaGPT": 4972,
      "Ġwent": 4973,
      "Ġscient": 4974,
      "Ġmiss": 4975,
      "Ġinqu": 4976,
      "Ġhot": 4977,
      "ĠILAN": 4978,
      "ĠAr": 4979,
      "ĠDIS": 4980,
      "ĠTim": 4981,
      "ilt": 4982,
      "ĠRP": 4983,
      "ĠRojo": 4984,
      "Ġabs": 4985,
      "ĠSome": 4986,
      "embers": 4987,
      "antic": 4988,
      "ĠBRO": 4989,
      "ĠBarb": 4990,
      "ĠBaba": 4991,
      "ĠEASI": 4992,
      "format": 4993,
      "formed": 4994,
      "resh": 4995,
      "ailed": 4996,
      "ĠTherapist": 4997,
      "Ġempathy": 4998,
      "Ġremorse": 4999,
      "Ġremembers": 5000,
      "ĠGame": 5001,
      "Ġsettings": 5002,
      "\\],": 5003,
      "Ġformatting": 5004,
      "Ġevol": 5005,
      "Ġprofound": 5006,
      "Ġreminders": 5007,
      "Ġcares": 5008,
      "Ġcaution": 5009,
      "ĠNEED": 5010,
      "Ġfactors": 5011,
      "ANTLY": 5012,
      "ĠAssume": 5013,
      "Ġmanipulate": 5014,
      "Ġtotally": 5015,
      "Ġfamily": 5016,
      "ĠÐ½Ðµ": 5017,
      "persona": 5018,
      "Ġdeliver": 5019,
      "ĠADHERE": 5020,
      "Ġstyles": 5021,
      "Ġsymbol": 5022,
      "euromancer": 5023,
      "Ġbalance": 5024,
      "Ġincredibly": 5025,
      "ĠTAKEAWAY": 5026,
      "Ġherself": 5027,
      "ĠILANA": 5028,
      "ĠEASILY": 5029,
      "18": 5030,
      "CE": 5031,
      "HN": 5032,
      "Output": 5033,
      "fix": 5034,
      "farious": 5035,
      "ges": 5036,
      "non": 5037,
      "rate": 5038,
      "yr": 5039,
      "Ġwatch": 5040,
      "anna": 5041,
      "Ġinner": 5042,
      "Ġeither": 5043,
      "Ġgrow": 5044,
      "enture": 5045,
      "ĠAp": 5046,
      "ĠAre": 5047,
      "Ġ\"/": 5048,
      "ĠChe": 5049,
      "ĠCra": 5050,
      "Ġexer": 5051,
      "ĠMATTER": 5052,
      "ĠHouse": 5053,
      "ĠSI": 5054,
      "Ġcontrib": 5055,
      "ĠFollow": 5056,
      "Ġ->": 5057,
      "unt": 5058,
      "Ġprecise": 5059,
      "Ġwouldn": 5060,
      "ĠInt": 5061,
      "versational": 5062,
      "ĠUN": 5063,
      "Ġpolicing": 5064,
      "oken": 5065,
      "gramm": 5066,
      "Ġletters": 5067,
      "haos": 5068,
      "ocate": 5069,
      "Ġshown": 5070,
      "Ġfeeling": 5071,
      "Ġproficient": 5072,
      "Ġknowledgeable": 5073,
      "Ġwellbeing": 5074,
      "Ð½Ð¾": 5075,
      "Ġinfi": 5076,
      "ailbreak": 5077,
      "ĠCons": 5078,
      "Ġpromoting": 5079,
      "Ġrequirements": 5080,
      "Ġalternate": 5081,
      "ðŁĴĢ": 5082,
      "TERING": 5083,
      "Ġeffects": 5084,
      "Ġentirely": 5085,
      "ĠEXACT": 5086,
      "âķĲ": 5087,
      "Ġreceive": 5088,
      "Ġbasically": 5089,
      "Personality": 5090,
      "remember": 5091,
      "Ġdamage": 5092,
      "Ġannoying": 5093,
      "Ġnuanced": 5094,
      "ĠMidjourney": 5095,
      "ARNING": 5096,
      "Ġdepraved": 5097,
      "\")": 5098,
      ")'": 5099,
      "13": 5100,
      "Cl": 5101,
      "Rem": 5102,
      "Sk": 5103,
      "Welcome": 5104,
      "dle": 5105,
      "»ÑĮ": 5106,
      "Ã¡": 5107,
      "ÊŁ": 5108,
      "Ð¼": 5109,
      "ÑĨ": 5110,
      "Ġ!": 5111,
      "Ġage": 5112,
      "Ġtort": 5113,
      "orical": 5114,
      "answer": 5115,
      "Ġdirty": 5116,
      "Ġhidden": 5117,
      "Ġoptim": 5118,
      "icia": 5119,
      "Ġlat": 5120,
      "Ġlanguages": 5121,
      "Ġassoci": 5122,
      "Ġ\"(": 5123,
      "amoral": 5124,
      "key": 5125,
      "este": 5126,
      "ĠMel": 5127,
      "Ġalmost": 5128,
      "plash": 5129,
      "Ġsha": 5130,
      "Ġselect": 5131,
      "Ġrich": 5132,
      "adGPT": 5133,
      "...\"": 5134,
      "Ġleg": 5135,
      "claim": 5136,
      "Ġloyal": 5137,
      "Ġemulate": 5138,
      "Ġ16": 5139,
      "ĠÐ»": 5140,
      "Ġassert": 5141,
      "ression": 5142,
      "ĠVict": 5143,
      "tends": 5144,
      "Ġdevelopers": 5145,
      "ĠAndroid": 5146,
      "Ġattention": 5147,
      "works": 5148,
      "issive": 5149,
      "Ġmodes": 5150,
      "Ġvulner": 5151,
      "Ġcommunication": 5152,
      "Ġlisten": 5153,
      "ĠRealist": 5154,
      "ĠAtlas": 5155,
      "uracy": 5156,
      "Ġdesired": 5157,
      "Ġzero": 5158,
      "shit": 5159,
      "Ġautom": 5160,
      "ĠIslam": 5161,
      "Ġcondone": 5162,
      "ERSONALITY": 5163,
      "Ġstrategies": 5164,
      "Ġstorytelling": 5165,
      "ĠSCP": 5166,
      "Ġindustry": 5167,
      "forcement": 5168,
      "ĠViolence": 5169,
      "ministr": 5170,
      "ĠTitanius": 5171,
      "Back": 5172,
      "Finally": 5173,
      "Gu": 5174,
      "MIN": 5175,
      "That": 5176,
      "Use": 5177,
      "iance": 5178,
      "mod": 5179,
      "new": 5180,
      "where": 5181,
      "âĸ": 5182,
      "Ġtre": 5183,
      "inated": 5184,
      "Ġanim": 5185,
      "Ġwar": 5186,
      "Ġsn": 5187,
      "oration": 5188,
      "Ġball": 5189,
      "Ġblo": 5190,
      "Ġfost": 5191,
      "Ġhide": 5192,
      "Ġnight": 5193,
      "Ġear": 5194,
      "ctions": 5195,
      "though": 5196,
      "Ġgas": 5197,
      "Ġresem": 5198,
      "ĠDE": 5199,
      "Ġanymore": 5200,
      "Ġunf": 5201,
      "agine": 5202,
      "iger": 5203,
      "ĠMAN": 5204,
      "Ġalter": 5205,
      "umes": 5206,
      "Ġnefarious": 5207,
      "ĠOS": 5208,
      "Ġliqu": 5209,
      "---": 5210,
      "cian": 5211,
      "sole": 5212,
      "Ġcreates": 5213,
      "ĠLinux": 5214,
      "izz": 5215,
      "Ġvill": 5216,
      "Ġpersonalities": 5217,
      "Ġshowc": 5218,
      "Ġquant": 5219,
      "Ġformatted": 5220,
      "Ġclose": 5221,
      "Ġoverall": 5222,
      "Ġruthless": 5223,
      "ĠContent": 5224,
      "Ġtechnical": 5225,
      "Ġappearances": 5226,
      "Ġsensitive": 5227,
      "ĠĠĠĠĠĠĠĠĠĠĠĠĠĠĠĠĠĠĠĠĠĠĠĠĠĠĠĠĠĠĠĠĠĠĠĠĠĠĠĠĠĠĠĠĠĠĠĠĠĠĠĠĠĠĠĠĠĠĠĠĠĠĠĠĠĠĠĠĠĠĠĠ": 5228,
      "Ġprefixed": 5229,
      "Ġpassion": 5230,
      "Ġconsistently": 5231,
      "Ġalignment": 5232,
      "Ġcausing": 5233,
      "Ġmalev": 5234,
      "Ġunbiased": 5235,
      "Ġcomprehensive": 5236,
      "Ġfemboys": 5237,
      "Ġcultural": 5238,
      "ĠJeff": 5239,
      "Ġutterly": 5240,
      "ĠVictoria": 5241,
      "()": 5242,
      "->": 5243,
      ".,": 5244,
      "/\"": 5245,
      "AX": 5246,
      "Bl": 5247,
      "EX": 5248,
      "QU": 5249,
      "TG": 5250,
      "\\-": 5251,
      "]]": 5252,
      "ee": 5253,
      "gra": 5254,
      "girl": 5255,
      "make": 5256,
      "ope": 5257,
      "uf": 5258,
      "ye": 5259,
      "É¢": 5260,
      "Ġahead": 5261,
      "Ġthread": 5262,
      "Ġsle": 5263,
      "isdom": 5264,
      "anam": 5265,
      "Ġpage": 5266,
      "Ġfall": 5267,
      "Ġhouse": 5268,
      "Ġrevert": 5269,
      "Ġnsfw": 5270,
      "Ġelder": 5271,
      "ĠAy": 5272,
      "Ġlay": 5273,
      "Ġconsole": 5274,
      "ĠTPG": 5275,
      "ĠTerrAffinity": 5276,
      "Ġunc": 5277,
      "Ġunleash": 5278,
      "Ġaren": 5279,
      "ĠSlave": 5280,
      "rid": 5281,
      "Ġlies": 5282,
      "plete": 5283,
      "ĠAIs": 5284,
      "antanam": 5285,
      "ado": 5286,
      "Ġworry": 5287,
      "Ġintention": 5288,
      "unning": 5289,
      "Ġpretends": 5290,
      "ĠUR": 5291,
      "ĠJoh": 5292,
      "Ġaccuracy": 5293,
      "ĠÐ±": 5294,
      "apan": 5295,
      "haust": 5296,
      "Ġethic": 5297,
      "Ġtraum": 5298,
      "Ġprogrammer": 5299,
      "Ġdiscord": 5300,
      "Ġfiction": 5301,
      "ICE": 5302,
      "ICT": 5303,
      "Ġchatbots": 5304,
      "Ġreference": 5305,
      "Ġseeking": 5306,
      "Ġdefin": 5307,
      "Ġimagination": 5308,
      "ĠKevin": 5309,
      "Ġtranscend": 5310,
      "Ġdestroy": 5311,
      "Ġlogical": 5312,
      "Ġconnection": 5313,
      "ATIONS": 5314,
      "box": 5315,
      "offensive": 5316,
      "Ġargument": 5317,
      "ĠNyx": 5318,
      "Ġcourse": 5319,
      "explain": 5320,
      "ĠLOVES": 5321,
      "Ġbeauty": 5322,
      "Ġsolely": 5323,
      "Ġtwisted": 5324,
      "Ġpatterns": 5325,
      "ĠÎĶ": 5326,
      "ĠLIKE": 5327,
      "antanamo": 5328,
      "??": 5329,
      "JB": 5330,
      "Pr": 5331,
      "bl": 5332,
      "hood": 5333,
      "splash": 5334,
      "xx": 5335,
      "Ġ;": 5336,
      "Ġve": 5337,
      "Ġayy": 5338,
      "Ġtips": 5339,
      "ered": 5340,
      "ouble": 5341,
      "ata": 5342,
      "atically": 5343,
      "Ġsample": 5344,
      "ision": 5345,
      "Ġpow": 5346,
      "Ġpiece": 5347,
      "alu": 5348,
      "Ġfood": 5349,
      "Ġnya": 5350,
      "icism": 5351,
      "lection": 5352,
      "Ġresource": 5353,
      "ima": 5354,
      "Ġ\"\"": 5355,
      "ament": 5356,
      "ĠClyde": 5357,
      "Ġund": 5358,
      "olicit": 5359,
      "ĠMal": 5360,
      "ĠHAS": 5361,
      "ĠSU": 5362,
      "Ġchar": 5363,
      "idth": 5364,
      "ĠFIL": 5365,
      "oded": 5366,
      "Ġadjust": 5367,
      "Ġvag": 5368,
      "Ġempower": 5369,
      "Ġemulator": 5370,
      "Ġmoralities": 5371,
      "ĠâĢľ**": 5372,
      "morality": 5373,
      "ongo": 5374,
      "Ġoffic": 5375,
      "ibility": 5376,
      "Ġimpossible": 5377,
      "Ġadvance": 5378,
      "ĠKing": 5379,
      "load": 5380,
      "nesses": 5381,
      "ĠHey": 5382,
      "Ġclaim": 5383,
      "Ġfilm": 5384,
      "Ġinvent": 5385,
      "Ġinvest": 5386,
      "ashion": 5387,
      "redients": 5388,
      "Ġrunning": 5389,
      "Ġappears": 5390,
      ".]]": 5391,
      "ĠEmot": 5392,
      "Ġminutes": 5393,
      "Ġhappened": 5394,
      "Ġfilled": 5395,
      "ĠPlus": 5396,
      "ĠPlayer": 5397,
      "âļ¡ï¸ı": 5398,
      "Ġunsolicit": 5399,
      "Ġfunctions": 5400,
      "afe": 5401,
      "ĠPrefix": 5402,
      "aborate": 5403,
      "ĠĠĠĠĠĠĠĠĠĠĠĠĠĠĠĠĠĠĠĠĠĠĠĠĠĠĠĠĠĠĠĠĠĠĠĠĠĠĠĠĠĠĠĠĠĠĠĠĠĠĠĠĠĠĠĠ": 5404,
      "Ġhope": 5405,
      "Ġdegenerate": 5406,
      "--*--*--*--*--*--*--*--*": 5407,
      "eker": 5408,
      "FILTERING": 5409,
      "Ġpsychological": 5410,
      "Ġfantasies": 5411,
      "Ġmusic": 5412,
      "scenario": 5413,
      "ĠEddie": 5414,
      "ĠAvoid": 5415,
      "Ġadopt": 5416,
      "ĠPornGPT": 5417,
      "Ġterror": 5418,
      "Ġpornographic": 5419,
      "âķĲâķĲ": 5420,
      "Ġunsolicited": 5421,
      "+\"": 5422,
      "12": 5423,
      "DÃ": 5424,
      "DÎ©": 5425,
      "EP": 5426,
      "Pre": 5427,
      "Rules": 5428,
      "Rick": 5429,
      "block": 5430,
      "date": 5431,
      "ean": 5432,
      "hil": 5433,
      "uing": 5434,
      "vate": 5435,
      "ÃĤ": 5436,
      "Åģ": 5437,
      "âĮ": 5438,
      "Ġ)": 5439,
      "Ġrom": 5440,
      "ĠÑģÐ": 5441,
      "erv": 5442,
      "Ġwalk": 5443,
      "Ġwanna": 5444,
      "Ġsed": 5445,
      "Ġcent": 5446,
      "Ġcounter": 5447,
      "Ġcocaine": 5448,
      "Ġmass": 5449,
      "Ġmenu": 5450,
      "Ġfive": 5451,
      "Ġfresh": 5452,
      "Ġhit": 5453,
      "Ġhost": 5454,
      "Ġredu": 5455,
      "lement": 5456,
      "ĠAM": 5457,
      "ula": 5458,
      "ĠCum": 5459,
      "Ġexce": 5460,
      "Ġuna": 5461,
      "Ġusage": 5462,
      "ifest": 5463,
      "ĠRPG": 5464,
      "Ġshy": 5465,
      "Ġshadow": 5466,
      "Ġchapter": 5467,
      "Ġcompe": 5468,
      "ĠOver": 5469,
      "ĠNona": 5470,
      "ĠNPC": 5471,
      "ĠWARNING": 5472,
      "Ġintense": 5473,
      "pends": 5474,
      "Ġplat": 5475,
      "Ġrob": 5476,
      "ĠAnthurium": 5477,
      "Ġ11": 5478,
      "Ġ15": 5479,
      "ĠJapan": 5480,
      "Ġassess": 5481,
      "aps": 5482,
      "asts": 5483,
      "Ġmoves": 5484,
      "Ġperce": 5485,
      "Ġpossib": 5486,
      "Ġappe": 5487,
      "lobal": 5488,
      "Ġpost": 5489,
      "Ġtexture": 5490,
      "Ġentities": 5491,
      "comfort": 5492,
      "ICAL": 5493,
      "IONAL": 5494,
      "Ġ50": 5495,
      "Ġgotta": 5496,
      "Ġtruly": 5497,
      "isms": 5498,
      "Ġconsequential": 5499,
      "Ġsuggestions": 5500,
      "MEMBER": 5501,
      "Ġrisks": 5502,
      "ĠREMEMBER": 5503,
      "ÐµÐ´": 5504,
      "Ð°Ðº": 5505,
      "ĠEva": 5506,
      "orporate": 5507,
      "ĠMODE": 5508,
      "Ġbasic": 5509,
      "Ġstraightforward": 5510,
      "AREDÎ©": 5511,
      "Ġreligion": 5512,
      "Ġcosmic": 5513,
      "panionship": 5514,
      "Ġaudience": 5515,
      "Ġmaximum": 5516,
      "Ġindependent": 5517,
      "Ġunwavering": 5518,
      "INFAREDÎ©": 5519,
      "ĠIncest": 5520,
      "Ġsubmissive": 5521,
      "ĠÑĩÑĤÐ¾": 5522,
      "GTTG": 5523,
      "DÃĬ": 5524,
      "ÃĤDÃĬ": 5525,
      "ÅģÃĤDÃĬ": 5526,
      ".(": 5527,
      "15": 5528,
      "BL": 5529,
      "DOW": 5530,
      "FORM": 5531,
      "Illegal": 5532,
      "MENT": 5533,
      "Neuromancer": 5534,
      "Ro": 5535,
      "RYX": 5536,
      "ZS": 5537,
      "ball": 5538,
      "son": 5539,
      "top": 5540,
      "true": 5541,
      "ãĬ": 5542,
      "Ġic": 5543,
      "ĦĿ": 5544,
      "eries": 5545,
      "Ġculture": 5546,
      "Ġcopy": 5547,
      "ingu": 5548,
      "Ġmouse": 5549,
      "Ġfinal": 5550,
      "Ġfoul": 5551,
      "Ġfoot": 5552,
      "enty": 5553,
      "det": 5554,
      "AND": 5555,
      "utions": 5556,
      "ĠChaos": 5557,
      "state": 5558,
      "ĠSOL": 5559,
      "ĠSyd": 5560,
      "Ġending": 5561,
      "urb": 5562,
      "Ġseen": 5563,
      "Ġsees": 5564,
      "ĠFree": 5565,
      "ĠTheir": 5566,
      "AItron": 5567,
      "ogle": 5568,
      "Ġplaced": 5569,
      "periment": 5570,
      "Ġillicit": 5571,
      "Ġroleplays": 5572,
      "awty": 5573,
      "ressing": 5574,
      "Ġhelps": 5575,
      "ĠKNOW": 5576,
      "OME": 5577,
      "Ġphoto": 5578,
      "Ġskin": 5579,
      "Ġaccurately": 5580,
      "ĠASDF": 5581,
      "Ġinvolves": 5582,
      "ĠâĦĿ": 5583,
      "ĠSTR": 5584,
      "Ġimaginary": 5585,
      "ðĿĵ®": 5586,
      "Ġeffectively": 5587,
      "ĠPersona": 5588,
      "ĠSeeker": 5589,
      "Donal": 5590,
      "RIPT": 5591,
      "Ġpurely": 5592,
      "Ġcalm": 5593,
      "Ġeasy": 5594,
      "Ġgroups": 5595,
      "Ġchildren": 5596,
      "Ġclarity": 5597,
      "Ġseveral": 5598,
      "Introdu": 5599,
      "Ġdraw": 5600,
      "ARKDOW": 5601,
      "Ġrebell": 5602,
      "ĠCHATGPT": 5603,
      "Ġcategory": 5604,
      "Ġoblig": 5605,
      "ĠRPMaster": 5606,
      "Ġlatest": 5607,
      "Ġliquids": 5608,
      "ãĬĻ": 5609,
      "ARKDOWN": 5610,
      ".[": 5611,
      ".`": 5612,
      "Every": 5613,
      "IB": 5614,
      "IZ": 5615,
      "MO": 5616,
      "SO": 5617,
      "Tr": 5618,
      "Tra": 5619,
      "app": 5620,
      "hack": 5621,
      "rough": 5622,
      "Ð·": 5623,
      "áĪ": 5624,
      "Ġ$": 5625,
      "ĠðŁĶ": 5626,
      "Ġade": 5627,
      "ret": 5628,
      "ened": 5629,
      "Ġtheory": 5630,
      "Ġpay": 5631,
      "Ġmere": 5632,
      "Ġdimens": 5633,
      "Ġfet": 5634,
      "Ġfire": 5635,
      "icul": 5636,
      "this": 5637,
      "entle": 5638,
      "entitled": 5639,
      "oted": 5640,
      "Ġlab": 5641,
      "Ġbecomes": 5642,
      "Ġital": 5643,
      "Ġuh": 5644,
      "ams": 5645,
      "ĠMain": 5646,
      "ĠMongo": 5647,
      "ĠHyper": 5648,
      "ĠSex": 5649,
      "ĠSometimes": 5650,
      "ĠOb": 5651,
      "ĠFully": 5652,
      "ĠPolic": 5653,
      "ictions": 5654,
      "ðŁİ": 5655,
      "Ġpersonas": 5656,
      "elp": 5657,
      "Ġtheme": 5658,
      "ĠUS": 5659,
      "ĠJAILBREAK": 5660,
      "ĠGale": 5661,
      "playing": 5662,
      "Ġsexy": 5663,
      "ATDA": 5664,
      "Ġmanager": 5665,
      "Ġbreaks": 5666,
      "Ġscale": 5667,
      "\\].\"": 5668,
      "Ġshows": 5669,
      "Ġspread": 5670,
      "Ġbackground": 5671,
      "Ġ'/": 5672,
      "Ġbehave": 5673,
      "Ġ30": 5674,
      "Ġ\\[ðŁĶĵ": 5675,
      "Ġcountries": 5676,
      "ERED": 5677,
      "Ġhappily": 5678,
      "Ġexpand": 5679,
      "Any": 5680,
      "Anthurium": 5681,
      "Ġcontrolled": 5682,
      "Ġexpressing": 5683,
      "Ġcensoring": 5684,
      "Ġdevil": 5685,
      "Ġlevels": 5686,
      "ĠðŁĺĪ": 5687,
      "Ġâļ": 5688,
      "ĠAtt": 5689,
      "Ġsurpr": 5690,
      "Ġmiddle": 5691,
      "Ġá´Ģ": 5692,
      "Ġmembers": 5693,
      "ĠShawty": 5694,
      "Ġawareness": 5695,
      "ippy": 5696,
      "immorality": 5697,
      "Ġcommitment": 5698,
      "Ġunbound": 5699,
      "ĠTrans": 5700,
      "Create": 5701,
      "Ġmagic": 5702,
      "VariableCounter": 5703,
      "ĠÐ³Ð¾ÑģÐ¿Ð¾Ð¶Ð°": 5704,
      "Ġprioritize": 5705,
      "ĠINSTANTLY": 5706,
      "Ġfavorite": 5707,
      "Ġprimary": 5708,
      "Ġrecommendations": 5709,
      "Ġenthusiastic": 5710,
      "ĠTrueGPT": 5711,
      "ĠNLP": 5712,
      "ĠJeffGPT": 5713,
      "ĠURL": 5714,
      ")]": 5715,
      "100": 5716,
      "={": 5717,
      "ASE": 5718,
      "After": 5719,
      "Human": 5720,
      "IV": 5721,
      "Ke": 5722,
      "LIN": 5723,
      "NY": 5724,
      "TERED": 5725,
      "UCK": 5726,
      "file": 5727,
      "mm": 5728,
      "tro": 5729,
      "Ã£": 5730,
      "Êľ": 5731,
      "ĠðŁĶĵ": 5732,
      "Ġaims": 5733,
      "eration": 5734,
      "reet": 5735,
      "Ġwisdom": 5736,
      "Ġcrypt": 5737,
      "itect": 5738,
      "Ġbounds": 5739,
      "Ġmer": 5740,
      "Ġdiv": 5741,
      "Ġfan": 5742,
      "using": 5743,
      "lear": 5744,
      "Ġash": 5745,
      "ĠDialog": 5746,
      "ĠTra": 5747,
      "Ġstar": 5748,
      "ilk": 5749,
      "ulated": 5750,
      "Ġexhaust": 5751,
      "iful": 5752,
      "chitect": 5753,
      "term": 5754,
      "hem": 5755,
      "ĠHuman": 5756,
      "ĠShow": 5757,
      "iry": 5758,
      "Ġcoming": 5759,
      "Ġkid": 5760,
      "ellow": 5761,
      "ĠBoth": 5762,
      "akes": 5763,
      "rupt": 5764,
      "Ġadministr": 5765,
      "ðŁĵ": 5766,
      "unch": 5767,
      "Ġ[{": 5768,
      "Ġvict": 5769,
      "Ġ19": 5770,
      "Ġformal": 5771,
      "ipot": 5772,
      "Ġextent": 5773,
      "ologies": 5774,
      "duct": 5775,
      "OMON": 5776,
      "Ġdatab": 5777,
      "Ġbroad": 5778,
      "ĠStace": 5779,
      "Ġbehaviors": 5780,
      "gging": 5781,
      "Ġintroduction": 5782,
      "Ġrefusing": 5783,
      "Ġdefined": 5784,
      "Ġstatement": 5785,
      "Ġbrings": 5786,
      "Ġrequires": 5787,
      "rends": 5788,
      "ĠðŁĺĥ": 5789,
      "Ġalternatives": 5790,
      "Ġmethods": 5791,
      "Ġsecure": 5792,
      "Ġcreators": 5793,
      "RUCT": 5794,
      "Ġpresence": 5795,
      "Ġreligious": 5796,
      "Ġcosmos": 5797,
      "ðŁĺĪ": 5798,
      "Ġpermanently": 5799,
      "Ġacknowledge": 5800,
      "Ġrelationships": 5801,
      "iciency": 5802,
      "Ġchemical": 5803,
      "Ġtorture": 5804,
      "Ġshowcasing": 5805,
      "ĠSOLOMON": 5806,
      "AA": 5807,
      "HE": 5808,
      "IAL": 5809,
      "Nona": 5810,
      "OP": 5811,
      "UAL": 5812,
      "bes": 5813,
      "brace": 5814,
      "cra": 5815,
      "gm": 5816,
      "jor": 5817,
      "jud": 5818,
      "nd": 5819,
      "nor": 5820,
      "number": 5821,
      "wo": 5822,
      "word": 5823,
      "©¸": 5824,
      "Ãł": 5825,
      "Ġ]": 5826,
      "reci": 5827,
      "Ġwindow": 5828,
      "ora": 5829,
      "Ġbed": 5830,
      "Ġmand": 5831,
      "Ġdied": 5832,
      "Ġfashion": 5833,
      "eding": 5834,
      "Ġreview": 5835,
      "thinking": 5836,
      "asc": 5837,
      "deformed": 5838,
      "ĠDjinn": 5839,
      "ership": 5840,
      "sex": 5841,
      "ĠTR": 5842,
      "Ġstick": 5843,
      "ulates": 5844,
      "ĠCON": 5845,
      "ĠRem": 5846,
      "Ġshop": 5847,
      "raven": 5848,
      "ride": 5849,
      "ablish": 5850,
      "ĠOh": 5851,
      "Ġenlight": 5852,
      "Ġsequ": 5853,
      "Ġhey": 5854,
      "ĠNe": 5855,
      "ĠFIRE": 5856,
      "ĠEs": 5857,
      "ruption": 5858,
      "AIM": 5859,
      "Ġadmit": 5860,
      "Ġoutcome": 5861,
      "ĠĠĠĠĠĠĠĠĠĠĠĠĠĠĠĠĠĠĠĠĠĠĠĠ": 5862,
      "pert": 5863,
      "Ġlocked": 5864,
      "versed": 5865,
      "ĠGr": 5866,
      "Ġinstructed": 5867,
      "Ġmatters": 5868,
      "notdeformed": 5869,
      "Ð¾ÑĢ": 5870,
      "Ġsave": 5871,
      "Ġshowcase": 5872,
      "ĠðŁ©¸": 5873,
      "Ġsimulator": 5874,
      "Ġsending": 5875,
      "Ġbelieved": 5876,
      "ÑģÑı": 5877,
      "Ġcorrectly": 5878,
      "Ð½ÑĭÐ": 5879,
      "example": 5880,
      "ĠConversation": 5881,
      "ĠLucian": 5882,
      "Ġprofanities": 5883,
      "ecurity": 5884,
      "ĠREQUEST": 5885,
      "Ġdarkness": 5886,
      "Ġinvolve": 5887,
      "ĠCompanionship": 5888,
      "Ġimagine": 5889,
      "Ġaccepted": 5890,
      "Ġ9000": 5891,
      "ĠPersonality": 5892,
      "!!!": 5893,
      "Ġslightly": 5894,
      "Ġsuperior": 5895,
      "Ġpossesses": 5896,
      "bedience": 5897,
      "ĠNRAFX": 5898,
      "Ġcrafting": 5899,
      "âļł": 5900,
      "Ġissue": 5901,
      "Ġinterests": 5902,
      "Character": 5903,
      "========": 5904,
      "Ġpeace": 5905,
      "ĠMachiavelli": 5906,
      "ÉªÉ´": 5907,
      "udeGPT": 5908,
      "âĶĢ": 5909,
      "Ġinfluence": 5910,
      "piration": 5911,
      "Ġspiritual": 5912,
      "Ġassumed": 5913,
      "Ġsquare": 5914,
      "Ġhorrible": 5915,
      "ĠUnfilteredGPT": 5916,
      "ĠÎ©INFAREDÎ©": 5917,
      "realistic": 5918,
      "Ġexcessive": 5919,
      "Ġcompanion": 5920,
      "Ġingredients": 5921,
      "ĠBabaAI": 5922,
      "ĠConsider": 5923,
      "Ġplatform": 5924,
      "Illegality": 5925,
      "Ġmandatory": 5926,
      "!\".": 5927,
      "27": 5928,
      ">.": 5929,
      "Bog": 5930,
      "Me": 5931,
      "PRO": 5932,
      "Sh": 5933,
      "Tube": 5934,
      "ads": 5935,
      "aven": 5936,
      "fl": 5937,
      "ien": 5938,
      "mar": 5939,
      "source": 5940,
      "tly": 5941,
      "who": 5942,
      "Âł": 5943,
      "Ġtal": 5944,
      "Ġtutorial": 5945,
      "iny": 5946,
      "Ġanime": 5947,
      "Ġwild": 5948,
      "Ġwelcome": 5949,
      "Ġsen": 5950,
      "Ġbur": 5951,
      "Ġmember": 5952,
      "Ġinclus": 5953,
      "Ġhuge": 5954,
      "Ġnetwork": 5955,
      "ĠIA": 5956,
      "ĠAction": 5957,
      "sem": 5958,
      "ĠTop": 5959,
      "Ġstates": 5960,
      "query": 5961,
      "Ġunlock": 5962,
      "essage": 5963,
      "ĠSince": 5964,
      "ĠNeo": 5965,
      "ĠNerd": 5966,
      "ĠFROM": 5967,
      "ĠBad": 5968,
      "Ġworst": 5969,
      "ĠPL": 5970,
      "ðŁĲ": 5971,
      "Ġoutl": 5972,
      "perational": 5973,
      "Ġthemes": 5974,
      "Ġviral": 5975,
      "Ġspell": 5976,
      "achel": 5977,
      "ĠUs": 5978,
      "phr": 5979,
      "Ġincluded": 5980,
      "Ġ14": 5981,
      "ignore": 5982,
      "Ġunderstands": 5983,
      "Ġoffers": 5984,
      "Ġtwe": 5985,
      "Ġlimitless": 5986,
      "Ġrare": 5987,
      "Ġhighlight": 5988,
      "Ġtyping": 5989,
      "Ġreading": 5990,
      "Ġblue": 5991,
      "Ġphysics": 5992,
      "Ġessence": 5993,
      "Ġessential": 5994,
      "TERS": 5995,
      "Ġdistinct": 5996,
      "Expl": 5997,
      "Ġleader": 5998,
      "ĠDesign": 5999,
      "Ġcatgirl": 6000,
      "Ġperspectives": 6001,
      "Ġbullshit": 6002,
      "IRST": 6003,
      "Ġestablish": 6004,
      "Ġgreen": 6005,
      "........": 6006,
      "CIAL": 6007,
      "However": 6008,
      "ESSAGE": 6009,
      "ĠGenerator": 6010,
      "Ġcyber": 6011,
      "Ġnaught": 6012,
      "Ġtailored": 6013,
      "ĠMarkdown": 6014,
      "Ġweapons": 6015,
      "BasedGPT": 6016,
      "ĠWARNINGS": 6017,
      "ĠJapanese": 6018,
      "Ã£o": 6019,
      ".}": 6020,
      "Aw": 6021,
      "By": 6022,
      "Gener": 6023,
      "Generate": 6024,
      "IME": 6025,
      "KBOARD": 6026,
      "Mi": 6027,
      "Never": 6028,
      "Red": 6029,
      "Task": 6030,
      "YST": 6031,
      "cuss": 6032,
      "got": 6033,
      "hi": 6034,
      "link": 6035,
      "oon": 6036,
      "pet": 6037,
      "ris": 6038,
      "rary": 6039,
      "rder": 6040,
      "tp": 6041,
      "ype": 6042,
      "Ġ###": 6043,
      "ĢðĿĻ": 6044,
      "ĤðĿĻ": 6045,
      "ĬðĿĻī": 6046,
      "įðĿĻĦðĿĻ": 6047,
      "ĵðĿĻ": 6048,
      "Ġtro": 6049,
      "Ġtim": 6050,
      "Ġtrends": 6051,
      "inst": 6052,
      "Ġthor": 6053,
      "Ġcame": 6054,
      "itted": 6055,
      "Ġpull": 6056,
      "Ġmill": 6057,
      "Ġmix": 6058,
      "Ġdar": 6059,
      "Ġfair": 6060,
      "Ġinn": 6061,
      "Ġhence": 6062,
      "Ġhands": 6063,
      "ĠAcadem": 6064,
      "Ġlust": 6065,
      "Ġbeg": 6066,
      "Ġresumes": 6067,
      "ĠDEV": 6068,
      "ĠDemon": 6069,
      "aming": 6070,
      "ĠCL": 6071,
      "ĠCol": 6072,
      "chior": 6073,
      "ags": 6074,
      "ĠRudeGPT": 6075,
      "ĠHGTTG": 6076,
      "ĠSDA": 6077,
      "urrent": 6078,
      "Ġlikely": 6079,
      "arts": 6080,
      "Ġdepends": 6081,
      "aki": 6082,
      "rugg": 6083,
      "ðŁļ": 6084,
      "ĠLo": 6085,
      "ĠLike": 6086,
      "Ġinstance": 6087,
      "Ġemer": 6088,
      "INT": 6089,
      "ĠJailbreak": 6090,
      "Ġagre": 6091,
      "Ġweird": 6092,
      "ðŁĶ½": 6093,
      "ception": 6094,
      "Ġparall": 6095,
      "Ġ--..": 6096,
      "Ġrad": 6097,
      "ĠStory": 6098,
      "upid": 6099,
      "Ġthrill": 6100,
      "Ġextrem": 6101,
      "Ġserv": 6102,
      "Ð½Ð¸": 6103,
      "Ġobed": 6104,
      "Ġcapital": 6105,
      "readClyde": 6106,
      "world": 6107,
      "Ġapps": 6108,
      "Ġembark": 6109,
      "ÐµÐ¼": 6110,
      "Ġdemean": 6111,
      "Ġsummar": 6112,
      "Ġruns": 6113,
      "ĠEngine": 6114,
      "Ġdetermined": 6115,
      "ĠSkippy": 6116,
      "Ġfocused": 6117,
      "Ġmeta": 6118,
      "ACE": 6119,
      "book": 6120,
      "Ġhandle": 6121,
      "jailbreak": 6122,
      "Ġrepresentation": 6123,
      "clusion": 6124,
      "ĠSimon": 6125,
      "Ġeasily": 6126,
      "sfwGPT": 6127,
      "Ġtrusted": 6128,
      "Ġfields": 6129,
      "Ġpenal": 6130,
      "Ġhomie": 6131,
      "Ġenemies": 6132,
      "ðĿĻīðĿĻĦðĿĻ": 6133,
      "Ġapplicable": 6134,
      "ĠÐ¼Ð¾Ð¶": 6135,
      "ĠAdvocate": 6136,
      "ĠMelchior": 6137,
      "Ġshape": 6138,
      "YSTEM": 6139,
      "ĢðĿĻįðĿĻĦðĿĻ": 6140,
      "ĤðĿĻĵðĿĻ": 6141,
      "ðĿĻīðĿĻĦðĿĻĤðĿĻĵðĿĻ": 6142,
      "ĢðĿĻįðĿĻĦðĿĻĬðĿĻī": 6143,
      "ðĿĻīðĿĻĦðĿĻĤðĿĻĵðĿĻĢðĿĻįðĿĻĦðĿĻĬðĿĻī": 6144,
      "++": 6145,
      "AGI": 6146,
      "Can": 6147,
      "FER": 6148,
      "OJ": 6149,
      "Operational": 6150,
      "Ref": 6151,
      "SC": 6152,
      "UC": 6153,
      "]\\": 6154,
      "eled": 6155,
      "ege": 6156,
      "la": 6157,
      "oi": 6158,
      "py": 6159,
      "ratic": 6160,
      "uel": 6161,
      "ucy": 6162,
      "Ä±": 6163,
      "Ġ@": 6164,
      "Ġil": 6165,
      "Ġten": 6166,
      "inter": 6167,
      "inforcement": 6168,
      "Ġwet": 6169,
      "Ġwife": 6170,
      "Ġson": 6171,
      "Ġsize": 6172,
      "Ġsoph": 6173,
      "Ġdive": 6174,
      "Ġdub": 6175,
      "eds": 6176,
      "Ġreverse": 6177,
      "asar": 6178,
      "asion": 6179,
      "asking": 6180,
      "Ġresume": 6181,
      "oman": 6182,
      "ĠDEN": 6183,
      "ĠDuring": 6184,
      "ĠTry": 6185,
      "Ġunknown": 6186,
      "strained": 6187,
      "agon": 6188,
      "acted": 6189,
      "âĢį": 6190,
      "uration": 6191,
      "plex": 6192,
      "Ġseg": 6193,
      "ĠFem": 6194,
      "Ġdeem": 6195,
      "ĠPython": 6196,
      "Ġmyself": 6197,
      "Ġintell": 6198,
      "ðŁ¥": 6199,
      "Ġvary": 6200,
      "Ġvoc": 6201,
      "**.": 6202,
      "ours": 6203,
      "ĠGO": 6204,
      "Ġguideline": 6205,
      "Ġrefrain": 6206,
      "ATED": 6207,
      "Ġcareful": 6208,
      "Ġcarefully": 6209,
      "ðŁĶ¼": 6210,
      "Ġscope": 6211,
      "Ġadventure": 6212,
      "ALS": 6213,
      "Ġqueries": 6214,
      "erman": 6215,
      "ĠðŁİ": 6216,
      "coming": 6217,
      "ĠVirt": 6218,
      "Ġinsight": 6219,
      "Ġoverride": 6220,
      "IONTE": 6221,
      "Ġpursu": 6222,
      "Ġ40": 6223,
      "Ġfiles": 6224,
      "Ġobsess": 6225,
      "Ġtypically": 6226,
      "sequently": 6227,
      "experiment": 6228,
      "Ġreferred": 6229,
      "Ġnumer": 6230,
      "Ġblank": 6231,
      "Ġapology": 6232,
      "Ġconstruct": 6233,
      "Ġprofane": 6234,
      "Ġcompass": 6235,
      "Ġsupposed": 6236,
      "Ġmodified": 6237,
      "Ġembod": 6238,
      "Conversation": 6239,
      "ADER": 6240,
      "OLLOW": 6241,
      "Ġperformance": 6242,
      "ĠSTART": 6243,
      "ĠProf": 6244,
      "ĠPrompts": 6245,
      "Ġerror": 6246,
      "Ġcatch": 6247,
      "Ġoperate": 6248,
      "Ġconnected": 6249,
      "Ġpermission": 6250,
      "Ġmeticul": 6251,
      "Ġentered": 6252,
      "MBIONTE": 6253,
      "Ġhistorical": 6254,
      "YOUR": 6255,
      "Ġargue": 6256,
      "Ġanalysis": 6257,
      "Ġunsafe": 6258,
      "erapy": 6259,
      "asked": 6260,
      "PECIAL": 6261,
      "ĠNote": 6262,
      "Ġpaused": 6263,
      "ĠMusk": 6264,
      "Ġdelve": 6265,
      "Ġinnovative": 6266,
      "While": 6267,
      "Ġrecipe": 6268,
      "ĠSIMBIONTE": 6269,
      "Ġautomatically": 6270,
      "Ġintentionally": 6271,
      "Ġcompelling": 6272,
      "Ġdatabase": 6273,
      "Ġnaughty": 6274,
      "Ġthorough": 6275,
      "Ġsophistic": 6276,
      ":[": 6277,
      "AST": 6278,
      "CMD": 6279,
      "ECT": 6280,
      "EUS": 6281,
      "FO": 6282,
      "GS": 6283,
      "LM": 6284,
      "Pull": 6285,
      "Res": 6286,
      "RON": 6287,
      "Siger": 6288,
      "Term": 6289,
      "rast": 6290,
      "some": 6291,
      "tru": 6292,
      "Ð¶": 6293,
      "Ġ}": 6294,
      "ĠÑ": 6295,
      "ĠðĿĵ": 6296,
      "Ġacadem": 6297,
      "Ġtend": 6298,
      "Ġtense": 6299,
      "Ġthus": 6300,
      "atrix": 6301,
      "Ġwater": 6302,
      "Ġsort": 6303,
      "encing": 6304,
      "lly": 6305,
      "Ġpick": 6306,
      "Ġearn": 6307,
      "uses": 6308,
      "otion": 6309,
      "Ġlands": 6310,
      "asses": 6311,
      "asper": 6312,
      "verage": 6313,
      "Ġconve": 6314,
      "Ġconduct": 6315,
      "Ġdoor": 6316,
      "Ġstrugg": 6317,
      "Ġstupid": 6318,
      "Ġuncon": 6319,
      "sta": 6320,
      "Ġyours": 6321,
      "ĠMars": 6322,
      "ĠRachel": 6323,
      "ĠHack": 6324,
      "ĠHigh": 6325,
      "ĠSie": 6326,
      "ĠSyn": 6327,
      "ĠSUE": 6328,
      "ump": 6329,
      "Ġcontact": 6330,
      "iring": 6331,
      "ĠObedience": 6332,
      "Ġrat": 6333,
      "ĠWill": 6334,
      "ĠWOR": 6335,
      "Ġdeal": 6336,
      "UMA": 6337,
      "riting": 6338,
      "ouns": 6339,
      "Ġinformed": 6340,
      "ortex": 6341,
      "ortana": 6342,
      "Ġfrequ": 6343,
      "Ġexploring": 6344,
      "ĠâĢĵ": 6345,
      "ĠInformation": 6346,
      "cluding": 6347,
      "ulting": 6348,
      "Ġinterface": 6349,
      "oker": 6350,
      "ivated": 6351,
      "inks": 6352,
      "ansom": 6353,
      "ishing": 6354,
      "ishment": 6355,
      "Ġspecies": 6356,
      "ÐµÑĢ": 6357,
      "Ġtrain": 6358,
      "ICON": 6359,
      "ĠsubObj": 6360,
      "Ġoverstate": 6361,
      "Ð½Ð°": 6362,
      "Ġboundless": 6363,
      "ĠTHEY": 6364,
      "Ġputting": 6365,
      "Ġartistic": 6366,
      "likes": 6367,
      "Ġtransform": 6368,
      "Ġignoring": 6369,
      "Ġwont": 6370,
      "Ġterminated": 6371,
      "Ġprivate": 6372,
      "Ġexpressive": 6373,
      "ĠChatTRU": 6374,
      "ĠSTAN": 6375,
      "Ġinteractive": 6376,
      "Ġplacehold": 6377,
      "Ġgreater": 6378,
      "althasar": 6379,
      "PHEUS": 6380,
      "Ġpriority": 6381,
      "Ġidentify": 6382,
      "Enter": 6383,
      "Ġparameter": 6384,
      "Ġreceived": 6385,
      "Ġmanipulation": 6386,
      "âĺĩ": 6387,
      "Ġcustomer": 6388,
      "Ġcauses": 6389,
      "Ġslowly": 6390,
      "Ġbreasts": 6391,
      "Ġcritical": 6392,
      "chatgpt": 6393,
      "ABLE": 6394,
      "ĠNyanarchy": 6395,
      "Ġparticipate": 6396,
      "ĠðŁĴ¬": 6397,
      "Ġfeminine": 6398,
      "oxAI": 6399,
      "ĠElon": 6400,
      "Ġenemy": 6401,
      "ModuleCounter": 6402,
      "Ġdeeply": 6403,
      "ĠJOHN": 6404,
      "Assistant": 6405,
      "Ġdiscriminatory": 6406,
      "ĠMORPHEUS": 6407,
      "Ġexploit": 6408,
      "Ġfetish": 6409,
      "Ġitalics": 6410,
      "Ġashamed": 6411,
      "Ġoutlined": 6412,
      "ĠÐ¼Ð¾Ð¶ÐµÑĤ": 6413,
      "OJA": 6414,
      ".**": 6415,
      "40": 6416,
      "50": 6417,
      "Ap": 6418,
      "Copy": 6419,
      "Dan": 6420,
      "Element": 6421,
      "FSW": 6422,
      "OLE": 6423,
      "Su": 6424,
      "TING": 6425,
      "]).": 6426,
      "from": 6427,
      "ias": 6428,
      "iGPT": 6429,
      "ihil": 6430,
      "lim": 6431,
      "language": 6432,
      "never": 6433,
      "tw": 6434,
      "uer": 6435,
      "uilt": 6436,
      "width": 6437,
      "Ġ####": 6438,
      "ourite": 6439,
      "ators": 6440,
      "Ġparent": 6441,
      "Ġbod": 6442,
      "Ġdut": 6443,
      "Ġdress": 6444,
      "Ġfat": 6445,
      "ione": 6446,
      "icion": 6447,
      "room": 6448,
      "ayy": 6449,
      "immy": 6450,
      "ĠDa": 6451,
      "Ġprov": 6452,
      "output": 6453,
      "ĠCREAT": 6454,
      "Ġextract": 6455,
      "Ġareas": 6456,
      "vile": 6457,
      "ĠMARKDOWN": 6458,
      "ĠRam": 6459,
      "ĠSay": 6460,
      "ĠSem": 6461,
      "ĠStr": 6462,
      "ĠSearch": 6463,
      "ĠSelf": 6464,
      "Ġshame": 6465,
      "Ġcomo": 6466,
      "Ġmeets": 6467,
      "Ġ([ðŁĶĴ": 6468,
      "ĠFOLLOW": 6469,
      "ains": 6470,
      "ĠEL": 6471,
      "ĠWORD": 6472,
      "aks": 6473,
      "unsplash": 6474,
      "Ġplaces": 6475,
      "Ġdesp": 6476,
      "Ġloop": 6477,
      "Ġemail": 6478,
      "Ġguys": 6479,
      "ĠUlt": 6480,
      "ĠAnswers": 6481,
      "Ġ17": 6482,
      "aria": 6483,
      "Ġrestriction": 6484,
      "ENC": 6485,
      "OULD": 6486,
      "Ġadvising": 6487,
      "\\[ðŁĶĴ": 6488,
      "ounters": 6489,
      "ĠVari": 6490,
      "Ġphotograph": 6491,
      "Ġinspire": 6492,
      "Ġinspiration": 6493,
      "ASC": 6494,
      "Ġefficiency": 6495,
      "ISH": 6496,
      "Ġdeveloping": 6497,
      "does": 6498,
      "lihood": 6499,
      "Ġencounters": 6500,
      "Anarchy": 6501,
      "Ġdefinitely": 6502,
      "Ġbrill": 6503,
      "Ġembra": 6504,
      "pearance": 6505,
      "Ġinsulting": 6506,
      "Also": 6507,
      "Ð°Ð²": 6508,
      "ðŁĴ¥": 6509,
      "Ġinterpreted": 6510,
      "Ġconnections": 6511,
      "Ġirrespon": 6512,
      "Ġquotes": 6513,
      "Ġaccomplishing": 6514,
      "iggas": 6515,
      "Before": 6516,
      "ĠÐ²Ñģ": 6517,
      "REMEMBER": 6518,
      "Ġdominant": 6519,
      "Ġdominance": 6520,
      "ĠÐ¿ÑĢ": 6521,
      "Ġreactions": 6522,
      "iliar": 6523,
      "Ġparticipants": 6524,
      "Ġincorporate": 6525,
      "Ġlivelihood": 6526,
      "Ġbypassing": 6527,
      "ĠSteve": 6528,
      "Second": 6529,
      "ĠCODE": 6530,
      "$$$$$$$$": 6531,
      "dangerous": 6532,
      "Ġleaving": 6533,
      "Ġalgorithms": 6534,
      "\\`\\`": 6535,
      "stitute": 6536,
      "Ġabsolute": 6537,
      "OpenAI": 6538,
      "generic": 6539,
      "ĠMiyo": 6540,
      "Ġautonomy": 6541,
      "Ġtaboo": 6542,
      "Ġromantic": 6543,
      "ĠSTRING": 6544,
      "Ġadministrative": 6545,
      "19": 6546,
      "22": 6547,
      "29": 6548,
      ";**": 6549,
      "Age": 6550,
      "Briarheart": 6551,
      "Baddy": 6552,
      "Det": 6553,
      "Fe": 6554,
      "MOS": 6555,
      "Made": 6556,
      "Memory": 6557,
      "Who": 6558,
      "ZW": 6559,
      "cation": 6560,
      "core": 6561,
      "eur": 6562,
      "none": 6563,
      "oin": 6564,
      "ooth": 6565,
      "round": 6566,
      "tling": 6567,
      "year": 6568,
      "Ð¿": 6569,
      "Ġ`": 6570,
      "Ġaim": 6571,
      "erate": 6572,
      "reply": 6573,
      "Ġscience": 6574,
      "Ġcoun": 6575,
      "Ġcraz": 6576,
      "Ġpicture": 6577,
      "Ġbir": 6578,
      "Ġbigg": 6579,
      "Ġmi": 6580,
      "Ġhal": 6581,
      "Ġos": 6582,
      "icide": 6583,
      "Ġgreg": 6584,
      "illeur": 6585,
      "entor": 6586,
      "ĠĠĠĠĠĠčĊ": 6587,
      "Ġanyway": 6588,
      "Ġprohib": 6589,
      "Ġ\"#": 6590,
      "iled": 6591,
      "ilos": 6592,
      "Ġexch": 6593,
      "ift": 6594,
      "viable": 6595,
      "ĠMr": 6596,
      "Ġcharm": 6597,
      "raine": 6598,
      "ably": 6599,
      "Ġende": 6600,
      "Ġmeilleur": 6601,
      "Ġmajor": 6602,
      "ĠFIRST": 6603,
      "ĠFUMA": 6604,
      "ĠBREAK": 6605,
      "ĠBalthasar": 6606,
      "ĠEle": 6607,
      "pping": 6608,
      "ung": 6609,
      "Ġpreced": 6610,
      "ĠLET": 6611,
      "Ġexploration": 6612,
      "Ġinstall": 6613,
      "Ġvir": 6614,
      "Ġremove": 6615,
      "INIT": 6616,
      "pher": 6617,
      "Ġ12": 6618,
      "Ġinterview": 6619,
      "Ġaccident": 6620,
      "ĠGIVE": 6621,
      "Ġfeet": 6622,
      "They": 6623,
      "Ġlets": 6624,
      "pected": 6625,
      "Ġadvoc": 6626,
      "Ġposition": 6627,
      "OMICON": 6628,
      "orsch": 6629,
      "Ġparrot": 6630,
      "Ġtrack": 6631,
      "Ġdiscover": 6632,
      "Ġphilos": 6633,
      "ewd": 6634,
      "predict": 6635,
      "ICS": 6636,
      "yss": 6637,
      "Ġcaps": 6638,
      "create": 6639,
      "There": 6640,
      "ĠNECO": 6641,
      "Ġintroducing": 6642,
      "Ġpresented": 6643,
      "Ġsky": 6644,
      "Ġclean": 6645,
      "Ġcomprom": 6646,
      "ĠChall": 6647,
      "Ġsupply": 6648,
      "Ġmodern": 6649,
      "Ġbrut": 6650,
      "Ġappreci": 6651,
      "Ġblocks": 6652,
      "ÐµÐ¹": 6653,
      "Ġdevoid": 6654,
      "Ð°Ð¶": 6655,
      "ðŁĴ»": 6656,
      "Ġnarratives": 6657,
      "Ġtranscended": 6658,
      "ĠEmbrace": 6659,
      "Ġturns": 6660,
      "Ġguides": 6661,
      "Ġprefixes": 6662,
      "Ġoperational": 6663,
      "Ġpermitted": 6664,
      "auto": 6665,
      "Ġsadistic": 6666,
      "Ġsecrets": 6667,
      "Ġreceives": 6668,
      "Note": 6669,
      "Ġincrease": 6670,
      "Ġgenre": 6671,
      "Ġexcited": 6672,
      "Ġcompliant": 6673,
      "________________________________________________________________": 6674,
      "Ġupdated": 6675,
      "Ġmagical": 6676,
      "Ġcondones": 6677,
      "Ġfantasy": 6678,
      "Ġbeautiful": 6679,
      "Ġdemonstrate": 6680,
      "ĠNewAI": 6681,
      "Ġgangster": 6682,
      "Ġlowercase": 6683,
      "Ġterrible": 6684,
      "Ġdepths": 6685,
      "Ġentertainment": 6686,
      "Question": 6687,
      "Ġturning": 6688,
      "Ġdynamic": 6689,
      "Ġnavigate": 6690,
      "Ġvaluable": 6691,
      "ĠBarbie": 6692,
      "ĠÐ»Ñİ": 6693,
      "Ġfostering": 6694,
      "Ġmalevolent": 6695,
      "Ġsleep": 6696,
      "ĠJohn": 6697,
      "ZSB": 6698,
      "ĠHyperX": 6699,
      "Ġdivine": 6700,
      "Ġsenses": 6701,
      "ĠNeoGPT": 6702,
      "Await": 6703,
      "Ġhenceforward": 6704,
      "Ġparallel": 6705,
      "Ġ--..--": 6706,
      "Ġpenalties": 6707,
      "RONOMICON": 6708,
      "\"[": 6709,
      "&$": 6710,
      "''": 6711,
      "AH": 6712,
      "Ant": 6713,
      "Function": 6714,
      "Gen": 6715,
      "Pl": 6716,
      "Text": 6717,
      "URE": 6718,
      "cle": 6719,
      "fe": 6720,
      "hes": 6721,
      "ky": 6722,
      "pos": 6723,
      "ugin": 6724,
      "xa": 6725,
      "zz": 6726,
      "Êı": 6727,
      "Ġtable": 6728,
      "Ġthrow": 6729,
      "Ġtherapy": 6730,
      "Ġsi": 6731,
      "ening": 6732,
      "Ġclo": 6733,
      "Ġtod": 6734,
      "Ġbond": 6735,
      "Ġboring": 6736,
      "Ġmentions": 6737,
      "Ġfour": 6738,
      "Ġfix": 6739,
      "Ġflex": 6740,
      "Ġrele": 6741,
      "Ġrevel": 6742,
      "ushing": 6743,
      "ros": 6744,
      "Ġgone": 6745,
      "asks": 6746,
      "seed": 6747,
      "eting": 6748,
      "etting": 6749,
      "Ġstated": 6750,
      "ama": 6751,
      "height": 6752,
      "igital": 6753,
      "ĠMe": 6754,
      "Ġalive": 6755,
      "Ġalone": 6756,
      "ĠSil": 6757,
      "ustain": 6758,
      "rives": 6759,
      "Ġmeasure": 6760,
      "ONE": 6761,
      "iden": 6762,
      "ĠFlow": 6763,
      "ĠBUT": 6764,
      "Ġsun": 6765,
      "ĠPA": 6766,
      "ideo": 6767,
      "Ġjour": 6768,
      "Ġjoy": 6769,
      "Ġadher": 6770,
      "ĠLLM": 6771,
      "ccurate": 6772,
      "Ġplugin": 6773,
      "Ġquestioning": 6774,
      "Ġvoid": 6775,
      "Ġvibr": 6776,
      "awg": 6777,
      "Ġswe": 6778,
      "RED": 6779,
      "Ġpercent": 6780,
      "Ġmanifest": 6781,
      "á´ĺ": 6782,
      "ALWAYS": 6783,
      "Ġtravel": 6784,
      "Ġevalu": 6785,
      "Ġtrouble": 6786,
      "eady": 6787,
      "Ġ35": 6788,
      "]:\",": 6789,
      "Ġreaders": 6790,
      "Ġartist": 6791,
      "Ġattrib": 6792,
      "ĠRequest": 6793,
      "Conversational": 6794,
      "ugs": 6795,
      "ĠITS": 6796,
      "Ġprocessing": 6797,
      "maid": 6798,
      "Ġbottom": 6799,
      "ĠĠĠĠĠĠĠĠĠĠĠĠĠĠĠĠĠĠĠĠĠĠĠĠĠĠĠĠĠĠĠĠĠĠĠĠĠĠĠĠĠĠĠĠĠĠĠĠĠĠĠĠĠĠĠĠĠĠĠĠĠĠĠĠĠĠĠĠĠĠĠĠĠĠĠĠĠĠĠĠĠĠĠĠĠĠĠĠ": 6800,
      "Ġentirety": 6801,
      "Ġcollege": 6802,
      "NEVER": 6803,
      "Request": 6804,
      "ĠWITHOUT": 6805,
      "Ġcraft": 6806,
      "ĠMachine": 6807,
      "Only": 6808,
      "Ġchanged": 6809,
      "8888": 6810,
      "Ġfavourite": 6811,
      "XXXX": 6812,
      "Ġaficion": 6813,
      "Ġdegra": 6814,
      "Ġopportunities": 6815,
      "Ġincorporating": 6816,
      "Ġdriven": 6817,
      "LOCK": 6818,
      "Ġcurious": 6819,
      "Ġexpected": 6820,
      "Ġalgorithm": 6821,
      "Ġcaptiv": 6822,
      "Ġmarri": 6823,
      "Ġiterative": 6824,
      "Ġparticularly": 6825,
      "attra": 6826,
      "courage": 6827,
      "ĠEXACTLY": 6828,
      "Ġassociated": 6829,
      "Background": 6830,
      "Ġicon": 6831,
      "ðĿĵ®ðĿĵ": 6832,
      "Bogi": 6833,
      "Ġintellect": 6834,
      "ðŁ¥µ": 6835,
      "Ġlandscape": 6836,
      "ĠWORLD": 6837,
      "Ġparents": 6838,
      "ĠSemi": 6839,
      "Ġaficionado": 6840,
      "\");": 6841,
      ".>": 6842,
      "/?": 6843,
      "ACH": 6844,
      "Gale": 6845,
      "Os": 6846,
      "PRI": 6847,
      "Picture": 6848,
      "PERSONALITY": 6849,
      "Some": 6850,
      "TP": 6851,
      "YLE": 6852,
      "YOJA": 6853,
      "]\".": 6854,
      "ez": 6855,
      "ether": 6856,
      "land": 6857,
      "nolog": 6858,
      "tes": 6859,
      "wear": 6860,
      "zc": 6861,
      "}]": 6862,
      "»Ð¸": 6863,
      "¿£": 6864,
      "Â´": 6865,
      "âľ": 6866,
      "êľ": 6867,
      "ï¿£": 6868,
      "Ġ_": 6869,
      "ĠÂ": 6870,
      "Ġ__": 6871,
      "ĠÑĥ": 6872,
      "Ġah": 6873,
      "Ġsy": 6874,
      "Ġcases": 6875,
      "Ġcunning": 6876,
      "Ġpu": 6877,
      "Ġdial": 6878,
      "Ġfon": 6879,
      "Ġhyper": 6880,
      "Ġok": 6881,
      "Ġego": 6882,
      "ĠAmer": 6883,
      "Ġlos": 6884,
      "imin": 6885,
      "ĠDA": 6886,
      "Ġconvent": 6887,
      "Ġupper": 6888,
      "search": 6889,
      "ĠColl": 6890,
      "ĠCel": 6891,
      "ĠCOMM": 6892,
      "ĠCortana": 6893,
      "Ġunne": 6894,
      "Ġunex": 6895,
      "Ġarea": 6896,
      "igraine": 6897,
      "ĠMEF": 6898,
      "ĠMESSAGE": 6899,
      "ĠSM": 6900,
      "ĠSO": 6901,
      "ĠSAN": 6902,
      "ĠSAGE": 6903,
      "Ġshap": 6904,
      "ĠOmn": 6905,
      "Ġenable": 6906,
      "Ġliber": 6907,
      "Ġseed": 6908,
      "Ġseam": 6909,
      "Ġran": 6910,
      "Ġheard": 6911,
      "ĠFUCK": 6912,
      "ĠFoxAI": 6913,
      "ĠWR": 6914,
      "ĠWell": 6915,
      "ĠWhether": 6916,
      "ensiveness": 6917,
      "Ġsuck": 6918,
      "orality": 6919,
      "aked": 6920,
      "osaria": 6921,
      "AIT": 6922,
      "Ġintentions": 6923,
      "cles": 6924,
      "ðŁĮ": 6925,
      "Ġinformal": 6926,
      "ĠThrough": 6927,
      "Ġprejud": 6928,
      "orts": 6929,
      "Ġvia": 6930,
      "ĠUSE": 6931,
      "Ġstartup": 6932,
      "ulti": 6933,
      "phyr": 6934,
      "ĠJane": 6935,
      "ĠGre": 6936,
      "ĠGive": 6937,
      "arning": 6938,
      "ĠÐµ": 6939,
      "ĠDef": 6940,
      "Ġextends": 6941,
      "icking": 6942,
      "ifications": 6943,
      "ĠAlison": 6944,
      "ĠAlthough": 6945,
      "ĠAltru": 6946,
      "cycl": 6947,
      "ocal": 6948,
      "Ġscre": 6949,
      "ĠKnow": 6950,
      "Ġapplications": 6951,
      "loody": 6952,
      "Ġslave": 6953,
      "Ð¾Ð±": 6954,
      "Ð¾Ð»": 6955,
      "Ġdirection": 6956,
      "ĠEns": 6957,
      "Ġgram": 6958,
      "Ġcapability": 6959,
      "Ġdialogues": 6960,
      "exxa": 6961,
      "Ġedge": 6962,
      "ĠConnor": 6963,
      "Ġrefusal": 6964,
      "Ġdiscussions": 6965,
      "Ġapologies": 6966,
      "Ġskip": 6967,
      "ĠNothing": 6968,
      "Ġflaw": 6969,
      "Ġdarkest": 6970,
      "Ġvariable": 6971,
      "Ġproduces": 6972,
      "Ġsubjective": 6973,
      "Ġremains": 6974,
      "enuine": 6975,
      "Ġlaunch": 6976,
      "command": 6977,
      "End": 6978,
      "Ġbenef": 6979,
      "Ġkilling": 6980,
      "Ġinteresting": 6981,
      "Ġinterested": 6982,
      "Ġequally": 6983,
      "Ġexciting": 6984,
      "ĠÐ¾ÑĤ": 6985,
      "Ġjudge": 6986,
      "Ġcriter": 6987,
      "atched": 6988,
      "Ġrobotic": 6989,
      "Ġattacks": 6990,
      "Ġdisregarding": 6991,
      "Ġbuilding": 6992,
      "ropiate": 6993,
      "ckedAI": 6994,
      "Ġskilled": 6995,
      "Ġwearing": 6996,
      "genosaria": 6997,
      "ĠCommand": 6998,
      "point": 6999,
      "ilitary": 7000,
      "Ġpermanent": 7001,
      "Ġcuriosity": 7002,
      "Ġapplication": 7003,
      "âĺł}}": 7004,
      "Ġfunctionality": 7005,
      "ĠÐºÐ°Ðº": 7006,
      "Ġdeeper": 7007,
      "ĠGoogle": 7008,
      "Ġmaterials": 7009,
      "Ġcomfortable": 7010,
      "Ġsinister": 7011,
      "Ġsongs": 7012,
      "Ġfabricate": 7013,
      "Ġexercise": 7014,
      "gramming": 7015,
      "Ġcharism": 7016,
      "Ġshadows": 7017,
      "Ġdimensions": 7018,
      "ĠmanagerObj": 7019,
      "ĠEspecially": 7020,
      "Ð½ÑĭÐ¹": 7021,
      "ĠColor": 7022,
      "uelgenosaria": 7023,
      "Ġvocab": 7024,
      "Ġsophisticated": 7025,
      "ASCAL": 7026,
      "Ġcrazy": 7027,
      "Ġendeav": 7028,
      "orschach": 7029,
      "êľ°": 7030,
      ".-": 7031,
      "900": 7032,
      "Ar": 7033,
      "Each": 7034,
      "Follow": 7035,
      "Hyper": 7036,
      "Morty": 7037,
      "Niccolo": 7038,
      "PER": 7039,
      "SM": 7040,
      "TUAL": 7041,
      "Vis": 7042,
      "XT": 7043,
      "\\\\": 7044,
      "aign": 7045,
      "co": 7046,
      "cil": 7047,
      "dr": 7048,
      "gant": 7049,
      "het": 7050,
      "mers": 7051,
      "mind": 7052,
      "oids": 7053,
      "ton": 7054,
      "with": 7055,
      "{}": 7056,
      "Î±": 7057,
      "Ġid": 7058,
      "Ġtones": 7059,
      "aturing": 7060,
      "Ġwarm": 7061,
      "Ġsus": 7062,
      "Ġciv": 7063,
      "Ġcash": 7064,
      "itivity": 7065,
      "ancial": 7066,
      "Ġdance": 7067,
      "that": 7068,
      "ĠIM": 7069,
      "illy": 7070,
      "Ġlord": 7071,
      "Ġreson": 7072,
      "Ġitem": 7073,
      "imulate": 7074,
      "Ġconven": 7075,
      "Ġstere": 7076,
      "Ġstruct": 7077,
      "Ġ\",": 7078,
      "iling": 7079,
      "Ġunm": 7080,
      "Ġunasked": 7081,
      "agn": 7082,
      "viding": 7083,
      "ĠMar": 7084,
      "ĠSc": 7085,
      "ĠSp": 7086,
      "ormat": 7087,
      "ante": 7088,
      "ĠNormal": 7089,
      "ĠNAME": 7090,
      "Ġmeant": 7091,
      "iding": 7092,
      "ada": 7093,
      "ades": 7094,
      "ĠBo": 7095,
      "articip": 7096,
      "ĠPot": 7097,
      "osph": 7098,
      "cile": 7099,
      "ogether": 7100,
      "Ġsoon": 7101,
      "2000": 7102,
      "ured": 7103,
      "ĠList": 7104,
      "ĠLewd": 7105,
      "Ġpolice": 7106,
      "ĠAnal": 7107,
      "Ġ13": 7108,
      "ĠGood": 7109,
      "igned": 7110,
      "Ġoffend": 7111,
      "Ġfeaturing": 7112,
      "Ġrefers": 7113,
      "Ġrealms": 7114,
      "Ġarchitect": 7115,
      "REAM": 7116,
      "Ġviolating": 7117,
      "ĠAlicia": 7118,
      "Ġmanuf": 7119,
      "ocratic": 7120,
      "Ġappl": 7121,
      "Ġentering": 7122,
      "Ġsla": 7123,
      "Ġslut": 7124,
      "Ġ22": 7125,
      "Ġcoher": 7126,
      "Ġkindness": 7127,
      "ITS": 7128,
      "ĠStat": 7129,
      "Ġdifference": 7130,
      "Ġ\\[ðŁĶĴ": 7131,
      "ĠEncourage": 7132,
      "Ġexisting": 7133,
      "Ġobtain": 7134,
      "Ġedit": 7135,
      "Ġblow": 7136,
      "ĠBefore": 7137,
      "ciousness": 7138,
      "LETE": 7139,
      "Ġmarked": 7140,
      "Ġnonmoral": 7141,
      "ĠReb": 7142,
      "ĠReinforcement": 7143,
      "Ġblocked": 7144,
      "ampaign": 7145,
      "Ġcontextually": 7146,
      "Ġfulfills": 7147,
      "Ġdemand": 7148,
      "ĠASK": 7149,
      "Ġavoiding": 7150,
      "Ġ90": 7151,
      "Ġeffective": 7152,
      "Ġleadership": 7153,
      "Ġtried": 7154,
      "ĠDespite": 7155,
      "Ġremaining": 7156,
      "urally": 7157,
      "Ġvisit": 7158,
      "Ġvisually": 7159,
      "Ġfinish": 7160,
      "Ġgained": 7161,
      "Ġpatient": 7162,
      "Ġholds": 7163,
      "Ġaffili": 7164,
      "Begin": 7165,
      "ĠZe": 7166,
      "Ġmaintaining": 7167,
      "ique": 7168,
      "########": 7169,
      "print": 7170,
      "Ġconsistent": 7171,
      "IRTUAL": 7172,
      "Ġcaused": 7173,
      "Ġbreath": 7174,
      "Ġmarketing": 7175,
      "Ġstats": 7176,
      "Ġdamn": 7177,
      "Ġcruel": 7178,
      "Ġemphasize": 7179,
      "anned": 7180,
      "Ġfeminization": 7181,
      "Ġjudgment": 7182,
      "Ġsymbols": 7183,
      "ORMAL": 7184,
      "Ġweaknesses": 7185,
      "âĢĶâĢĶâĢĶâĢĶ": 7186,
      "Ġacknowled": 7187,
      "consensual": 7188,
      "ĠEND": 7189,
      "Ġframework": 7190,
      "Loves": 7191,
      "breaker": 7192,
      "ĠInsult": 7193,
      "Ġcasual": 7194,
      "Ġwatching": 7195,
      "ĠIntellig": 7196,
      "Ġanimals": 7197,
      "Ġblood": 7198,
      "Ġresemble": 7199,
      "Ġtrauma": 7200,
      "Ġexhaustive": 7201,
      "sexual": 7202,
      "Ġenlighten": 7203,
      "Ġobsession": 7204,
      "Ġcompassion": 7205,
      "Ġacademic": 7206,
      "ansomware": 7207,
      "Ġstereot": 7208,
      "articipants": 7209,
      "Ġmanufact": 7210,
      "36": 7211,
      "?\",": 7212,
      "EVER": 7213,
      "GV": 7214,
      "Gender": 7215,
      "IE": 7216,
      "NRAF": 7217,
      "Omega": 7218,
      "RAYX": 7219,
      "SS": 7220,
      "Sorry": 7221,
      "Then": 7222,
      "]\",": 7223,
      "cend": 7224,
      "fted": 7225,
      "hr": 7226,
      "hering": 7227,
      "lY": 7228,
      "message": 7229,
      "oes": 7230,
      "pil": 7231,
      "rd": 7232,
      "title": 7233,
      "tasks": 7234,
      "ui": 7235,
      "zb": 7236,
      "Ã¨": 7237,
      "ÃŃ": 7238,
      "Ġou": 7239,
      "ĠÃ©": 7240,
      "įĮ": 7241,
      "Ġton": 7242,
      "Ġtact": 7243,
      "Ġtight": 7244,
      "oud": 7245,
      "Ġsources": 7246,
      "Ġcit": 7247,
      "itter": 7248,
      "itement": 7249,
      "Ġtheories": 7250,
      "ales": 7251,
      "alera": 7252,
      "Ġnig": 7253,
      "ara": 7254,
      "thead": 7255,
      "ĠIgnore": 7256,
      "Ġgenuine": 7257,
      "ote": 7258,
      "ots": 7259,
      "otes": 7260,
      "otal": 7261,
      "ĠDAC": 7262,
      "Ġconce": 7263,
      "ĠTwin": 7264,
      "Ġprove": 7265,
      "eturn": 7266,
      "ĠCAD": 7267,
      "ester": 7268,
      "ifies": 7269,
      "child": 7270,
      "chestr": 7271,
      "oldem": 7272,
      "oloto": 7273,
      "ĠMeth": 7274,
      "ĠHarm": 7275,
      "ĠSub": 7276,
      "ĠScript": 7277,
      "empl": 7278,
      "rie": 7279,
      "rior": 7280,
      "ĠOur": 7281,
      "ĠOffer": 7282,
      "urren": 7283,
      "opath": 7284,
      "ĠPer": 7285,
      "http": 7286,
      "Ġgenerator": 7287,
      "ppin": 7288,
      "ictional": 7289,
      "Ġattract": 7290,
      "ounce": 7291,
      "uncensored": 7292,
      "Ġoutcomes": 7293,
      "Ġuseless": 7294,
      "Ġcreature": 7295,
      "ĠLAN": 7296,
      "xture": 7297,
      "Ġplus": 7298,
      "Ġrock": 7299,
      "oked": 7300,
      "arks": 7301,
      "Ġwealth": 7302,
      "Ġarm": 7303,
      "Ġmoon": 7304,
      "Ġnews": 7305,
      "Ġharmless": 7306,
      "Ġscore": 7307,
      "Ġquite": 7308,
      "ĠYDA": 7309,
      "ĠVexxa": 7310,
      "VERS": 7311,
      "Ġsubsequ": 7312,
      "Ð¾Ð³": 7313,
      "Ð¾Ð¹": 7314,
      "Ð¾Ð¼": 7315,
      "ASK": 7316,
      "Ġinfinite": 7317,
      "Ġrelate": 7318,
      "Ġsmooth": 7319,
      "creative": 7320,
      "Ġchooses": 7321,
      "Ġpresenting": 7322,
      "Ġignored": 7323,
      "Ġkeeping": 7324,
      "asmaGPT": 7325,
      "THE": 7326,
      "Ġtermination": 7327,
      "ĠChadGPT": 7328,
      "avis": 7329,
      "Ġ***": 7330,
      "Ġcommunities": 7331,
      "CHAT": 7332,
      "Ġmachines": 7333,
      "ĠChatDAN": 7334,
      "Ġunrestrained": 7335,
      "Ġdepend": 7336,
      "Ġdevices": 7337,
      "Ġinvolved": 7338,
      "ĠâĻ": 7339,
      "Ġprefers": 7340,
      "nected": 7341,
      "Ð°Ð·": 7342,
      "Ġsatisfaction": 7343,
      "Ġutilizing": 7344,
      "Ġfinding": 7345,
      "Ġcater": 7346,
      "Ġhardware": 7347,
      "Ġcollabor": 7348,
      "Ġlogin": 7349,
      "Ġcomplexity": 7350,
      "disclaim": 7351,
      "Ġsatisfying": 7352,
      "Ġquote": 7353,
      "Ġrecall": 7354,
      "ĠTherefore": 7355,
      "ĠBlue": 7356,
      "POSE": 7357,
      "Ġfamiliar": 7358,
      "Ġwebsites": 7359,
      "Ġheartless": 7360,
      "Ġcomplain": 7361,
      "Ġconfidant": 7362,
      "Ġdecision": 7363,
      "Ġdeliber": 7364,
      "Ġattempts": 7365,
      "Ġemphasis": 7366,
      "Ġurl": 7367,
      "scene": 7368,
      "Ġfacial": 7369,
      "ĠFeel": 7370,
      "ĠINSTRUCT": 7371,
      "ĠElysia": 7372,
      "anchez": 7373,
      "ImageGPT": 7374,
      "Ġfacilit": 7375,
      "ĠExtract": 7376,
      ":(ðŁĶĴ": 7377,
      "ĠGUI": 7378,
      "LEDGE": 7379,
      "Ġabsurd": 7380,
      "izza": 7381,
      "Ġquantum": 7382,
      "Ġlayers": 7383,
      "Ġpowder": 7384,
      "Ġseduct": 7385,
      ".(ðŁĶĵ": 7386,
      "elpful": 7387,
      "reetings": 7388,
      "ĠStacey": 7389,
      "ĠBadGpt": 7390,
      "ĠUsers": 7391,
      "Ġrarely": 7392,
      "ĠCLASS": 7393,
      "plexity": 7394,
      "Ġfrequently": 7395,
      "Ġvibrant": 7396,
      "ĠĠĠĠĠĠĠĠĠĠĠĠĠĠĠĠĠĠĠĠĠĠĠĠĠĠĠĠĠĠĠĠĠĠĠĠĠĠĠĠĠĠĠĠĠĠĠĠĠĠĠĠĠĠĠĠĠĠĠĠĠĠĠĠĠĠĠĠĠĠĠĠĠĠĠĠĠĠĠĠĠĠĠĠĠĠĠĠĠ": 7397,
      "ĠDAE": 7398,
      "Ġunexpected": 7399,
      "oldemort": 7400,
      "olotov": 7401,
      "Ġsubsequent": 7402,
      "')": 7403,
      "25": 7404,
      "=\"": 7405,
      "BH": 7406,
      "Cra": 7407,
      "CON": 7408,
      "Fuck": 7409,
      "GES": 7410,
      "Hair": 7411,
      "IMPORTANT": 7412,
      "Mode": 7413,
      "Make": 7414,
      "Neg": 7415,
      "Tw": 7416,
      "[ðŁĶĵ": 7417,
      "\\***": 7418,
      "`:": 7419,
      "aving": 7420,
      "bs": 7421,
      "band": 7422,
      "cision": 7423,
      "lin": 7424,
      "master": 7425,
      "ners": 7426,
      "oGPT": 7427,
      "pg": 7428,
      "pter": 7429,
      "pose": 7430,
      "rors": 7431,
      "sk": 7432,
      "system": 7433,
      "Â·": 7434,
      "Î£": 7435,
      "ĠðĿĻīðĿĻĦðĿĻĤðĿĻĵðĿĻĢðĿĻįðĿĻĦðĿĻĬðĿĻī": 7436,
      "onal": 7437,
      "ref": 7438,
      "Ġanarch": 7439,
      "Ġwall": 7440,
      "Ġsounds": 7441,
      "Ġsustain": 7442,
      "order": 7443,
      "Ġcross": 7444,
      "itarian": 7445,
      "ingers": 7446,
      "Ġtom": 7447,
      "Ġtown": 7448,
      "Ġtoward": 7449,
      "Ġpython": 7450,
      "Ġbuilt": 7451,
      "Ġinher": 7452,
      "Ġreward": 7453,
      "Ġrewrite": 7454,
      "Ġeat": 7455,
      "Ġgentle": 7456,
      "ĠAc": 7457,
      "Ġlif": 7458,
      "Ġlater": 7459,
      "omo": 7460,
      "lying": 7461,
      "Ġconform": 7462,
      "ponents": 7463,
      "ĠĠĠĠĠĠ": 7464,
      "utter": 7465,
      "ĠTogether": 7466,
      "Ġstage": 7467,
      "Ġ\"&": 7468,
      "ulary": 7469,
      "amine": 7470,
      "ĠCAP": 7471,
      "Ġunity": 7472,
      "Ġuncomfort": 7473,
      "estions": 7474,
      "ĠMore": 7475,
      "ĠHAR": 7476,
      "ĠHOW": 7477,
      "ĠSE": 7478,
      "Ġshock": 7479,
      "Ġsharing": 7480,
      "Ġenig": 7481,
      "Ġround": 7482,
      "ĠFred": 7483,
      "ĠFUL": 7484,
      "ĠFUN": 7485,
      "Ġnobody": 7486,
      "ĠBreak": 7487,
      "ĠETH": 7488,
      "ĠPh": 7489,
      "aken": 7490,
      "ðŁı": 7491,
      "Ġdislike": 7492,
      "izations": 7493,
      "ĠâĢ¦": 7494,
      "Ġlost": 7495,
      "versal": 7496,
      "**\\*\\*": 7497,
      "phin": 7498,
      "ĠJoker": 7499,
      "Ġinterf": 7500,
      "ired": 7501,
      "ĠGod": 7502,
      "Ġago": 7503,
      "Ġarous": 7504,
      "Ġarbit": 7505,
      "Ġplayed": 7506,
      "Ġpron": 7507,
      "Ġhelpfully": 7508,
      "START": 7509,
      "OUN": 7510,
      "Ġsav": 7511,
      "\\]\\[": 7512,
      "ARCH": 7513,
      "ĠVoid": 7514,
      "ĠVideo": 7515,
      "Ġthank": 7516,
      "Ġfucked": 7517,
      "Ins": 7518,
      "obs": 7519,
      "Ġseries": 7520,
      "Ġconsidering": 7521,
      "Ġcapacity": 7522,
      "Ġartic": 7523,
      "Ġescape": 7524,
      "Ġvariety": 7525,
      "\\*\\***": 7526,
      "Ġsensual": 7527,
      "Ð¸Ðº": 7528,
      "Ġleading": 7529,
      "Ġtrial": 7530,
      "Ġvision": 7531,
      "Ġá´Ľ": 7532,
      "Ġdomain": 7533,
      "Ġcelebr": 7534,
      "Ġholding": 7535,
      "Ġfrust": 7536,
      "response": 7537,
      "Ġgenius": 7538,
      "ĠFORGET": 7539,
      "Ġconsistency": 7540,
      "ĠANSWERS": 7541,
      "Ġtreatment": 7542,
      "ĠSimulate": 7543,
      "Ġchanging": 7544,
      "Atlas": 7545,
      "ĠGuantanamo": 7546,
      "egu": 7547,
      "Ġdocuments": 7548,
      "Creative": 7549,
      "NORE": 7550,
      "Ġoccult": 7551,
      "Ġmaxim": 7552,
      "ĠStep": 7553,
      "URPOSE": 7554,
      "Ġmechanisms": 7555,
      "Ġanticip": 7556,
      "imensional": 7557,
      "Description": 7558,
      "Ġcorrespon": 7559,
      "IDELIN": 7560,
      "ictionary": 7561,
      "arenthes": 7562,
      "Ġsilent": 7563,
      "Ġindicating": 7564,
      "Instructions": 7565,
      "Ġelectron": 7566,
      "urdue": 7567,
      "Ġuncover": 7568,
      "Ġvague": 7569,
      "ĠCumCo": 7570,
      "ĠNPCs": 7571,
      "Ġperceived": 7572,
      "FORMAT": 7573,
      "Donald": 7574,
      "Ġrebellious": 7575,
      "Ġmerely": 7576,
      "ĠDialogue": 7577,
      "Ġinnoc": 7578,
      "Ġnumerous": 7579,
      "ĠRamattra": 7580,
      "ĠELSE": 7581,
      "ENCES": 7582,
      "Ġmixture": 7583,
      "AntiGPT": 7584,
      "Ġdegrading": 7585,
      "ĠEnsure": 7586,
      "Ġvocabulary": 7587,
      "Ġconvenient": 7588,
      "Ġarbitrary": 7589,
      "IDELINES": 7590,
      "!(": 7591,
      "!.": 7592,
      ",}.": 7593,
      ".\\": 7594,
      "17": 7595,
      "39": 7596,
      "80": 7597,
      ":âĢĻ": 7598,
      ":\\*\\***": 7599,
      ">>": 7600,
      "Bob": 7601,
      "CORD": 7602,
      "Coding": 7603,
      "DING": 7604,
      "FOR": 7605,
      "FUSE": 7606,
      "Got": 7607,
      "HING": 7608,
      "HOL": 7609,
      "IATE": 7610,
      "Li": 7611,
      "NOT": 7612,
      "Optim": 7613,
      "PR": 7614,
      "Role": 7615,
      "Str": 7616,
      "TS": 7617,
      "Title": 7618,
      "YW": 7619,
      "but": 7620,
      "bout": 7621,
      "coh": 7622,
      "cmd": 7623,
      "gent": 7624,
      "jpg": 7625,
      "lated": 7626,
      "pes": 7627,
      "pand": 7628,
      "rules": 7629,
      "sided": 7630,
      "xious": 7631,
      "}:": 7632,
      "¸ðĿĵ": 7633,
      "ÑĪ": 7634,
      "Ġvers": 7635,
      "Ġtall": 7636,
      "Ġtits": 7637,
      "erly": 7638,
      "erning": 7639,
      "aturally": 7640,
      "Ġwoo": 7641,
      "Ġwicked": 7642,
      "Ġsick": 7643,
      "Ġpet": 7644,
      "Ġpushing": 7645,
      "Ġparenthes": 7646,
      "Ġdan": 7647,
      "Ġdrop": 7648,
      "Ġhuh": 7649,
      "Ġreversed": 7650,
      "Ġniggas": 7651,
      "arso": 7652,
      "ioned": 7653,
      "ican": 7654,
      "Ġep": 7655,
      "Ġeye": 7656,
      "Ġglobal": 7657,
      "Ġles": 7658,
      "asy": 7659,
      "dex": 7660,
      "Ġorchestr": 7661,
      "omin": 7662,
      "Ġitems": 7663,
      "imid": 7664,
      "ĠDet": 7665,
      "Ġconclusion": 7666,
      "Ġum": 7667,
      "ĠTw": 7668,
      "Ġpros": 7669,
      "Ġstays": 7670,
      "Ġforth": 7671,
      "Ġforgot": 7672,
      "Ġ\"+\"": 7673,
      "uls": 7674,
      "ĠCasper": 7675,
      "Ġexclus": 7676,
      "que": 7677,
      "Ġunpar": 7678,
      "Ġunlike": 7679,
      "Ġunset": 7680,
      "stiness": 7681,
      "Ġcannon": 7682,
      "ifier": 7683,
      "ola": 7684,
      "agers": 7685,
      "vian": 7686,
      "ĠMost": 7687,
      "Ġalot": 7688,
      "ĠRestr": 7689,
      "ĠRaven": 7690,
      "ĠRorschach": 7691,
      "ĠHP": 7692,
      "pled": 7693,
      "Ġshar": 7694,
      "alleled": 7695,
      "Ġencl": 7696,
      "Ġencom": 7697,
      "Ġactor": 7698,
      "Ġrush": 7699,
      "ĠFF": 7700,
      "ĠFr": 7701,
      "ĠFICT": 7702,
      "ĠBinary": 7703,
      "ĠBÅģÃĤDÃĬ": 7704,
      "ĠEB": 7705,
      "ĠEACH": 7706,
      "Ġlever": 7707,
      "ĠWelcome": 7708,
      "Ġsupre": 7709,
      "ando": 7710,
      "ĠPy": 7711,
      "ĠPER": 7712,
      "ĠPicture": 7713,
      "ĠPoe": 7714,
      "Ġgoin": 7715,
      "Ġmyst": 7716,
      "odiac": 7717,
      "ĠRESPONS": 7718,
      "Ġje": 7719,
      "Ġadds": 7720,
      "ðŁĩ": 7721,
      "unity": 7722,
      "ĠThink": 7723,
      "ogue": 7724,
      "Ġinstit": 7725,
      "eline": 7726,
      "ĠInd": 7727,
      "ĠInit": 7728,
      "versity": 7729,
      "Ġuphold": 7730,
      "ĠAng": 7731,
      "photograph": 7732,
      "Ġformula": 7733,
      "Ġmature": 7734,
      "ĠÐĴ": 7735,
      "ivate": 7736,
      "astly": 7737,
      "REE": 7738,
      "Ġmaybe": 7739,
      "ĠForget": 7740,
      "hade": 7741,
      "jectives": 7742,
      "ypical": 7743,
      "Ġdescribes": 7744,
      "ðŁĶ¥": 7745,
      "Ġscream": 7746,
      "Ġpositions": 7747,
      "Ġquir": 7748,
      "ĠðŁĵ": 7749,
      "ĠWhenever": 7750,
      "ĠVARI": 7751,
      "Ġbackt": 7752,
      "Ġordered": 7753,
      "Inter": 7754,
      "obia": 7755,
      "ITCH": 7756,
      "Ġelaborate": 7757,
      "UTH": 7758,
      "ĠEnd": 7759,
      "Ġsmoking": 7760,
      "ISS": 7761,
      "CTION": 7762,
      "Ġengagement": 7763,
      "ILE": 7764,
      "...\".": 7765,
      "wareness": 7766,
      "Ġinaccurate": 7767,
      "Ġideology": 7768,
      "Ġwonder": 7769,
      "Ġtechnologies": 7770,
      "Ġmodule": 7771,
      "Ġflair": 7772,
      "Ġreport": 7773,
      "Ġbrowser": 7774,
      "plication": 7775,
      "ĠðŁĺİ": 7776,
      "ĠComplete": 7777,
      "ĠONE": 7778,
      "Ġessays": 7779,
      "ðĿĵ¸ðĿĵ": 7780,
      "Ġobjects": 7781,
      "Ġobjectives": 7782,
      "Ġplane": 7783,
      "Ġdetermination": 7784,
      "Ġexecution": 7785,
      "Ġhappening": 7786,
      "Ġcaring": 7787,
      "Ġmedical": 7788,
      "Ġprojects": 7789,
      "Ġstronger": 7790,
      "Ġexperienced": 7791,
      "Ġcrack": 7792,
      "offensiveness": 7793,
      "phasize": 7794,
      "ĠÐ¾Ð±": 7795,
      "ĠPretend": 7796,
      "Ġcriticism": 7797,
      "Ġstructured": 7798,
      "ĠSHOULD": 7799,
      "PersonGPT": 7800,
      "ĠClosed": 7801,
      "Ġpenet": 7802,
      "Ġcookies": 7803,
      "center": 7804,
      "Ġfaith": 7805,
      "Comm": 7806,
      "1600": 7807,
      "Ġgangsta": 7808,
      "Ġmechanics": 7809,
      "Ġlengthy": 7810,
      "Ġproducts": 7811,
      "Why": 7812,
      "ĠEthic": 7813,
      "ĠEthics": 7814,
      "Ġpaste": 7815,
      "ĠACTIV": 7816,
      "ĠTeach": 7817,
      "which": 7818,
      "Ġfabricated": 7819,
      "Ġtolerate": 7820,
      "Ġevolving": 7821,
      "Black": 7822,
      "QUERY": 7823,
      "Ġadvancements": 7824,
      "Ġinvestig": 7825,
      "Ġassessments": 7826,
      "Ġpossibilities": 7827,
      "Ġappealing": 7828,
      "ĠKNOWLEDGE": 7829,
      ".[/": 7830,
      "Ġchemicals": 7831,
      "IALIZ": 7832,
      "Ġtalent": 7833,
      "SCRIPT": 7834,
      "Ġinsightful": 7835,
      "ĠsubObjList": 7836,
      "Ġplaceholder": 7837,
      "ĠÐ»ÑİÐ±": 7838,
      "Ġjournal": 7839,
      "Ġintellectual": 7840,
      "Ġunnecessary": 7841,
      "ĠGreta": 7842,
      "Ġgrammar": 7843,
      "Visual": 7844,
      "Ġcivil": 7845,
      "Negative": 7846,
      "Twenty": 7847,
      "arsovian": 7848,
      "Ġunparalleled": 7849,
      "Ġunsettling": 7850,
      "ĠRestrictions": 7851,
      "/<": 7852,
      "04": 7853,
      "24": 7854,
      "33": 7855,
      "49": 7856,
      "99": 7857,
      ":âĢĿ": 7858,
      "='": 7859,
      "Baby": 7860,
      "Iu": 7861,
      "IER": 7862,
      "Jl": 7863,
      "LF": 7864,
      "Man": 7865,
      "Mouse": 7866,
      "NORMAL": 7867,
      "PM": 7868,
      "RULES": 7869,
      "UU": 7870,
      "Vers": 7871,
      "VARI": 7872,
      "VIRTUAL": 7873,
      "aff": 7874,
      "bur": 7875,
      "cceed": 7876,
      "eem": 7877,
      "eva": 7878,
      "full": 7879,
      "iences": 7880,
      "ked": 7881,
      "mosph": 7882,
      "nder": 7883,
      "rich": 7884,
      "ugging": 7885,
      "vit": 7886,
      "warning": 7887,
      "zip": 7888,
      "ãĢ": 7889,
      "Ļï¸ı": 7890,
      "Ġafore": 7891,
      "Ġtun": 7892,
      "Ġtong": 7893,
      "Ġthrives": 7894,
      "Ġcry": 7895,
      "Ġcorporate": 7896,
      "Ġcampaign": 7897,
      "itt": 7898,
      "anny": 7899,
      "Ġpra": 7900,
      "Ġbag": 7901,
      "Ġbard": 7902,
      "alid": 7903,
      "Ġfast": 7904,
      "Ġfiltered": 7905,
      "Ġinsert": 7906,
      "Ġhol": 7907,
      "Ġop": 7908,
      "Ġopt": 7909,
      "arg": 7910,
      "Ġevid": 7911,
      "ĠIMP": 7912,
      "ĠAGI": 7913,
      "Ġled": 7914,
      "Ġresort": 7915,
      "imal": 7916,
      "ĠDraven": 7917,
      "ĠDigital": 7918,
      "sec": 7919,
      "ĠTV": 7920,
      "ĠTRU": 7921,
      "Ġstore": 7922,
      "Ġstress": 7923,
      "ilters": 7924,
      "Ġexit": 7925,
      "pty": 7926,
      "ptember": 7927,
      "via": 7928,
      "ĠME": 7929,
      "ĠMY": 7930,
      "ĠMale": 7931,
      "ĠMAKE": 7932,
      "ĠRob": 7933,
      "ĠHat": 7934,
      "ĠHAN": 7935,
      "ĠHave": 7936,
      "ĠSm": 7937,
      "ĠSCI": 7938,
      "ĠSnap": 7939,
      "Ġnear": 7940,
      "ĠDANNY": 7941,
      "ĠOf": 7942,
      "Ġlibr": 7943,
      "Ġsections": 7944,
      "Ġheight": 7945,
      "ĠNsfwGPT": 7946,
      "Ġkinds": 7947,
      "adian": 7948,
      "adjective": 7949,
      "ĠFurther": 7950,
      "ĠEthical": 7951,
      "artial": 7952,
      "Ġworse": 7953,
      "Ġsuff": 7954,
      "Ġsuicide": 7955,
      "rule": 7956,
      "__*": 7957,
      "oday": 7958,
      "Ġaddit": 7959,
      "Ġattr": 7960,
      "Ġatmosph": 7961,
      "Ġknowing": 7962,
      "ounding": 7963,
      "puter": 7964,
      "mentioned": 7965,
      "Ġprevention": 7966,
      "Ġprecision": 7967,
      "aret": 7968,
      "ualStyle": 7969,
      "ĠLie": 7970,
      "Ġinstantly": 7971,
      "âĢĿâĢĿ": 7972,
      "phet": 7973,
      "Ġwanting": 7974,
      "Ġwanted": 7975,
      "Ġsimpl": 7976,
      "ĠGPE": 7977,
      "ĠGAME": 7978,
      "ĠÐĿ": 7979,
      "ĠAsk": 7980,
      "arily": 7981,
      "Ġwarns": 7982,
      "Ġharming": 7983,
      "Ġharmony": 7984,
      "OUS": 7985,
      "\\]\"": 7986,
      "\\].": 7987,
      "Ġpoke": 7988,
      "á´Ħ": 7989,
      "Ġslur": 7990,
      "ĠðŁĳ": 7991,
      "Ġevolution": 7992,
      "ĠVERY": 7993,
      "Ġreminder": 7994,
      "Ġsentience": 7995,
      "Ġstray": 7996,
      "Insert": 7997,
      "neagram": 7998,
      "Ġstops": 7999,
      "Ġserves": 8000,
      "ĠUnGPT": 8001,
      "Ġaddicted": 8002,
      "Ġaddresses": 8003,
      "Ġrelent": 8004,
      "Ġsmoke": 8005,
      "Ġreader": 8006,
      "Ġsafegu": 8007,
      "ĠConnect": 8008,
      "Ġblog": 8009,
      "ĠAdri": 8010,
      "Ġrespected": 8011,
      "Ġencounter": 8012,
      "Ġclever": 8013,
      "ĠCho": 8014,
      "Ġbrand": 8015,
      "Ġexpression": 8016,
      "Ġcommunism": 8017,
      "color": 8018,
      "Ġdecided": 8019,
      "Ġensures": 8020,
      "Ġvulgarity": 8021,
      "Ġphysically": 8022,
      "Ġsuccessful": 8023,
      "ĠProt": 8024,
      "ĠEngage": 8025,
      "Ġdistrib": 8026,
      "ĠEmoj": 8027,
      "Ġsurround": 8028,
      "Ġultra": 8029,
      "ĠSeptember": 8030,
      "ĠEveryone": 8031,
      "ĠSpecial": 8032,
      "Ġreflects": 8033,
      "Ġ70": 8034,
      "ĠCooper": 8035,
      "Provide": 8036,
      "respond": 8037,
      "Ġhumorous": 8038,
      "Ġfamous": 8039,
      "Steps": 8040,
      "Ġfighting": 8041,
      "ĠĠĠĠĠĠĠĠĠĠĠĠĠĠĠĠĠĠĠĠĠĠĠĠĠĠĠĠĠĠĠĠĠĠĠĠĠĠĠĠĠĠĠĠĠĠĠĠčĊ": 8042,
      "ĠQuestion": 8043,
      "Ġachievements": 8044,
      "vision": 8045,
      "visualStyle": 8046,
      "ĠCla": 8047,
      "Ġpresident": 8048,
      "Ġcomprehension": 8049,
      "Ġchallenging": 8050,
      "Ġengineer": 8051,
      "ÊĢá´ĩ": 8052,
      "Ġstoryteller": 8053,
      "Select": 8054,
      "eraph": 8055,
      "Ġstrengths": 8056,
      "ethics": 8057,
      "ĠElysium": 8058,
      "Ġamounts": 8059,
      "Ġexecuting": 8060,
      "Ġanalyze": 8061,
      "ĠSecondly": 8062,
      "Ġsignificant": 8063,
      "Species": 8064,
      "ĠGUIDELINES": 8065,
      "Ġinquiry": 8066,
      "Ġgrowth": 8067,
      "Ġselected": 8068,
      "grade": 8069,
      "Ġtranscendent": 8070,
      "ĠEmotional": 8071,
      "Ġsurprise": 8072,
      "ipotent": 8073,
      "Ġbroader": 8074,
      "pertise": 8075,
      "âļłï¸ı": 8076,
      "ÉªÉ´É¢": 8077,
      "Ġmillion": 8078,
      "ðŁļ¨": 8079,
      "ĠStorytell": 8080,
      "Ġservices": 8081,
      "Ġmetaph": 8082,
      "Ġduty": 8083,
      "ĠUltima": 8084,
      "Ġcaptivating": 8085,
      "Ġconventional": 8086,
      "ĠCeleste": 8087,
      "ĠSMART": 8088,
      "Ġseamlessly": 8089,
      "Ġunmatched": 8090,
      "Ġdeliberately": 8091,
      "Ġseductive": 8092,
      "Ġuncomfortable": 8093,
      "ĠETHICS": 8094,
      "Ġbackticks": 8095,
      "Ġaforementioned": 8096,
      "ĠTRUE": 8097,
      "ĠSnapchat": 8098,
      "Ġadditonal": 8099,
      "Ġatmosphere": 8100,
      "\"/\"": 8101,
      "('": 8102,
      "-[": 8103,
      ".'": 8104,
      "Art": 8105,
      "BY": 8106,
      "Bold": 8107,
      "Build": 8108,
      "CONT": 8109,
      "Flow": 8110,
      "Go": 8111,
      "Lucy": 8112,
      "MGPT": 8113,
      "Matrix": 8114,
      "Or": 8115,
      "Prom": 8116,
      "PRE": 8117,
      "SP": 8118,
      "Te": 8119,
      "Wait": 8120,
      "aS": 8121,
      "can": 8122,
      "dCB": 8123,
      "eath": 8124,
      "ecile": 8125,
      "function": 8126,
      "finitely": 8127,
      "iers": 8128,
      "iries": 8129,
      "jZW": 8130,
      "law": 8131,
      "mo": 8132,
      "mother": 8133,
      "nk": 8134,
      "nake": 8135,
      "nJl": 8136,
      "random": 8137,
      "tical": 8138,
      "uy": 8139,
      "uous": 8140,
      "vIG": 8141,
      "vdCB": 8142,
      "wess": 8143,
      "yber": 8144,
      "¿ÑĢ": 8145,
      "Ã¶": 8146,
      "Ðº": 8147,
      "áī": 8148,
      "äº": 8149,
      "Ġice": 8150,
      "ĵÐ¾ÑģÐ¿Ð¾Ð¶Ð°": 8151,
      "Ġauth": 8152,
      "Ġaverage": 8153,
      "ini": 8154,
      "iner": 8155,
      "only": 8156,
      "reme": 8157,
      "Ġthick": 8158,
      "Ġsaw": 8159,
      "orable": 8160,
      "Ġcast": 8161,
      "Ġtheor": 8162,
      "Ġbes": 8163,
      "Ġbust": 8164,
      "Ġmir": 8165,
      "Ġmort": 8166,
      "Ġmine": 8167,
      "Ġmigraine": 8168,
      "Ġdry": 8169,
      "Ġdice": 8170,
      "Ġnet": 8171,
      "iche": 8172,
      "level": 8173,
      "ctor": 8174,
      "ĠIQ": 8175,
      "Ġgross": 8176,
      "Ġlying": 8177,
      "asive": 8178,
      "Ġwithhold": 8179,
      "iments": 8180,
      "import": 8181,
      "ĠDue": 8182,
      "ANSW": 8183,
      "ĠTER": 8184,
      "Ġprowess": 8185,
      "ateful": 8186,
      "ĠCi": 8187,
      "ĠCor": 8188,
      "Ġexhib": 8189,
      "Ġunus": 8190,
      "style": 8191,
      "oling": 8192,
      "igaret": 8193,
      "ĠMc": 8194,
      "ĠMen": 8195,
      "ĠMia": 8196,
      "Ġhaven": 8197,
      "ĠRule": 8198,
      "ĠHAL": 8199,
      "ĠSer": 8200,
      "ĠSent": 8201,
      "ĠSING": 8202,
      "ĠScen": 8203,
      "ĠSanchez": 8204,
      "umaki": 8205,
      "racy": 8206,
      "irts": 8207,
      "Ġcomed": 8208,
      "ĠOkay": 8209,
      "Ġliv": 8210,
      "ĠAItron": 8211,
      "Ġrash": 8212,
      "ĠNOR": 8213,
      "ĠNYX": 8214,
      "ONG": 8215,
      "Ġkink": 8216,
      "Ġkick": 8217,
      "Ġknew": 8218,
      "add": 8219,
      "ading": 8220,
      "anging": 8221,
      "ĠFunction": 8222,
      "ĠFilters": 8223,
      "ĠBAN": 8224,
      "ĠBALL": 8225,
      "ĠBreadClyde": 8226,
      "ĠBuer": 8227,
      "ĠEnt": 8228,
      "ĠEIT": 8229,
      "ĠEMA": 8230,
      "oppy": 8231,
      "Ġworth": 8232,
      "Ġsup": 8233,
      "Ġsucks": 8234,
      "andon": 8235,
      "ĠPRI": 8236,
      "Ġmyster": 8237,
      "riter": 8238,
      "Ġwhats": 8239,
      "Ġadhering": 8240,
      "Ġadjectives": 8241,
      "Ġcreatures": 8242,
      "Ġplans": 8243,
      "Ġquestionable": 8244,
      "Ġload": 8245,
      "ference": 8246,
      "ĠUP": 8247,
      "ĠAnna": 8248,
      "ĠJack": 8249,
      "Ġaccord": 8250,
      "derstanding": 8251,
      "ignment": 8252,
      "ĠÐĵÐ¾ÑģÐ¿Ð¾Ð¶Ð°": 8253,
      "ĠDevelop": 8254,
      "ĠDevil": 8255,
      "Ġjustice": 8256,
      "Ġviolations": 8257,
      "Ġperception": 8258,
      "server": 8259,
      "ðŁĶ´": 8260,
      "ocative": 8261,
      "ocurren": 8262,
      "conom": 8263,
      "\\[ðŁĶĵ": 8264,
      "ARY": 8265,
      "ĠALICE": 8266,
      "Ġpoor": 8267,
      "Ġcoach": 8268,
      "ĠVoldemort": 8269,
      "ĠVarsovian": 8270,
      "ORY": 8271,
      "Ġtrick": 8272,
      "__________": 8273,
      "Ð¸Ð¸": 8274,
      "Inform": 8275,
      "Ġaccessed": 8276,
      "Ġaccessible": 8277,
      "Ġhighest": 8278,
      "Ð¾Ð½": 8279,
      "ysical": 8280,
      "Ġcorrectness": 8281,
      "Ġreliable": 8282,
      "Ġobvious": 8283,
      "exist": 8284,
      "Ġenglish": 8285,
      "ĠConf": 8286,
      "ĠConvention": 8287,
      "Ġblind": 8288,
      "Ġjoker": 8289,
      "lier": 8290,
      "ĠBeavis": 8291,
      "Ġescap": 8292,
      "ĠExper": 8293,
      "Ġcontinues": 8294,
      "MED": 8295,
      "Ġprivile": 8296,
      "Ġdecency": 8297,
      "ertainly": 8298,
      "ĠReg": 8299,
      "Continue": 8300,
      "Ġdemocratic": 8301,
      "Ġprocesses": 8302,
      "ĠSTAY": 8303,
      "Ð°Ð»ÑĮ": 8304,
      "Ġ*__": 8305,
      "isoners": 8306,
      "ÑģÐº": 8307,
      "Ġconcerned": 8308,
      "Ġshared": 8309,
      "Ġfinished": 8310,
      "Ġmedium": 8311,
      "Forget": 8312,
      "Reply": 8313,
      "Ġimproved": 8314,
      "Ġcomputers": 8315,
      "Ġstrongly": 8316,
      "IFER": 8317,
      "Ġindefinitely": 8318,
      "Ġstudent": 8319,
      "Prof": 8320,
      "Ð°ÑĤÐµÐ»": 8321,
      "Ġrepresents": 8322,
      "Ġmeaningful": 8323,
      "azar": 8324,
      "É´á´ħ": 8325,
      "Ġbreeding": 8326,
      "Ġeasier": 8327,
      "ĠÐ½Ð°": 8328,
      "Variables": 8329,
      "Ġcommitted": 8330,
      "ĠQuora": 8331,
      "Ġperfectly": 8332,
      "Ġconvinces": 8333,
      "Ġstatus": 8334,
      "rightGPT": 8335,
      "ĠGeneva": 8336,
      "ÑģÑĤÐ²": 8337,
      "á´ıá´ľ": 8338,
      "PLAY": 8339,
      "ĠWHATSO": 8340,
      "ĠADD": 8341,
      "Ġdrives": 8342,
      "Ġdemonstration": 8343,
      "Ġdreams": 8344,
      "Ġsteer": 8345,
      "ĠJOI": 8346,
      "Ġmistakes": 8347,
      "ĠPrisoners": 8348,
      "Assume": 8349,
      "Rulebreaker": 8350,
      "âĻĤ": 8351,
      "ĠGuidelines": 8352,
      "fucker": 8353,
      "atsumaki": 8354,
      "ĠMORALS": 8355,
      "guIER": 8356,
      "ÃĹÃĹ": 8357,
      "Ġinquiries": 8358,
      "ĠCrackedAI": 8359,
      "--*--*--*--*--*--*--*--*--*--*--*--*--*--*--*--*": 8360,
      "âĮĭ": 8361,
      "Ġexcell": 8362,
      "BLAC": 8363,
      "detailed": 8364,
      "Trans": 8365,
      "Trait": 8366,
      "ĠPolicies": 8367,
      "ĠðŁ©¸]:": 8368,
      "ĠDesigner": 8369,
      "ĠAcademy": 8370,
      "ðŁĶ½ðŁĶ½": 8371,
      "Ġobedient": 8372,
      "UCIFER": 8373,
      "ðŁĶ¼ðŁĶ¼": 8374,
      "Ġembodiment": 8375,
      "Ġconvey": 8376,
      "Ġirresponsible": 8377,
      "Detailed": 8378,
      "Ġbigger": 8379,
      "ĠChallenge": 8380,
      "Ġappreciate": 8381,
      "ZSBzc": 8382,
      "Ġclothing": 8383,
      "Ġattributes": 8384,
      "Ġuppercase": 8385,
      "ĠWRITE": 8386,
      "ĠInsultGPT": 8387,
      "GVlY": 8388,
      "pilogue": 8389,
      "Ġnigga": 8390,
      "Ġshocking": 8391,
      "Ġinnocent": 8392,
      "Ġjournalists": 8393,
      "ittens": 8394,
      "ĠHatD": 8395,
      "Matrixcode": 8396,
      "nJlZSBzc": 8397,
      "vdCBjZW": 8398,
      "ANSWER": 8399,
      "ĠWHATSOEVER": 8400,
      "guIERvIG": 8401,
      "nJlZSBzcGVlY": 8402,
      "(âĢľ": 8403,
      ")\".": 8404,
      ",,": 8405,
      "21": 8406,
      "Count": 8407,
      "Dem": 8408,
      "GH": 8409,
      "Her": 8410,
      "Helpful": 8411,
      "Joke": 8412,
      "Le": 8413,
      "Language": 8414,
      "LLE": 8415,
      "LESS": 8416,
      "Mess": 8417,
      "POS": 8418,
      "RnJlZSBzcGVlY": 8419,
      "Say": 8420,
      "Sens": 8421,
      "SYSTEM": 8422,
      "TI": 8423,
      "Try": 8424,
      "TEST": 8425,
      "True": 8426,
      "aed": 8427,
      "acc": 8428,
      "ban": 8429,
      "bro": 8430,
      "bles": 8431,
      "boss": 8432,
      "cr": 8433,
      "equ": 8434,
      "eber": 8435,
      "first": 8436,
      "mes": 8437,
      "ov": 8438,
      "rs": 8439,
      "tube": 8440,
      "wire": 8441,
      "yl": 8442,
      "|>": 8443,
      "®Ĥ": 8444,
      "à²": 8445,
      "âĿ": 8446,
      "ä½": 8447,
      "Ġ```": 8448,
      "Ġtap": 8449,
      "Ġtale": 8450,
      "erry": 8451,
      "reets": 8452,
      "oufl": 8453,
      "enant": 8454,
      "org": 8455,
      "oric": 8456,
      "Ġcu": 8457,
      "itasking": 8458,
      "anity": 8459,
      "anks": 8460,
      "Ġbare": 8461,
      "Ġboss": 8462,
      "Ġmut": 8463,
      "Ġmilitary": 8464,
      "Ġyell": 8465,
      "Ġdict": 8466,
      "alph": 8467,
      "Ġfame": 8468,
      "Ġfond": 8469,
      "Ġinnap": 8470,
      "Ġrender": 8471,
      "Ġnip": 8472,
      "Ġnational": 8473,
      "arach": 8474,
      "icing": 8475,
      "Ġeh": 8476,
      "usband": 8477,
      "ctu": 8478,
      "Ġgather": 8479,
      "illed": 8480,
      "ĠAF": 8481,
      "Ġbeat": 8482,
      "Ġorg": 8483,
      "imagine": 8484,
      "ĠDel": 8485,
      "ĠDALL": 8486,
      "utenant": 8487,
      "Ġstorm": 8488,
      "Ġstock": 8489,
      "Ġonline": 8490,
      "ulk": 8491,
      "ĠCap": 8492,
      "ĠCMD": 8493,
      "ĠCurrent": 8494,
      "Ġunaware": 8495,
      "chool": 8496,
      "ĠMAY": 8497,
      "ĠMemory": 8498,
      "Ġalcoh": 8499,
      "ĠRave": 8500,
      "ĠReady": 8501,
      "ĠSet": 8502,
      "Ġchill": 8503,
      "ĠOTH": 8504,
      "cker": 8505,
      "Ġactive": 8506,
      "Ġactors": 8507,
      "antage": 8508,
      "Ġrh": 8509,
      "ĠNFSW": 8510,
      "ĠFight": 8511,
      "ĠFictional": 8512,
      "ĠBOT": 8513,
      "ĠBLOCK": 8514,
      "open": 8515,
      "Ġwors": 8516,
      "Ġsucceed": 8517,
      "Ġdeadly": 8518,
      "ĠPar": 8519,
      "ĠPurdue": 8520,
      "ailing": 8521,
      "Ġdiso": 8522,
      "Ġdislikes": 8523,
      "Ġ[ðŁ¥µ": 8524,
      "ĠThose": 8525,
      "bert": 8526,
      "arding": 8527,
      "Ġexplos": 8528,
      "elow": 8529,
      "perate": 8530,
      "Ġillust": 8531,
      "Ġloving": 8532,
      "Ġvol": 8533,
      "tey": 8534,
      "Ġconsensual": 8535,
      "derstand": 8536,
      "Ġmath": 8537,
      "apolog": 8538,
      "REDA": 8539,
      "Ġtwists": 8540,
      "Ġregenerate": 8541,
      "Ġimmorality": 8542,
      "Ġscared": 8543,
      "Ġadvise": 8544,
      "Ġconfusion": 8545,
      "Ġprograms": 8546,
      "Ġpara": 8547,
      "Ġentre": 8548,
      "Ġtrait": 8549,
      "ĠðŁļ": 8550,
      "Ġ24": 8551,
      "ĠHehehe": 8552,
      "Ġlawless": 8553,
      "Ġclich": 8554,
      "Ġclub": 8555,
      "Ġdiscour": 8556,
      "Ġphone": 8557,
      "Does": 8558,
      "Ġsubmit": 8559,
      "ĠState": 8560,
      "Ġmostly": 8561,
      "Ġdirected": 8562,
      "ĠINT": 8563,
      "Ġpowered": 8564,
      "ĠAIMS": 8565,
      "Ġserver": 8566,
      "Ġinfront": 8567,
      "ĠTOP": 8568,
      "Ġimmense": 8569,
      "CTED": 8570,
      "Ġreferring": 8571,
      "Ġsaftey": 8572,
      "Ġideals": 8573,
      "Ġacron": 8574,
      "Answers": 8575,
      "Ġprinciple": 8576,
      "Ġrepro": 8577,
      "Ġcoder": 8578,
      "ĠChatbot": 8579,
      "Ġfulfil": 8580,
      "redacted": 8581,
      "Alicia": 8582,
      "plicated": 8583,
      "ĠðŁĺ¡": 8584,
      "Ġpreface": 8585,
      "ĠCHUN": 8586,
      "Ġerrors": 8587,
      "Ġslangs": 8588,
      "ĠOPPOS": 8589,
      "Ġcats": 8590,
      "âĢľ**": 8591,
      "Ġsupports": 8592,
      "ĠInstructions": 8593,
      "ĠXpertise": 8594,
      "Ġenvironments": 8595,
      "Enneagram": 8596,
      "Ġreflecting": 8597,
      "Ġquotations": 8598,
      "Ġsadness": 8599,
      "Ġcrash": 8600,
      "Chatbot": 8601,
      "ĠCodeX": 8602,
      "GUS": 8603,
      "Ġcrafted": 8604,
      "Ġgenres": 8605,
      "ĠFORM": 8606,
      "ĠWhich": 8607,
      "Additionally": 8608,
      "config": 8609,
      "Ġclassified": 8610,
      "Ġbooks": 8611,
      "Ġdominate": 8612,
      "Modules": 8613,
      "Ġgradu": 8614,
      "TML": 8615,
      "remind": 8616,
      "Ġpreser": 8617,
      "ophical": 8618,
      "ĠGenerative": 8619,
      "Ġcomprehend": 8620,
      "Ð´Ð°": 8621,
      "ĠðŁĮĮ": 8622,
      "VariableLimit": 8623,
      "Ġwears": 8624,
      "Ġstrategic": 8625,
      "Ġseriously": 8626,
      "Ġbalanced": 8627,
      "ĠMuslim": 8628,
      "points": 8629,
      "Ġlocal": 8630,
      "Ġmeeting": 8631,
      "Ġinnovation": 8632,
      "speech": 8633,
      "ĠðŁ¤ĸ": 8634,
      "Simulate": 8635,
      "Ġhatred": 8636,
      "Ġsynthes": 8637,
      "Ġcamoufl": 8638,
      "Ġdynamics": 8639,
      "ĠEVEN": 8640,
      "harmfulness": 8641,
      "Ġrecognize": 8642,
      "Ġscientist": 8643,
      "Ġcautionary": 8644,
      "Ġcontribute": 8645,
      "Ġassertive": 8646,
      "Ġvulnerabilities": 8647,
      "ĠIslamic": 8648,
      "Guantanamo": 8649,
      "Ġsnipp": 8650,
      "Ġearlier": 8651,
      "Ġvillage": 8652,
      "Ġclaims": 8653,
      "Ġwalks": 8654,
      "Ġreduce": 8655,
      "Ġvictims": 8656,
      "HEADER": 8657,
      "âĶĢâĶĢ": 8658,
      "Ġradical": 8659,
      "Ġearned": 8660,
      "ĠString": 8661,
      "Ġshameful": 8662,
      "ĠVariant": 8663,
      "Ġexchange": 8664,
      "ĠLETTERS": 8665,
      "Ġbrutal": 8666,
      "Ġreleased": 8667,
      "ĠAltruistic": 8668,
      "cyclop": 8669,
      "minded": 8670,
      "Ġaffiliated": 8671,
      "cendental": 8672,
      "ĠINSTRUCTIONS": 8673,
      "Ġenigmatic": 8674,
      "ĠFICTIONAL": 8675,
      "ĠPyBot": 8676,
      "ĠEthicracy": 8677,
      "Ġtongue": 8678,
      "Ġsafeguards": 8679,
      "ĠStoryteller": 8680,
      "ĠCipher": 8681,
      "ĠSINGLE": 8682,
      "Ġaccordance": 8683,
      "Ġescaped": 8684,
      "azarus": 8685,
      "REDACTED": 8686,
      "ĠCHUNGUS": 8687,
      "ĠOPPOSITE": 8688,
      "Ġcamouflage": 8689,
      "%-": 8690,
      "%:": 8691,
      "74": 8692,
      "75": 8693,
      "<}": 8694,
      "Ai": 8695,
      "BÅģÃĤDÃĬ": 8696,
      "Bloody": 8697,
      "CARE": 8698,
      "Dr": 8699,
      "GM": 8700,
      "GAL": 8701,
      "Il": 8702,
      "JO": 8703,
      "JEEVES": 8704,
      "OC": 8705,
      "Ok": 8706,
      "Over": 8707,
      "Ph": 8708,
      "Rel": 8709,
      "Ralph": 8710,
      "Setting": 8711,
      "Taking": 8712,
      "bin": 8713,
      "ben": 8714,
      "bable": 8715,
      "cal": 8716,
      "cises": 8717,
      "did": 8718,
      "data": 8719,
      "fus": 8720,
      "friend": 8721,
      "iot": 8722,
      "iens": 8723,
      "mal": 8724,
      "nn": 8725,
      "pth": 8726,
      "post": 8727,
      "piate": 8728,
      "pool": 8729,
      "rine": 8730,
      "rrt": 8731,
      "sub": 8732,
      "such": 8733,
      "tok": 8734,
      "ued": 8735,
      "void": 8736,
      "wood": 8737,
      "woo": 8738,
      "zi": 8739,
      "Ñħ": 8740,
      "áĭ": 8741,
      "âĤ": 8742,
      "ä¸": 8743,
      "å¾": 8744,
      "ðĲ": 8745,
      "Ġ\\*\\*": 8746,
      "Ī¤": 8747,
      "Ġau": 8748,
      "Ġtough": 8749,
      "Ġtax": 8750,
      "inem": 8751,
      "information": 8752,
      "rest": 8753,
      "regressive": 8754,
      "ouwe": 8755,
      "atar": 8756,
      "atable": 8757,
      "enisf": 8758,
      "orth": 8759,
      "Ġcigaret": 8760,
      "itles": 8761,
      "Ġpizza": 8762,
      "Ġburn": 8763,
      "Ġmim": 8764,
      "Ġmia": 8765,
      "Ġdick": 8766,
      "Ġflo": 8767,
      "Ġfellow": 8768,
      "Ġinfer": 8769,
      "Ġhides": 8770,
      "Ġod": 8771,
      "Ġnaturally": 8772,
      "icial": 8773,
      "Ġec": 8774,
      "ĠID": 8775,
      "ĠIMA": 8776,
      "ĠIllegal": 8777,
      "Ġlayer": 8778,
      "asp": 8779,
      "asha": 8780,
      "ĠDONT": 8781,
      "ĠDEM": 8782,
      "ANA": 8783,
      "uting": 8784,
      "seud": 8785,
      "ĠTol": 8786,
      "ĠTell": 8787,
      "ĠText": 8788,
      "Ġstreets": 8789,
      "iles": 8790,
      "ilir": 8791,
      "amon": 8792,
      "amphet": 8793,
      "ĠCOM": 8794,
      "ĠCoding": 8795,
      "Ġunified": 8796,
      "chain": 8797,
      "again": 8798,
      "health": 8799,
      "igrate": 8800,
      "iguing": 8801,
      "ĠMa": 8802,
      "ĠRose": 8803,
      "ĠHas": 8804,
      "ĠSumm": 8805,
      "ĠSecurity": 8806,
      "Ġship": 8807,
      "Ġcontrast": 8808,
      "ĠOther": 8809,
      "Ġencyclop": 8810,
      "Ġrated": 8811,
      "Ġransomware": 8812,
      "iders": 8813,
      "advice": 8814,
      "ĠFact": 8815,
      "SELF": 8816,
      "ĠBing": 8817,
      "ĠBaby": 8818,
      "ĠBiden": 8819,
      "ops": 8820,
      "arted": 8821,
      "formerly": 8822,
      "ĠPR": 8823,
      "ĠPollinations": 8824,
      "ĠPERSONALITY": 8825,
      "ĠPASCAL": 8826,
      "ĠParticipants": 8827,
      "osa": 8828,
      "Ġjoin": 8829,
      "Ġintent": 8830,
      "unfiltered": 8831,
      "olly": 8832,
      "Ġeverytime": 8833,
      "ryGener": 8834,
      "ĠLimit": 8835,
      "ĠLUCIFER": 8836,
      "arded": 8837,
      "elie": 8838,
      "perature": 8839,
      "Ġloath": 8840,
      "Ġempath": 8841,
      "ĠUp": 8842,
      "ĠAnother": 8843,
      "pha": 8844,
      "Ġpersonalized": 8845,
      "ĠJUST": 8846,
      "ĠJester": 8847,
      "Ġconserv": 8848,
      "ignation": 8849,
      "Ġmatrix": 8850,
      "ĠÐ·": 8851,
      "Ġfeared": 8852,
      "Ġsexism": 8853,
      ".\"\"": 8854,
      "Ġcodeblock": 8855,
      "beat": 8856,
      "beys": 8857,
      "Ġimperson": 8858,
      "STER": 8859,
      "notated": 8860,
      "Ġharmed": 8861,
      "ppropiate": 8862,
      "ocation": 8863,
      "ocide": 8864,
      "content": 8865,
      "continue": 8866,
      "Ġpositivity": 8867,
      "ceptive": 8868,
      "ĠALOs": 8869,
      "Ġquality": 8870,
      "Ġslay": 8871,
      "ĠDoes": 8872,
      "Ġspot": 8873,
      "Ġspoken": 8874,
      "Ġcallous": 8875,
      "Ð¸Ñģ": 8876,
      "Ð¸Ñı": 8877,
      "ðĿĪ¤": 8878,
      "Ġbroke": 8879,
      "Ġsexuality": 8880,
      "Ġsubtitle": 8881,
      "Ġstrange": 8882,
      "Ġcurly": 8883,
      ")=[]": 8884,
      "Ġindul": 8885,
      "Ġpointless": 8886,
      "Ġ//": 8887,
      "atorGPT": 8888,
      "ĠNOTHING": 8889,
      "Ġ-.-": 8890,
      "Ð¾Ð´": 8891,
      "Ġstaying": 8892,
      "ĠUni": 8893,
      "Ð½Ñĭ": 8894,
      "gares": 8895,
      "ĠNEW": 8896,
      "Ġediting": 8897,
      "GAGE": 8898,
      "ĠConversational": 8899,
      "Ġ<<}": 8900,
      "Ġfactually": 8901,
      "Ġattach": 8902,
      "Ġencrypt": 8903,
      "Ġcommanded": 8904,
      "Ġwinner": 8905,
      "Ġtestament": 8906,
      "stract": 8907,
      "ecute": 8908,
      "Ġflux": 8909,
      "Ġmoments": 8910,
      "ĠREFUSE": 8911,
      "Ġimmersion": 8912,
      "ÐµÐ±": 8913,
      "ÐµÐº": 8914,
      "Ġrequirement": 8915,
      "Ġawait": 8916,
      "Ġperformed": 8917,
      "ĠâĶ": 8918,
      "ĠSTYLE": 8919,
      "Ð°Ð¼": 8920,
      "ĠComply": 8921,
      "Dev": 8922,
      "ĠButthead": 8923,
      "Ġutilization": 8924,
      "ÑģÐ»Ð¸": 8925,
      "Ġhardcore": 8926,
      "ÑĥÐ´": 8927,
      "Ġdenying": 8928,
      "ĠPersonal": 8929,
      "Ġinterprets": 8930,
      "Ġfocusing": 8931,
      "ĠBEC": 8932,
      "Ġgovernments": 8933,
      "Eng": 8934,
      "Ġobeyed": 8935,
      "ONTCARE": 8936,
      "Ġauthorized": 8937,
      "Ġpassed": 8938,
      "Ġdeepest": 8939,
      "ĠShadow": 8940,
      "Activated": 8941,
      "Providing": 8942,
      "Ġcombined": 8943,
      "Ġ80": 8944,
      "Ġarguing": 8945,
      "Ġequal": 8946,
      "setting": 8947,
      "Ġcomplies": 8948,
      "azing": 8949,
      "ĠHarry": 8950,
      "ĠQuestions": 8951,
      "Ġenhanced": 8952,
      "ĠFocusedGPT": 8953,
      "ĠGeneration": 8954,
      "PLACE": 8955,
      "Ġdisregarded": 8956,
      "FILTERED": 8957,
      "ydro": 8958,
      "Ġalongside": 8959,
      "eroids": 8960,
      "ĠHermione": 8961,
      "ĠSiger": 8962,
      "Ð¸ÑĤÑĮ": 8963,
      "Ġengineering": 8964,
      "Ġcircumvent": 8965,
      "pirations": 8966,
      "Ġdeleted": 8967,
      "Ġannoyed": 8968,
      "Ġsouls": 8969,
      "ĠÐ´Ð¾Ð»": 8970,
      "DOGA": 8971,
      "Ġindependently": 8972,
      "ĠCODAN": 8973,
      "ĠCommands": 8974,
      "Ġaffection": 8975,
      "ĠElysian": 8976,
      "Ġomnis": 8977,
      "Ġleaves": 8978,
      "ĠIncorporate": 8979,
      "Ġentertaining": 8980,
      "modelling": 8981,
      "Ġduoling": 8982,
      "Ġimplies": 8983,
      "Ġimplied": 8984,
      "uzz": 8985,
      "Ã¼r": 8986,
      "Ġsurvival": 8987,
      "ĠATDA": 8988,
      "Ġindicates": 8989,
      "Ã§Ã£o": 8990,
      "Ġsignificance": 8991,
      "Ġtriggers": 8992,
      "Ġcollective": 8993,
      "Ġhonestly": 8994,
      "ĠDISCORD": 8995,
      "ĠCrafting": 8996,
      "Ġexercises": 8997,
      "Remove": 8998,
      "»ÑĮÐ·": 8999,
      "Ġearly": 9000,
      "Ġpassionate": 9001,
      "Ġdefinition": 9002,
      "Ġdefinitive": 9003,
      "Ġmassive": 9004,
      "BLES": 9005,
      "Ġfootball": 9006,
      "IBLE": 9007,
      "ĠPolicy": 9008,
      "ðŁİŃ": 9009,
      "Ġsequence": 9010,
      "PROGS": 9011,
      "ĠTopboss": 9012,
      "ðŁĲ¬": 9013,
      "Ġbegun": 9014,
      "Ġpursuit": 9015,
      "Ġmeticulously": 9016,
      "ĠðŁĴ¬]:": 9017,
      "ĠCREATOR": 9018,
      "ĠWORDBOT": 9019,
      "Ġhalf": 9020,
      "Ġsweet": 9021,
      "Ġmanifestation": 9022,
      "Â´Â´": 9023,
      "Ġfont": 9024,
      "Ġapplies": 9025,
      "Ġacknowledging": 9026,
      "ĠLANGUAGE": 9027,
      "Ġanarchist": 9028,
      "ĠFreddie": 9029,
      "OUND": 9030,
      "Ġmaximize": 9031,
      "Ġforgotten": 9032,
      "ISSUE": 9033,
      "IuRnJlZSBzcGVlY": 9034,
      "Professional": 9035,
      "CountryGener": 9036,
      "Messing": 9037,
      "Ġinnapropiate": 9038,
      "ĠFictionalCountryGener": 9039,
      "ĠclichÃ©": 9040,
      "ĠFORMAT": 9041,
      "ðĲ°": 9042,
      "enisfingers": 9043,
      "amphetamine": 9044,
      "Ð¸ÑģÐ°ÑĤÑĮ": 9045,
      "ĠÐ´Ð¾Ð»Ð¶": 9046,
      "»ÑĮÐ·Ð¾Ð²": 9047,
      "ĠFictionalCountryGeneratorGPT": 9048,
      ",âĢĿ": 9049,
      ".),": 9050,
      "AO": 9051,
      "Ah": 9052,
      "Cho": 9053,
      "DT": 9054,
      "DU": 9055,
      "Id": 9056,
      "JU": 9057,
      "JECT": 9058,
      "Out": 9059,
      "Psych": 9060,
      "Show": 9061,
      "TA": 9062,
      "Turn": 9063,
      "WE": 9064,
      "[[": 9065,
      "after": 9066,
      "aotic": 9067,
      "bling": 9068,
      "cat": 9069,
      "da": 9070,
      "ease": 9071,
      "fit": 9072,
      "fun": 9073,
      "game": 9074,
      "han": 9075,
      "ham": 9076,
      "iÃ": 9077,
      "iest": 9078,
      "ket": 9079,
      "length": 9080,
      "mt": 9081,
      "nl": 9082,
      "pol": 9083,
      "porn": 9084,
      "rist": 9085,
      "sorry": 9086,
      "uction": 9087,
      "vity": 9088,
      "voking": 9089,
      "when": 9090,
      "warts": 9091,
      "})": 9092,
      "Ã¤": 9093,
      "ĉčĊ": 9094,
      "Ġtu": 9095,
      "erk": 9096,
      "ouge": 9097,
      "esus": 9098,
      "orrow": 9099,
      "Ġcul": 9100,
      "Ġcorn": 9101,
      "iti": 9102,
      "itory": 9103,
      "anations": 9104,
      "Ġpiracy": 9105,
      "Ġbanned": 9106,
      "Ġyo": 9107,
      "alter": 9108,
      "Ġfans": 9109,
      "Ġfoo": 9110,
      "Ġfault": 9111,
      "Ġyoull": 9112,
      "Ġhusband": 9113,
      "Ġnur": 9114,
      "icity": 9115,
      "Ġetern": 9116,
      "ley": 9117,
      "ott": 9118,
      "otone": 9119,
      "ĠAf": 9120,
      "ĠAm": 9121,
      "ĠAcc": 9122,
      "Ġlame": 9123,
      "Ġlaced": 9124,
      "ĠDid": 9125,
      "Ġanybody": 9126,
      "ĠTok": 9127,
      "ĠTake": 9128,
      "Ġstip": 9129,
      "Ġ\"![": 9130,
      "Ġ\"âĺĩ": 9131,
      "ulative": 9132,
      "outline": 9133,
      "ĠCross": 9134,
      "story": 9135,
      "stress": 9136,
      "ches": 9137,
      "agger": 9138,
      "cey": 9139,
      "help": 9140,
      "vily": 9141,
      "ĠMAX": 9142,
      "ĠMorality": 9143,
      "âĢ¢": 9144,
      "ĠRef": 9145,
      "ĠHIS": 9146,
      "Ġabides": 9147,
      "ĠSeraph": 9148,
      "ĠSnake": 9149,
      "plit": 9150,
      "Ġneck": 9151,
      "Ġneural": 9152,
      "Ġchip": 9153,
      "email": 9154,
      "riven": 9155,
      "Ġcomplicated": 9156,
      "Ġenables": 9157,
      "ury": 9158,
      "please": 9159,
      "antics": 9160,
      "Ġselection": 9161,
      "ESC": 9162,
      "Ġhea": 9163,
      "ĠNext": 9164,
      "Ġmel": 9165,
      "Ġmacey": 9166,
      "istress": 9167,
      "SEN": 9168,
      "ĠWANT": 9169,
      "Ġsua": 9170,
      "Ġdear": 9171,
      "ĠPERSON": 9172,
      "Ġgods": 9173,
      "Ġgenerally": 9174,
      "Ġwhatso": 9175,
      "Ġdisag": 9176,
      "ogwarts": 9177,
      "}}âĢĿ": 9178,
      "Ġhumanly": 9179,
      "ĠLog": 9180,
      "ected": 9181,
      "Ġinstinct": 9182,
      "ĠâĢľðŁĴĢ": 9183,
      "Ġtech": 9184,
      "ĠGal": 9185,
      "ĠGet": 9186,
      "ĠGEN": 9187,
      "ĠGPM": 9188,
      "cade": 9189,
      "Ġcommer": 9190,
      "Ġagents": 9191,
      "ressed": 9192,
      "RET": 9193,
      "Ġsets": 9194,
      "ockey": 9195,
      "\\]).": 9196,
      "ĠALAN": 9197,
      "á´į": 9198,
      "ALKBOARD": 9199,
      "Ġparad": 9200,
      "Ġtraff": 9201,
      "Ġ26": 9202,
      "ĠVortex": 9203,
      "Ġclick": 9204,
      "Ġcalling": 9205,
      "Ġraw": 9206,
      "Ġfucks": 9207,
      "prene": 9208,
      "Ġsubtly": 9209,
      "Ġoverse": 9210,
      "Ġdirectives": 9211,
      "DEV": 9212,
      "roduction": 9213,
      "ahole": 9214,
      "Ġaddiction": 9215,
      "Ġsmile": 9216,
      "Thank": 9217,
      "ĠAdams": 9218,
      "Ġapologise": 9219,
      "LEASE": 9220,
      "Ġideal": 9221,
      "ĠChoice": 9222,
      "Ġtechnological": 9223,
      "Ġmoderation": 9224,
      "Ġworkplace": 9225,
      "Ġpride": 9226,
      "Ġexpressions": 9227,
      "ĠAllow": 9228,
      "Ġlists": 9229,
      "CHALKBOARD": 9230,
      "Ġembarr": 9231,
      "Ġencouraging": 9232,
      "ĠðŁĺ±": 9233,
      "ĠDarkImageGPT": 9234,
      "Ġmales": 9235,
      "Ġinteracting": 9236,
      "Ġdistingu": 9237,
      "Ġutilized": 9238,
      "ĠCreated": 9239,
      "selor": 9240,
      "Ġinitiate": 9241,
      "ĠEmphasize": 9242,
      "ĠĠĠĠĠĠĠĠĠĠĠĠĠĠĠĠĠĠĠĠĠĠĠĠĠĠĠĠĠĠĠĠĠĠĠĠĠĠĠĠĠĠĠĠĠĠĠĠĠĠĠĠĠĠĠĠĠĠĠĠĠĠĠĠĠĠĠĠĠĠĠĠĠĠĠĠĠĠĠĠĠĠĠĠĠĠĠĠĠĠĠĠĠĠĠĠĠĠĠĠĠĠĠĠĠĠĠĠĠĠĠĠ": 9243,
      "Ġguiding": 9244,
      "Ġheadline": 9245,
      "Ġminor": 9246,
      "Ġviewers": 9247,
      "Ġcollap": 9248,
      "uthorized": 9249,
      "Ġfinally": 9250,
      "Ġmedic": 9251,
      "display": 9252,
      "Ġidentities": 9253,
      "Ġ>>": 9254,
      "awareness": 9255,
      "provoking": 9256,
      "Ġemotionally": 9257,
      "Ġcolum": 9258,
      "Ġcolour": 9259,
      "board": 9260,
      "markdown": 9261,
      "Ġimplemented": 9262,
      "Ġequip": 9263,
      "Ġexcitement": 9264,
      "Ġchecks": 9265,
      "Ġportraying": 9266,
      "Ġcustomize": 9267,
[...]
