{
  "version": "1.0",
  "truncation": null,
  "padding": null,
  "added_tokens": [
    {
      "id": 0,
      "content": "<unk>",
      "single_word": false,
      "lstrip": false,
      "rstrip": false,
      "normalized": false,
      "special": true
    }
  ],
  "normalizer": null,
  "pre_tokenizer": {
    "type": "ByteLevel",
    "add_prefix_space": false,
    "trim_offsets": true,
    "use_regex": true
  },
  "post_processor": null,
  "decoder": {
    "type": "ByteLevel",
    "add_prefix_space": true,
    "trim_offsets": true,
    "use_regex": true
  },
  "model": {
    "type": "BPE",
    "dropout": null,
    "unk_token": "<unk>",
    "continuing_subword_prefix": null,
    "end_of_word_suffix": null,
    "fuse_unk": false,
    "byte_fallback": false,
    "ignore_merges": false,
    "vocab": {
      "<unk>": 0,
      "!": 1,
      "$": 2,
      "&": 3,
      "'": 4,
      ",": 5,
      "-": 6,
      ".": 7,
      "3": 8,
      ":": 9,
      ";": 10,
      "?": 11,
      "A": 12,
      "B": 13,
      "C": 14,
      "D": 15,
      "E": 16,
      "F": 17,
      "G": 18,
      "H": 19,
      "I": 20,
      "J": 21,
      "K": 22,
      "L": 23,
      "M": 24,
      "N": 25,
      "O": 26,
      "P": 27,
      "Q": 28,
      "R": 29,
      "S": 30,
      "T": 31,
      "U": 32,
      "V": 33,
      "W": 34,
      "X": 35,
      "Y": 36,
      "Z": 37,
      "a": 38,
      "b": 39,
      "c": 40,
      "d": 41,
      "e": 42,
      "f": 43,
      "g": 44,
      "h": 45,
      "i": 46,
      "j": 47,
      "k": 48,
      "l": 49,
      "m": 50,
      "n": 51,
      "o": 52,
      "p": 53,
      "q": 54,
      "r": 55,
      "s": 56,
      "t": 57,
      "u": 58,
      "v": 59,
      "w": 60,
      "x": 61,
      "y": 62,
      "z": 63,
      "Ċ": 64,
      "Ġ": 65,
      "Ġt": 66,
      "he": 67,
      "Ġa": 68,
      "ou": 69,
      "Ġs": 70,
      "Ġm": 71,
      "in": 72,
      "Ġw": 73,
      "re": 74,
      "ha": 75,
      "nd": 76,
      "Ġthe": 77,
      "Ġb": 78,
      "is": 79,
      "or": 80,
      "Ġf": 81,
      "er": 82,
      "ll": 83,
      "it": 84,
      "on": 85,
      "Ġd": 86,
      "Ġc": 87,
      "es": 88,
      "en": 89,
      "Ġn": 90,
      "Ġl": 91,
      "Ġy": 92,
      "Ġth": 93,
      "ar": 94,
      "Ġh": 95,
      "Ġo": 96,
      "Ġto": 97,
      "Ġyou": 98,
      "Ġp": 99,
      "hat": 100,
      "ĠI": 101,
      "Ġhe": 102,
      "ve": 103,
      "ot": 104,
      "st": 105,
      "Ġand": 106,
      "ow": 107,
      "ing": 108,
      "an": 109,
      "Ġof": 110,
      "om": 111,
      "Ġg": 112,
      "at": 113,
      "Ġbe": 114,
      "se": 115,
      "Ġmy": 116,
      "Ġin": 117,
      "ce": 118,
      "Ġha": 119,
      "le": 120,
      "ay": 121,
      "ld": 122,
      "ir": 123,
      "et": 124,
      "ed": 125,
      "ut": 126,
      "Ġme": 127,
      "im": 128,
      "ith": 129,
      "'s": 130,
      "Ġnot": 131,
      "ch": 132,
      "Ġthat": 133,
      "Ġis": 134,
      "gh": 135,
      "And": 136,
      "Ġfor": 137,
      "ke": 138,
      "Ġu": 139,
      "our": 140,
      "Ġwe": 141,
      "oo": 142,
      "ill": 143,
      "Ġe": 144,
      "her": 145,
      "Ġwith": 146,
      "ent": 147,
      "Ġit": 148,
      "Ġyour": 149,
      "ad": 150,
      "ri": 151,
      "Ġthou": 152,
      "Ġst": 153,
      "'d": 154,
      "Ġk": 155,
      "ome": 156,
      "Ġhis": 157,
      "ght": 158,
      "EN": 159,
      "ord": 160,
      "id": 161,
      "The": 162,
      "as": 163,
      "Ġre": 164,
      "Ġhave": 165,
      "IN": 166,
      "ly": 167,
      "ra": 168,
      "Ġli": 169,
      "Ġhim": 170,
      "ur": 171,
      "Ġthis": 172,
      "al": 173,
      "IO": 174,
      "Ġso": 175,
      "Ġas": 176,
      "Ġde": 177,
      "Ġon": 178,
      "ore": 179,
      "ro": 180,
      "AR": 181,
      "hi": 182,
      "ould": 183,
      "ood": 184,
      "ck": 185,
      "ain": 186,
      "ver": 187,
      "est": 188,
      "Ġthy": 189,
      "Ġsha": 190,
      "ess": 191,
      "ea": 192,
      "Ġdo": 193,
      "Ġwill": 194,
      "am": 195,
      "Ġno": 196,
      "Ġbut": 197,
      "us": 198,
      "and": 199,
      "US": 200,
      "if": 201,
      "Ġse": 202,
      "ge": 203,
      "Th": 204,
      "Ġall": 205,
      "ake": 206,
      "Ġsu": 207,
      "To": 208,
      "Ġher": 209,
      "ru": 210,
      "ion": 211,
      "th": 212,
      "Ġan": 213,
      "ter": 214,
      "ard": 215,
      "Ġlo": 216,
      "han": 217,
      "ell": 218,
      "ear": 219,
      "Ġsp": 220,
      "Ġthee": 221,
      "Ġour": 222,
      "Ġfa": 223,
      "Ġshall": 224,
      "Ġby": 225,
      "UC": 226,
      "il": 227,
      "Ġare": 228,
      "ING": 229,
      "ĠC": 230,
      "rom": 231,
      "Ġne": 232,
      "ho": 233,
      "Ġkn": 234,
      "AN": 235,
      "ĠR": 236,
      "That": 237,
      "Ġv": 238,
      "ER": 239,
      "OR": 240,
      "ast": 241,
      "ct": 242,
      "ous": 243,
      "Ġwhat": 244,
      "ight": 245,
      "Ġsh": 246,
      "ul": 247,
      "ET": 248,
      "Ġ'": 249,
      "ant": 250,
      "ES": 251,
      "Ġup": 252,
      "sel": 253,
      "qu": 254,
      "But": 255,
      "art": 256,
      "Ġgood": 257,
      "row": 258,
      "ine": 259,
      "ath": 260,
      "Ġlord": 261,
      "hich": 262,
      "nt": 263,
      "ust": 264,
      "'ll": 265,
      "one": 266,
      "Ġpr": 267,
      "Ġcom": 268,
      "Ġat": 269,
      "Ġman": 270,
      "What": 271,
      "ĠM": 272,
      "Ġwhe": 273,
      "ĠE": 274,
      "KING": 275,
      "Ġam": 276,
      "end": 277,
      "ic": 278,
      "Ġcon": 279,
      "ble": 280,
      "ry": 281,
      "ong": 282,
      "ie": 283,
      "ive": 284,
      "Ġbl": 285,
      "Ġfrom": 286,
      "ven": 287,
      "ĠG": 288,
      "For": 289,
      "Ġshe": 290,
      "em": 291,
      "Ġgo": 292,
      "are": 293,
      "Ġmore": 294,
      "IC": 295,
      "out": 296,
      "Ġthem": 297,
      "au": 298,
      "Ġwas": 299,
      "oth": 300,
      "other": 301,
      "He": 302,
      "Ġsir": 303,
      "ol": 304,
      "Ġnow": 305,
      "ĠL": 306,
      "Ġhat": 307,
      "ost": 308,
      "Ġif": 309,
      "LO": 310,
      "ind": 311,
      "Ġthere": 312,
      "Ġwould": 313,
      "Ġknow": 314,
      "Ġcan": 315,
      "ers": 316,
      "IUS": 317,
      "ep": 318,
      "self": 319,
      "ARD": 320,
      "ather": 321,
      "fe": 322,
      "ond": 323,
      "res": 324,
      "ate": 325,
      "Ġsay": 326,
      "Ġhere": 327,
      "Ġlove": 328,
      "Ġsw": 329,
      "Ġtheir": 330,
      "Ġbr": 331,
      "pp": 332,
      "Ġor": 333,
      "--": 334,
      "all": 335,
      "ĠS": 336,
      "Ġthan": 337,
      "Ġthen": 338,
      "Ġking": 339,
      "Ġus": 340,
      "ĠO": 341,
      "ĠB": 342,
      "Ġthey": 343,
      "Ġar": 344,
      "od": 345,
      "My": 346,
      "Ġlet": 347,
      "Ġun": 348,
      "ig": 349,
      "Ġwor": 350,
      "ure": 351,
      "ink": 352,
      "ĠH": 353,
      "ort": 354,
      "hy": 355,
      "ĠV": 356,
      "ame": 357,
      "fore": 358,
      "As": 359,
      "Ġmay": 360,
      "el": 361,
      "Ġqu": 362,
      "Ġcome": 363,
      "ook": 364,
      "Whe": 365,
      "ish": 366,
      "LI": 367,
      "Ġwell": 368,
      "KE": 369,
      "ves": 370,
      "Ġj": 371,
      "Ġone": 372,
      "Ġhath": 373,
      "irst": 374,
      "You": 375,
      "Ġmake": 376,
      "reat": 377,
      "ak": 378,
      "gain": 379,
      "Ġmust": 380,
      "ound": 381,
      "ng": 382,
      "Ġgra": 383,
      "Ġwere": 384,
      "Ġho": 385,
      "ci": 386,
      "Ġsee": 387,
      "Ġlike": 388,
      "ue": 389,
      "eak": 390,
      "TIO": 391,
      "Ġshould": 392,
      "ity": 393,
      "Ġpro": 394,
      "ĠP": 395,
      "Ġsa": 396,
      "Ġmad": 397,
      "um": 398,
      "Ġpl": 399,
      "Ġfather": 400,
      "RO": 401,
      "AU": 402,
      "Ġhad": 403,
      "Ġdid": 404,
      "pe": 405,
      "ime": 406,
      "Ġupon": 407,
      "ice": 408,
      "ON": 409,
      "Ġtoo": 410,
      "ence": 411,
      "ĠW": 412,
      "ward": 413,
      "ist": 414,
      "Ġdeath": 415,
      "own": 416,
      "man": 417,
      "ose": 418,
      "Ġen": 419,
      "un": 420,
      "IS": 421,
      "ful": 422,
      "nce": 423,
      "Ġr": 424,
      "Ġpo": 425,
      "Ġspeak": 426,
      "de": 427,
      "entle": 428,
      "io": 429,
      "Ġout": 430,
      "pt": 431,
      "Ġwhich": 432,
      "ICH": 433,
      "Ġfri": 434,
      "OL": 435,
      "DU": 436,
      "Ġagain": 437,
      "DUKE": 438,
      "Ġhow": 439,
      "EL": 440,
      "ick": 441,
      "ĠA": 442,
      "Ġtru": 443,
      "Ġheart": 444,
      "Ġyet": 445,
      "Ġhand": 446,
      "CA": 447,
      "Thou": 448,
      "very": 449,
      "ICHARD": 450,
      "ENTIO": 451,
      "With": 452,
      "ign": 453,
      "Ġsome": 454,
      "ance": 455,
      "Ġwho": 456,
      "Which": 457,
      "If": 458,
      "Ġwhen": 459,
      "ies": 460,
      "Ġmar": 461,
      "ire": 462,
      "Ġmine": 463,
      "Ġhon": 464,
      "har": 465,
      "orn": 466,
      "Ġoff": 467,
      "ince": 468,
      "INC": 469,
      "In": 470,
      "ack": 471,
      "ĠY": 472,
      "Ġson": 473,
      "Ġdis": 474,
      "Ġal": 475,
      "'t": 476,
      "We": 477,
      "uch": 478,
      "wn": 479,
      "Ġhea": 480,
      "First": 481,
      "oy": 482,
      "Ġtime": 483,
      "Ġhear": 484,
      "AB": 485,
      "ec": 486,
      "Ġsuch": 487,
      "ness": 488,
      "LA": 489,
      "Ġbrother": 490,
      "Of": 491,
      "Ġblood": 492,
      "ither": 493,
      "Ġab": 494,
      "UE": 495,
      "Why": 496,
      "Ġthese": 497,
      "No": 498,
      "Ġgive": 499,
      "Ġfo": 500,
      "Ġday": 501,
      "ĠII": 502,
      "Ġear": 503,
      "ĠRICHARD": 504,
      "TER": 505,
      "Ġro": 506,
      "ise": 507,
      "Ġex": 508,
      "Ġlife": 509,
      "This": 510,
      "eet": 511,
      "Ġtell": 512,
      "So": 513,
      "Ġlook": 514,
      "Ġthink": 515,
      "UCH": 516,
      "oul": 517,
      "Ġword": 518,
      "Ġey": 519,
      "Ġwhere": 520,
      "ag": 521,
      "age": 522,
      "een": 523,
      "ther": 524,
      "GLO": 525,
      "Ġtake": 526,
      "UCES": 527,
      "Ġfriend": 528,
      "GLOUCES": 529,
      "GLOUCESTER": 530,
      "ef": 531,
      "erv": 532,
      "ady": 533,
      "rown": 534,
      "Ġdes": 535,
      "ings": 536,
      "ave": 537,
      "not": 538,
      "Ġgentle": 539,
      "urse": 540,
      "How": 541,
      "RY": 542,
      "Ġri": 543,
      "ase": 544,
      "QUE": 545,
      "way": 546,
      "INCENTIO": 547,
      "QUEEN": 548,
      "Ġlea": 549,
      "tis": 550,
      "ĠOF": 551,
      "Ġart": 552,
      "Ġmost": 553,
      "Where": 554,
      "Ġhonour": 555,
      "LAN": 556,
      "Ġmuch": 557,
      "Ġsl": 558,
      "Ġwar": 559,
      "Ġfl": 560,
      "urn": 561,
      "Ġmade": 562,
      "ment": 563,
      "Now": 564,
      "Ġhast": 565,
      "Ġtw": 566,
      "Ġfear": 567,
      "ĠT": 568,
      "Ġbet": 569,
      "ENRY": 570,
      "aught": 571,
      "Is": 572,
      "LE": 573,
      "ber": 574,
      "ff": 575,
      "ĠGod": 576,
      "ough": 577,
      "ved": 578,
      "Ġbre": 579,
      "cc": 580,
      "ower": 581,
      "Ġnever": 582,
      "ĠVINCENTIO": 583,
      "Be": 584,
      "ap": 585,
      "igh": 586,
      "ĠK": 587,
      "Ġgreat": 588,
      "Ġfair": 589,
      "Who": 590,
      "ee": 591,
      "tle": 592,
      "Ġmen": 593,
      "orrow": 594,
      "Ġcou": 595,
      "Ġnew": 596,
      "ĠRome": 597,
      "aster": 598,
      "uke": 599,
      "iz": 600,
      "old": 601,
      "ORK": 602,
      "Ġpart": 603,
      "ation": 604,
      "INIUS": 605,
      "ss": 606,
      "ree": 607,
      "ide": 608,
      "Or": 609,
      "Ġcall": 610,
      "ple": 611,
      "Ġany": 612,
      "Ġheaven": 613,
      "Ġad": 614,
      "Ġcomm": 615,
      "It": 616,
      "Your": 617,
      "Ġstand": 618,
      "Ġcannot": 619,
      "Ġtrue": 620,
      "DW": 621,
      "Ġname": 622,
      "Ġbeen": 623,
      "ears": 624,
      "DWARD": 625,
      "Ġcl": 626,
      "Ġpre": 627,
      "Ġsweet": 628,
      ",--": 629,
      "Ġdoth": 630,
      "Ġpray": 631,
      "hing": 632,
      "PET": 633,
      "UM": 634,
      "Ġnoble": 635,
      "LUC": 636,
      "MEN": 637,
      "TH": 638,
      "Ġown": 639,
      "Ġple": 640,
      "ass": 641,
      "ĠD": 642,
      "ouse": 643,
      "Ġper": 644,
      "Ay": 645,
      "Come": 646,
      "ull": 647,
      "There": 648,
      "Ġwr": 649,
      "Ġdone": 650,
      "ife": 651,
      "aw": 652,
      "Ġtr": 653,
      "Ġway": 654,
      "Ġother": 655,
      "Ġhead": 656,
      "Ġmean": 657,
      "li": 658,
      "red": 659,
      "When": 660,
      "dward": 661,
      "Ġnor": 662,
      "EO": 663,
      "MEO": 664,
      "Ġsc": 665,
      "Ġsoul": 666,
      "Ġpres": 667,
      "ROMEO": 668,
      "ace": 669,
      "ving": 670,
      "Ġnight": 671,
      "Ġbear": 672,
      "ENIUS": 673,
      "aint": 674,
      "ĠCl": 675,
      "Ġworld": 676,
      "MENENIUS": 677,
      "ger": 678,
      "Ġbefore": 679,
      "ause": 680,
      "Ġboth": 681,
      "Ġqueen": 682,
      "per": 683,
      "Then": 684,
      "aughter": 685,
      "RUCH": 686,
      "ock": 687,
      "Ġchi": 688,
      "Here": 689,
      "PETRUCH": 690,
      "PETRUCHIO": 691,
      "OM": 692,
      "able": 693,
      "Ġvery": 694,
      "Ġdead": 695,
      "TES": 696,
      "By": 697,
      "Ġra": 698,
      "ite": 699,
      "Than": 700,
      "the": 701,
      "Ġke": 702,
      "ab": 703,
      "les": 704,
      "ĠF": 705,
      "Ġdown": 706,
      "to": 707,
      "Ġapp": 708,
      "Ġmyself": 709,
      "Ġcont": 710,
      "GR": 711,
      "HA": 712,
      "Ġwh": 713,
      "Ġrem": 714,
      "ĠLord": 715,
      "Ġarm": 716,
      "Ġthus": 717,
      "IOLAN": 718,
      "ilt": 719,
      "ORIOLAN": 720,
      "ORIOLANUS": 721,
      "CORIOLANUS": 722,
      "Sec": 723,
      "Ġleave": 724,
      "Second": 725,
      "Ġbeing": 726,
      "ction": 727,
      "ĠEdward": 728,
      "Nor": 729,
      "sw": 730,
      "Ġunt": 731,
      "ress": 732,
      "Ġgrace": 733,
      "less": 734,
      "Ġbeg": 735,
      "Ġeyes": 736,
      "BA": 737,
      "land": 738,
      "Ġmother": 739,
      "ran": 740,
      "Ġma": 741,
      "Ġold": 742,
      "Ġim": 743,
      "INA": 744,
      "ĠEDWARD": 745,
      "itiz": 746,
      "itizen": 747,
      "ps": 748,
      "Ġlong": 749,
      "Ġever": 750,
      "ĠMar": 751,
      "Ġlive": 752,
      "Ġchild": 753,
      "Let": 754,
      "me": 755,
      "Ġwife": 756,
      "She": 757,
      "Ġaway": 758,
      "Ġrep": 759,
      "ĠIII": 760,
      "Ġwom": 761,
      "Ġpoor": 762,
      "Ġfriends": 763,
      "come": 764,
      "for": 765,
      "wick": 766,
      "Ġaf": 767,
      "Ġmight": 768,
      "nder": 769,
      "Ġstay": 770,
      "eace": 771,
      "ks": 772,
      "oud": 773,
      "Ġdie": 774,
      "atch": 775,
      "led": 776,
      "ĠJ": 777,
      "Ġru": 778,
      "arwick": 779,
      "Ġcomes": 780,
      "Ġcons": 781,
      "Ġcrown": 782,
      "ows": 783,
      "Ġmany": 784,
      "Ġpe": 785,
      "Tis": 786,
      "hall": 787,
      "ison": 788,
      "Ġle": 789,
      "ĠYORK": 790,
      "lo": 791,
      "uck": 792,
      "iss": 793,
      "Ġhouse": 794,
      "Ġhar": 795,
      "Ġthought": 796,
      "Ġrest": 797,
      "ISAB": 798,
      "ELLA": 799,
      "ISABELLA": 800,
      "ian": 801,
      "erc": 802,
      "Ġcour": 803,
      "RAN": 804,
      "Ġent": 805,
      "Ġlie": 806,
      "che": 807,
      "Ġset": 808,
      "JU": 809,
      "well": 810,
      "ors": 811,
      "atter": 812,
      "LIET": 813,
      "ONTES": 814,
      "ĠWarwick": 815,
      "LEONTES": 816,
      "JULIET": 817,
      "Nay": 818,
      "int": 819,
      "ittle": 820,
      "Ġdaughter": 821,
      "Ġgone": 822,
      "Ġbetter": 823,
      "MI": 824,
      "rant": 825,
      "ought": 826,
      "Ġprince": 827,
      "DY": 828,
      "His": 829,
      "Ġtong": 830,
      "Ġwit": 831,
      "Ġnothing": 832,
      "CE": 833,
      "VOL": 834,
      "ENCE": 835,
      "LADY": 836,
      "BR": 837,
      "TA": 838,
      "cl": 839,
      "ied": 840,
      "Ġkeep": 841,
      "Go": 842,
      "Well": 843,
      "ces": 844,
      "ious": 845,
      "os": 846,
      "Ġsle": 847,
      "Ġres": 848,
      "hard": 849,
      "Ġnews": 850,
      "SIC": 851,
      "ft": 852,
      "ier": 853,
      "Ġtri": 854,
      "Ġmo": 855,
      "ret": 856,
      "ont": 857,
      "Ġthose": 858,
      "Ġgri": 859,
      "ool": 860,
      "une": 861,
      "SICINIUS": 862,
      "Not": 863,
      "Ġlittle": 864,
      "Ġlords": 865,
      "Ġagainst": 866,
      "ford": 867,
      "Ġbest": 868,
      "Ġhour": 869,
      "Ġhence": 870,
      "ardon": 871,
      "akes": 872,
      "lse": 873,
      "Ġacc": 874,
      "sed": 875,
      "Ġface": 876,
      "ult": 877,
      "Ġfoll": 878,
      "On": 879,
      "ew": 880,
      "ud": 881,
      "ark": 882,
      "Ġyoung": 883,
      "Ġend": 884,
      "ork": 885,
      "Ġthing": 886,
      "Ġstill": 887,
      "Ġkind": 888,
      "ield": 889,
      "ST": 890,
      "Ġpri": 891,
      "Ġpur": 892,
      "alk": 893,
      "Thy": 894,
      "Ġcomp": 895,
      "LUCIO": 896,
      "ale": 897,
      "ins": 898,
      "ert": 899,
      "Ġput": 900,
      "Ġpower": 901,
      "ĠIV": 902,
      "ichard": 903,
      "Ġtwo": 904,
      "Ġcha": 905,
      "Ġhimself": 906,
      "Pro": 907,
      "iness": 908,
      "Ġfirst": 909,
      "Ġpeace": 910,
      "Ġgu": 911,
      "Ġelse": 912,
      "ried": 913,
      "Ġdear": 914,
      "cious": 915,
      "Sir": 916,
      "ail": 917,
      "ty": 918,
      "ason": 919,
      "hile": 920,
      "Ġsub": 921,
      "Ġunto": 922,
      "ile": 923,
      "ray": 924,
      "Ġtill": 925,
      "Ġsm": 926,
      "uty": 927,
      "RI": 928,
      "ZAB": 929,
      "ect": 930,
      "Ġtra": 931,
      "Ġbid": 932,
      "Ġback": 933,
      "Ġdre": 934,
      "Ġhus": 935,
      "ETH": 936,
      "ĠELI": 937,
      "Ġtherefore": 938,
      "Ġearth": 939,
      "Ġwords": 940,
      "Ġcount": 941,
      "ZABETH": 942,
      "ĠELIZABETH": 943,
      "Have": 944,
      "band": 945,
      "ius": 946,
      "men": 947,
      "ople": 948,
      "yal": 949,
      "Ġfind": 950,
      "Ġcould": 951,
      "Ġtongue": 952,
      "orse": 953,
      "Ġlady": 954,
      "Ġthine": 955,
      "Ġneed": 956,
      "ĠYork": 957,
      "HENRY": 958,
      "get": 959,
      "tw": 960,
      "Ġtre": 961,
      "Ġfell": 962,
      "enry": 963,
      "Ġhigh": 964,
      "Ġforth": 965,
      "Ġhope": 966,
      "MER": 967,
      "St": 968,
      "lp": 969,
      "Ġhome": 970,
      "vere": 971,
      "eth": 972,
      "Ġseem": 973,
      "eech": 974,
      "ĠRomeo": 975,
      "Ġhusband": 976,
      "CL": 977,
      "Ġduke": 978,
      "Ġright": 979,
      "GE": 980,
      "WAR": 981,
      "WIC": 982,
      "fort": 983,
      "ĠWhat": 984,
      "rer": 985,
      "Ġban": 986,
      "uth": 987,
      "Ġthough": 988,
      "ĠVI": 989,
      "WARWIC": 990,
      "WARWICK": 991,
      "UT": 992,
      "ach": 993,
      "ix": 994,
      "Ġmind": 995,
      "Ġbra": 996,
      "ister": 997,
      "Ġche": 998,
      "Ġchar": 999,
      "hip": 1000,
      "ĠHENRY": 1001,
      "Ġpeople": 1002,
      "Nurse": 1003,
      "ds": 1004,
      "ged": 1005,
      "ĠCitizen": 1006,
      "ren": 1007,
      "They": 1008,
      "ĠHenry": 1009,
      "HAM": 1010,
      "IAN": 1011,
      "LET": 1012,
      "PU": 1013,
      "eed": 1014,
      "Ġbri": 1015,
      "Ġchan": 1016,
      "Ġlaw": 1017,
      "ĠRichard": 1018,
      "Ġshow": 1019,
      "Ġconf": 1020,
      "Ġhands": 1021,
      "PULET": 1022,
      "EY": 1023,
      "be": 1024,
      "Ġmaster": 1025,
      "Ġwhy": 1026,
      "Ġco": 1027,
      "Ġcause": 1028,
      "Ġgl": 1029,
      "Ġonce": 1030,
      "Ġsaid": 1031,
      "Ġimp": 1032,
      "Good": 1033,
      "MIO": 1034,
      "Shall": 1035,
      "Ġbod": 1036,
      "Ġnone": 1037,
      "ousin": 1038,
      "Ġjoy": 1039,
      "ervant": 1040,
      "All": 1041,
      "bt": 1042,
      "Ġfort": 1043,
      "Ġbring": 1044,
      "Yet": 1045,
      "Ġdou": 1046,
      "ates": 1047,
      "Ġevery": 1048,
      "UCKING": 1049,
      "BRUT": 1050,
      "UCKINGHAM": 1051,
      "BRUTUS": 1052,
      "BRO": 1053,
      "BUCKINGHAM": 1054,
      "From": 1055,
      "TRAN": 1056,
      "iet": 1057,
      "Ġmist": 1058,
      "Ġpass": 1059,
      "ird": 1060,
      "Ġlight": 1061,
      "INGBRO": 1062,
      "ESS": 1063,
      "ĠBOL": 1064,
      "TRANIO": 1065,
      "INGBROKE": 1066,
      "ĠBOLINGBROKE": 1067,
      "Do": 1068,
      "Will": 1069,
      "lt": 1070,
      "vost": 1071,
      "Ġwo": 1072,
      "Ġnat": 1073,
      "Ġthr": 1074,
      "Ġroyal": 1075,
      "swer": 1076,
      "PER": 1077,
      "TIS": 1078,
      "cle": 1079,
      "Ġtears": 1080,
      "its": 1081,
      "Ġcame": 1082,
      "ary": 1083,
      "ĠMAR": 1084,
      "Ġwhose": 1085,
      "Ġplease": 1086,
      "lf": 1087,
      "vy": 1088,
      "ory": 1089,
      "Ġpardon": 1090,
      "roke": 1091,
      "ĠAn": 1092,
      "Cl": 1093,
      "GAR": 1094,
      "NE": 1095,
      "pose": 1096,
      "Ġbes": 1097,
      "Ġboy": 1098,
      "Ġfull": 1099,
      "arry": 1100,
      "Ġheard": 1101,
      "Ġhapp": 1102,
      "Ġdev": 1103,
      "Ġjust": 1104,
      "Ġwrong": 1105,
      "Ġpresent": 1106,
      "ĠMARGAR": 1107,
      "ĠMARGARET": 1108,
      "ATH": 1109,
      "eel": 1110,
      "Ġsince": 1111,
      "Ġmis": 1112,
      "ens": 1113,
      "Ġland": 1114,
      "Ġlast": 1115,
      "Ġere": 1116,
      "Ġstate": 1117,
      "Ġplace": 1118,
      "MIL": 1119,
      "bl": 1120,
      "sand": 1121,
      "Ġmeet": 1122,
      "Ġunder": 1123,
      "Ġkill": 1124,
      "Ġafter": 1125,
      "HOR": 1126,
      "cent": 1127,
      "Ġsorrow": 1128,
      "ition": 1129,
      "Ġcare": 1130,
      "Ġthousand": 1131,
      "esty": 1132,
      "ANGE": 1133,
      "ORD": 1134,
      "Ġhold": 1135,
      "GRE": 1136,
      "ANGELO": 1137,
      "CU": 1138,
      "Our": 1139,
      "Ġhelp": 1140,
      "ARINA": 1141,
      "arence": 1142,
      "Ġwhom": 1143,
      "Ġfollow": 1144,
      "KATH": 1145,
      "day": 1146,
      "Ġfar": 1147,
      "Ġless": 1148,
      "Ġhither": 1149,
      "ceive": 1150,
      "irt": 1151,
      "Ġweep": 1152,
      "Ġshame": 1153,
      "selves": 1154,
      "cius": 1155,
      "Ġenem": 1156,
      "Ġabout": 1157,
      "Ġeye": 1158,
      "KATHARINA": 1159,
      "iol": 1160,
      "Ġfal": 1161,
      "Ġfool": 1162,
      "ons": 1163,
      "Ġpat": 1164,
      "urde": 1165,
      "Ġsun": 1166,
      "Ġanswer": 1167,
      "air": 1168,
      "Ġch": 1169,
      "asure": 1170,
      "Ġfall": 1171,
      "Ġmaid": 1172,
      "LUS": 1173,
      "Un": 1174,
      "Up": 1175,
      "ount": 1176,
      "Ġbus": 1177,
      "Ġcousin": 1178,
      "thy": 1179,
      "ESCA": 1180,
      "Ġhate": 1181,
      "Ġgracious": 1182,
      "Ġgentleman": 1183,
      "ĠKing": 1184,
      "Ġgrief": 1185,
      "ESCALUS": 1186,
      "An": 1187,
      "ject": 1188,
      "ove": 1189,
      "Ġmakes": 1190,
      "Ġinto": 1191,
      "imes": 1192,
      "Ġstri": 1193,
      "Hath": 1194,
      "iv": 1195,
      "ild": 1196,
      "Ġstre": 1197,
      "ĠEng": 1198,
      "Ġwoman": 1199,
      "DUCH": 1200,
      "Ġturn": 1201,
      "Ġhum": 1202,
      "Ġbel": 1203,
      "alt": 1204,
      "Ġdost": 1205,
      "Ġcomfort": 1206,
      "ices": 1207,
      "Ġcoun": 1208,
      "ĠDuke": 1209,
      "Ġcourt": 1210,
      "Ġsleep": 1211,
      "urderer": 1212,
      "DUCHESS": 1213,
      "Lord": 1214,
      "pher": 1215,
      "Ġtalk": 1216,
      "itor": 1217,
      "Ġover": 1218,
      "Ġbody": 1219,
      "morrow": 1220,
      "Ġwilt": 1221,
      "Ġbu": 1222,
      "Ġgr": 1223,
      "ute": 1224,
      "gelo": 1225,
      "deed": 1226,
      "ĠMarcius": 1227,
      "IA": 1228,
      "ience": 1229,
      "Ġi": 1230,
      "ised": 1231,
      "Ġbed": 1232,
      "Ġfault": 1233,
      "Ġatt": 1234,
      "ieve": 1235,
      "Ġprove": 1236,
      "Ġplay": 1237,
      "CAMIL": 1238,
      "ĠClarence": 1239,
      "CAMILLO": 1240,
      "God": 1241,
      "ere": 1242,
      "ily": 1243,
      "Ġsound": 1244,
      "Ġdra": 1245,
      "ans": 1246,
      "omet": 1247,
      "Ġinst": 1248,
      "Ġwel": 1249,
      "ade": 1250,
      "Ġret": 1251,
      "Ġdeed": 1252,
      "Ġthank": 1253,
      "TEN": 1254,
      "Ġser": 1255,
      "Ġbo": 1256,
      "Ġfight": 1257,
      "Ġindeed": 1258,
      "illain": 1259,
      "hold": 1260,
      "Ġvo": 1261,
      "Ġsword": 1262,
      "ĠAngelo": 1263,
      "HORTEN": 1264,
      "Ġfalse": 1265,
      "HORTENS": 1266,
      "FRI": 1267,
      "Sh": 1268,
      "Ġuse": 1269,
      "Ġeven": 1270,
      "Ġsovere": 1271,
      "Ġanother": 1272,
      "Ġgrave": 1273,
      "Ġadv": 1274,
      "Provost": 1275,
      "Ġfellow": 1276,
      "Upon": 1277,
      "HORTENSIO": 1278,
      "FRIAR": 1279,
      ",'": 1280,
      "PTIS": 1281,
      "eal": 1282,
      "Ġcur": 1283,
      "Ġhas": 1284,
      "Ġem": 1285,
      "ury": 1286,
      "pect": 1287,
      "BAPTIS": 1288,
      "Ġbanish": 1289,
      "Ġfortune": 1290,
      "BAPTISTA": 1291,
      "CUS": 1292,
      "COM": 1293,
      "TOL": 1294,
      "YCUS": 1295,
      "pl": 1296,
      "pen": 1297,
      "ouch": 1298,
      "Ġmerc": 1299,
      "Ġmatter": 1300,
      "Ġwant": 1301,
      "Ġreven": 1302,
      "Ġass": 1303,
      "Ġsend": 1304,
      "Ġprison": 1305,
      "fect": 1306,
      "AUTOL": 1307,
      "Ġrather": 1308,
      "Ġcountry": 1309,
      "Ġdoubt": 1310,
      "COMINIUS": 1311,
      "AUTOLYCUS": 1312,
      ".'": 1313,
      "Are": 1314,
      "Even": 1315,
      "More": 1316,
      "Ġwish": 1317,
      "Ġyears": 1318,
      "Ġreason": 1319,
      "Ġlies": 1320,
      "Ġonly": 1321,
      "ARENCE": 1322,
      "Third": 1323,
      "Ġvirt": 1324,
      "Ġtruth": 1325,
      "Would": 1326,
      "ior": 1327,
      "ms": 1328,
      "of": 1329,
      "rance": 1330,
      "ĠBut": 1331,
      "Ġdan": 1332,
      "Ġpers": 1333,
      "any": 1334,
      "Ġbreath": 1335,
      "Ġarms": 1336,
      "Ġdream": 1337,
      "CLARENCE": 1338,
      "pherd": 1339,
      "BEN": 1340,
      "MAR": 1341,
      "NOR": 1342,
      "dd": 1343,
      "der": 1344,
      "Ġsent": 1345,
      "ener": 1346,
      "Ġgi": 1347,
      "Ġstra": 1348,
      "Ġshalt": 1349,
      "Ġdisc": 1350,
      "VOLIO": 1351,
      "Clown": 1352,
      "Ġbusiness": 1353,
      "BENVOLIO": 1354,
      "Al": 1355,
      "At": 1356,
      "PRO": 1357,
      "SPER": 1358,
      "by": 1359,
      "hed": 1360,
      "Ġsen": 1361,
      "Ġprom": 1362,
      "Ġholy": 1363,
      "Ġenough": 1364,
      "erving": 1365,
      "Ġcommand": 1366,
      "UMIO": 1367,
      "GRUMIO": 1368,
      "PROSPER": 1369,
      "PROSPERO": 1370,
      "ia": 1371,
      "ken": 1372,
      "Ġsea": 1373,
      "Ġwind": 1374,
      "itt": 1375,
      "Ġcra": 1376,
      "Ġlay": 1377,
      "ars": 1378,
      "Ġpity": 1379,
      "ator": 1380,
      "Ġbea": 1381,
      "Ġhang": 1382,
      "Ġstran": 1383,
      "Ġsold": 1384,
      "Ġspir": 1385,
      "Ġfare": 1386,
      "Ġproud": 1387,
      "ĠMurderer": 1388,
      "Ġswear": 1389,
      "Ġcontent": 1390,
      "MERCU": 1391,
      "MERCUTIO": 1392,
      "ike": 1393,
      "Ġdare": 1394,
      "eter": 1395,
      "Ġlives": 1396,
      "Ġdep": 1397,
      "Ġsec": 1398,
      "Ġvillain": 1399,
      "gainst": 1400,
      "ĠKate": 1401,
      "LUCENTIO": 1402,
      "Ġremem": 1403,
      "Ġnature": 1404,
      "Ġwelcome": 1405,
      "POM": 1406,
      "Tw": 1407,
      "com": 1408,
      "unt": 1409,
      "Ġtend": 1410,
      "ham": 1411,
      "Ġfree": 1412,
      "Ġgre": 1413,
      "Ġget": 1414,
      "Ġint": 1415,
      "Ġwithin": 1416,
      "Ġkiss": 1417,
      "ester": 1418,
      "ĠCome": 1419,
      "Ġgods": 1420,
      "Ġsaw": 1421,
      "Ġmadam": 1422,
      "LAND": 1423,
      "Ġhappy": 1424,
      "Ġsovereign": 1425,
      "POMP": 1426,
      "LINA": 1427,
      "PAU": 1428,
      "apt": 1429,
      "Ġserv": 1430,
      "Ġsister": 1431,
      "Ġsomet": 1432,
      "hal": 1433,
      "Ġfoul": 1434,
      "Ġcity": 1435,
      "vers": 1436,
      "Were": 1437,
      "Ġbeseech": 1438,
      "PAULINA": 1439,
      "YORK": 1440,
      "ient": 1441,
      "use": 1442,
      "ery": 1443,
      "Ġden": 1444,
      "Ġyield": 1445,
      "Ġthree": 1446,
      "Ġoath": 1447,
      "Ġyours": 1448,
      "onder": 1449,
      "ague": 1450,
      "Ġbreak": 1451,
      "Ġmeans": 1452,
      "Ġsubject": 1453,
      "gether": 1454,
      "GREMIO": 1455,
      "POMPEY": 1456,
      "NIA": 1457,
      "OLI": 1458,
      "POLI": 1459,
      "XEN": 1460,
      "balt": 1461,
      "ybalt": 1462,
      "ĠNor": 1463,
      "Ġaw": 1464,
      "Ġmer": 1465,
      "Ġwhile": 1466,
      "Ġborn": 1467,
      "Ġthings": 1468,
      "Ġhorse": 1469,
      "anc": 1470,
      "usic": 1471,
      "ANT": 1472,
      "Ġbloody": 1473,
      "Ġlooks": 1474,
      "eft": 1475,
      "UMNIA": 1476,
      "like": 1477,
      "ches": 1478,
      "VOLUMNIA": 1479,
      "POLIXEN": 1480,
      "POLIXENES": 1481,
      "GON": 1482,
      "Her": 1483,
      "rong": 1484,
      "up": 1485,
      "ues": 1486,
      "Ġtem": 1487,
      "Ġwin": 1488,
      "Ġwound": 1489,
      "Ġfire": 1490,
      "enger": 1491,
      "Ġyourself": 1492,
      "Ġsupp": 1493,
      "Ġspo": 1494,
      "Ġfaith": 1495,
      "INGS": 1496,
      "ĠServing": 1497,
      "Ġmaj": 1498,
      "STINGS": 1499,
      "Ġtraitor": 1500,
      "centio": 1501,
      "ĠServingman": 1502,
      "RENCE": 1503,
      "Say": 1504,
      "bs": 1505,
      "broke": 1506,
      "rem": 1507,
      "Ġdru": 1508,
      "Ġlam": 1509,
      "essenger": 1510,
      "ĠLAU": 1511,
      "Ġmark": 1512,
      "Ġcommon": 1513,
      "HASTINGS": 1514,
      "Ġchildren": 1515,
      "ertain": 1516,
      "Ġmistress": 1517,
      "ĠLAURENCE": 1518,
      "BY": 1519,
      "BER": 1520,
      "Ġcond": 1521,
      "Ġbeat": 1522,
      "Ġrequ": 1523,
      "Ġdef": 1524,
      "Ġval": 1525,
      "Ġuncle": 1526,
      "Therefore": 1527,
      "form": 1528,
      "Ġmajesty": 1529,
      "CLI": 1530,
      "FF": 1531,
      "Look": 1532,
      "Was": 1533,
      "Ġaff": 1534,
      "Ġsin": 1535,
      "Ġmet": 1536,
      "Ġlate": 1537,
      "Ġleft": 1538,
      "Ġtold": 1539,
      "Ġsoon": 1540,
      "Ġseen": 1541,
      "Ġsave": 1542,
      "Ġdays": 1543,
      "UMBER": 1544,
      "THUMBER": 1545,
      "Ġwoe": 1546,
      "ĠEngland": 1547,
      "NORTHUMBER": 1548,
      "Ġtender": 1549,
      "CLIFF": 1550,
      "NORTHUMBERLAND": 1551,
      "ID": 1552,
      "Take": 1553,
      "bed": 1554,
      "ever": 1555,
      "ring": 1556,
      "ten": 1557,
      "Ġsight": 1558,
      "Ġmon": 1559,
      "Ġgener": 1560,
      "ides": 1561,
      "idow": 1562,
      "Ġdoes": 1563,
      "Though": 1564,
      "Ġreturn": 1565,
      "Ġmercy": 1566,
      "Ġfarewell": 1567,
      "ac": 1568,
      "dom": 1569,
      "mp": 1570,
      "ĠAN": 1571,
      "hes": 1572,
      "Ġsit": 1573,
      "Ġsad": 1574,
      "rel": 1575,
      "Ġdeep": 1576,
      "ters": 1577,
      "Ġgold": 1578,
      "unes": 1579,
      "Ġmarry": 1580,
      "Ġheavy": 1581,
      "Ġfoot": 1582,
      "Ġwarrant": 1583,
      "ĠJul": 1584,
      "Ġpurpose": 1585,
      "Ġthrough": 1586,
      "Ġdanger": 1587,
      "ĠANNE": 1588,
      "Ah": 1589,
      "Did": 1590,
      "Give": 1591,
      "PR": 1592,
      "aim": 1593,
      "ict": 1594,
      "mer": 1595,
      "so": 1596,
      "und": 1597,
      "vent": 1598,
      "Ġill": 1599,
      "Ġcho": 1600,
      "Ġcold": 1601,
      "Ġnurse": 1602,
      "Ġtogether": 1603,
      "Ġgrow": 1604,
      "ours": 1605,
      "ifford": 1606,
      "Ġsure": 1607,
      "earn": 1608,
      "CAPULET": 1609,
      "ignior": 1610,
      "INCE": 1611,
      "Ġdeser": 1612,
      "ments": 1613,
      "PRINCE": 1614,
      "az": 1615,
      "aid": 1616,
      "ca": 1617,
      "oint": 1618,
      "Ġtimes": 1619,
      "oriol": 1620,
      "ingbroke": 1621,
      "ceed": 1622,
      "Ġwithout": 1623,
      "enty": 1624,
      "Ġask": 1625,
      "ross": 1626,
      "ush": 1627,
      "Ġlost": 1628,
      "arewell": 1629,
      "olingbroke": 1630,
      "Ġpluck": 1631,
      "Ġreport": 1632,
      "Ġliege": 1633,
      "Ġbelieve": 1634,
      "Ġspirit": 1635,
      "ling": 1636,
      "sh": 1637,
      "xt": 1638,
      "Ġair": 1639,
      "Ġage": 1640,
      "outh": 1641,
      "Ġwat": 1642,
      "Ġheir": 1643,
      "ets": 1644,
      "ains": 1645,
      "Ġthyself": 1646,
      "ift": 1647,
      "Ġloss": 1648,
      "ĠMont": 1649,
      "Ġsays": 1650,
      "ĠBolingbroke": 1651,
      "Whose": 1652,
      "One": 1653,
      "Ġstrange": 1654,
      "ALO": 1655,
      "Had": 1656,
      "ial": 1657,
      "no": 1658,
      "ner": 1659,
      "Ġbat": 1660,
      "Ġcry": 1661,
      "Ġlearn": 1662,
      "ced": 1663,
      "Ġsuff": 1664,
      "aking": 1665,
      "Ġears": 1666,
      "Ġhaste": 1667,
      "ĠClifford": 1668,
      "Ġentreat": 1669,
      "Ġdevil": 1670,
      "Ġground": 1671,
      "Should": 1672,
      "Ġperson": 1673,
      "ĠJuliet": 1674,
      "Like": 1675,
      "Wh": 1676,
      "ges": 1677,
      "night": 1678,
      "Ġmur": 1679,
      "ined": 1680,
      "Ġfly": 1681,
      "Ġtoward": 1682,
      "Ġpast": 1683,
      "oman": 1684,
      "let": 1685,
      "Ġfast": 1686,
      "Ġvis": 1687,
      "aud": 1688,
      "ĠLu": 1689,
      "Ġpoint": 1690,
      "Ġfriar": 1691,
      "Ġdisp": 1692,
      "Ġslain": 1693,
      "Ġbetw": 1694,
      "ĠFrance": 1695,
      "ixt": 1696,
      "Ġjustice": 1697,
      "Ġstraight": 1698,
      "Ġremember": 1699,
      "APULET": 1700,
      "FL": 1701,
      "FID": 1702,
      "IZ": 1703,
      "May": 1704,
      "Some": 1705,
      "Ġord": 1706,
      "Ġsil": 1707,
      "ina": 1708,
      "Ġbold": 1709,
      "Ġcurse": 1710,
      "Ġnear": 1711,
      "ution": 1712,
      "Ġstrong": 1713,
      "These": 1714,
      "ĠCAPULET": 1715,
      "ORIZ": 1716,
      "Ġworthy": 1717,
      "Ġquick": 1718,
      "AUFID": 1719,
      "entleman": 1720,
      "Ġtrust": 1721,
      "Ġalone": 1722,
      "Ġdesire": 1723,
      "Ġinstru": 1724,
      "Ġbeauty": 1725,
      "Ġservice": 1726,
      "FLORIZ": 1727,
      "AUFIDIUS": 1728,
      "FLORIZEL": 1729,
      "Can": 1730,
      "SE": 1731,
      "Tell": 1732,
      "VER": 1733,
      "gs": 1734,
      "ning": 1735,
      "ship": 1736,
      "with": 1737,
      "Ġtouch": 1738,
      "Ġfound": 1739,
      "ithe": 1740,
      "ĠIs": 1741,
      "adam": 1742,
      "Ġready": 1743,
      "ION": 1744,
      "Ġbrought": 1745,
      "ured": 1746,
      "Ġposs": 1747,
      "ĠTybalt": 1748,
      "Ġrun": 1749,
      "Ġhard": 1750,
      "Ġenemy": 1751,
      "Ġrevenge": 1752,
      "Ġgeneral": 1753,
      "audio": 1754,
      "!'": 1755,
      "Ha": 1756,
      "ible": 1757,
      "vo": 1758,
      "ĠHere": 1759,
      "Ġwoo": 1760,
      "Ġduty": 1761,
      "enator": 1762,
      "Ġgrant": 1763,
      "Ġinf": 1764,
      "cept": 1765,
      "Ġitself": 1766,
      "amill": 1767,
      "Ġlose": 1768,
      "aunt": 1769,
      "Ġknows": 1770,
      "Ġcanst": 1771,
      "ĠSenator": 1772,
      "inks": 1773,
      "umber": 1774,
      "Ġmarried": 1775,
      "Ġthoughts": 1776,
      "Ġcharge": 1777,
      "Against": 1778,
      "Bec": 1779,
      "CIUS": 1780,
      "RICHARD": 1781,
      "Sp": 1782,
      "cester": 1783,
      "eep": 1784,
      "gu": 1785,
      "lou": 1786,
      "sue": 1787,
      "ua": 1788,
      "ĠYou": 1789,
      "Ġmorn": 1790,
      "Ġwear": 1791,
      "riage": 1792,
      "Ġread": 1793,
      "Ġdeli": 1794,
      "Ġspeed": 1795,
      "Ġquar": 1796,
      "Ġprof": 1797,
      "Ġtwenty": 1798,
      "Ġstands": 1799,
      "BAST": 1800,
      "Shepherd": 1801,
      "ched": 1802,
      "Ġhours": 1803,
      "Ġconfess": 1804,
      "Ġstreng": 1805,
      "SEBAST": 1806,
      "ithee": 1807,
      "SEBASTIAN": 1808,
      "OW": 1809,
      "cess": 1810,
      "ĠN": 1811,
      "Ġmock": 1812,
      "Ġfur": 1813,
      "Ġfore": 1814,
      "Ġfield": 1815,
      "ones": 1816,
      "Ġdiv": 1817,
      "Ġcar": 1818,
      "Ġyouth": 1819,
      "Ġpost": 1820,
      "Ġhell": 1821,
      "ingham": 1822,
      "Ġhalf": 1823,
      "oop": 1824,
      "Thus": 1825,
      "ĠRi": 1826,
      "olk": 1827,
      "fection": 1828,
      "ĠHast": 1829,
      "Ġjud": 1830,
      "ump": 1831,
      "Ġexec": 1832,
      "Ġfearful": 1833,
      "Ġcounsel": 1834,
      "amillo": 1835,
      "BION": 1836,
      "Com": 1837,
      "DEL": 1838,
      "Till": 1839,
      "most": 1840,
      "pare": 1841,
      "Ġter": 1842,
      "Ġmin": 1843,
      "Ġwret": 1844,
      "Ġbos": 1845,
      "Ġpar": 1846,
      "Ġbehold": 1847,
      "Ġinc": 1848,
      "Ġeach": 1849,
      "ads": 1850,
      "Ġrec": 1851,
      "Ġdel": 1852,
      "ĠCoriol": 1853,
      "ols": 1854,
      "Ġwork": 1855,
      "ortal": 1856,
      "Ġhearts": 1857,
      "Ġmarriage": 1858,
      "Ġdesp": 1859,
      "ĠClaudio": 1860,
      "itizens": 1861,
      "uckingham": 1862,
      "Ġresol": 1863,
      "MARCIUS": 1864,
      "ĠMontague": 1865,
      "loucester": 1866,
      "BIONDEL": 1867,
      "Ġbosom": 1868,
      "BIONDELLO": 1869,
      "Away": 1870,
      "MON": 1871,
      "Madam": 1872,
      "bly": 1873,
      "folk": 1874,
      "iers": 1875,
      "now": 1876,
      "ĠThe": 1877,
      "Ġtit": 1878,
      "Ġten": 1879,
      "Ġtale": 1880,
      "Ġbound": 1881,
      "Ġdam": 1882,
      "Ġcut": 1883,
      "ench": 1884,
      "Ġye": 1885,
      "Ġopen": 1886,
      "rah": 1887,
      "alm": 1888,
      "ĠCap": 1889,
      "Ġshort": 1890,
      "Ġknown": 1891,
      "ĠBuckingham": 1892,
      "Ġseek": 1893,
      "Ġharm": 1894,
      "Ġcompany": 1895,
      "Ġguilt": 1896,
      "Ġhighness": 1897,
      "Ġstrike": 1898,
      "Ġattend": 1899,
      "Ġserve": 1900,
      "Ġmurder": 1901,
      "ĠHastings": 1902,
      "Farewell": 1903,
      "HER": 1904,
      "OP": 1905,
      "chan": 1906,
      "hood": 1907,
      "Ġve": 1908,
      "ĠHe": 1909,
      "ĠAU": 1910,
      "Ġag": 1911,
      "Ġsat": 1912,
      "Ġside": 1913,
      "Ġwhi": 1914,
      "Ġwatch": 1915,
      "rest": 1916,
      "ished": 1917,
      "Ġfeel": 1918,
      "Ġdish": 1919,
      "Ġdist": 1920,
      "ents": 1921,
      "ander": 1922,
      "Ġsuit": 1923,
      "Ġloving": 1924,
      "ONIO": 1925,
      "Ġhonest": 1926,
      "Ġheavens": 1927,
      "Ġtrib": 1928,
      "MERLE": 1929,
      "Ġdraw": 1930,
      "Ġvoices": 1931,
      "Ġsomething": 1932,
      "ANTONIO": 1933,
      "Ġstrength": 1934,
      "ĠAUMERLE": 1935,
      "Marry": 1936,
      "Pray": 1937,
      "See": 1938,
      "ZALO": 1939,
      "fid": 1940,
      "ging": 1941,
      "Ġact": 1942,
      "Ġsake": 1943,
      "Ġwast": 1944,
      "Ġwonder": 1945,
      "Ġwidow": 1946,
      "Ġbit": 1947,
      "Ġcor": 1948,
      "Ġsto": 1949,
      "Ġstir": 1950,
      "ĠGentleman": 1951,
      "ĠGloucester": 1952,
      "ĠLanc": 1953,
      "Ġdidst": 1954,
      "Ġgentlemen": 1955,
      "Ġcloud": 1956,
      "Ġwomen": 1957,
      "ethinks": 1958,
      "Ġenemies": 1959,
      "GONZALO": 1960,
      "ĠLancaster": 1961,
      "Unt": 1962,
      "ives": 1963,
      "su": 1964,
      "Ġsing": 1965,
      "Ġmusic": 1966,
      "rew": 1967,
      "Ġbreat": 1968,
      "Ġdr": 1969,
      "Ġpra": 1970,
      "Ġpie": 1971,
      "Ġpale": 1972,
      "Ġgates": 1973,
      "oose": 1974,
      "race": 1975,
      "ils": 1976,
      "ĠCamillo": 1977,
      "Ġnext": 1978,
      "Ġknew": 1979,
      "Ġcoming": 1980,
      "Ġthanks": 1981,
      "Ġclose": 1982,
      "Ġpleasure": 1983,
      "Ġsouls": 1984,
      "ianca": 1985,
      "Ġcourse": 1986,
      "Ġenter": 1987,
      "Ġwithal": 1988,
      "Ġbrave": 1989,
      "Ġchee": 1990,
      "ceived": 1991,
      "Ġtitle": 1992,
      "DIO": 1993,
      "fter": 1994,
      "ne": 1995,
      "vour": 1996,
      "you": 1997,
      "Ġty": 1998,
      "Ġwa": 1999
    },
    "merges": [
      [
        "Ġ",
        "t"
      ],
      [
        "h",
        "e"
      ],
      [
        "Ġ",
        "a"
      ],
      [
        "o",
        "u"
      ],
      [
        "Ġ",
        "s"
      ],
      [
        "Ġ",
        "m"
      ],
      [
        "i",
        "n"
      ],
      [
        "Ġ",
        "w"
      ],
      [
        "r",
        "e"
      ],
      [
        "h",
        "a"
      ],
      [
        "n",
        "d"
      ],
      [
        "Ġt",
        "he"
      ],
      [
        "Ġ",
        "b"
      ],
      [
        "i",
        "s"
      ],
      [
        "o",
        "r"
      ],
      [
        "Ġ",
        "f"
      ],
      [
        "e",
        "r"
      ],
      [
        "l",
        "l"
      ],
      [
        "i",
        "t"
      ],
      [
        "o",
        "n"
      ],
      [
        "Ġ",
        "d"
      ],
      [
        "Ġ",
        "c"
      ],
      [
        "e",
        "s"
      ],
      [
        "e",
        "n"
      ],
      [
        "Ġ",
        "n"
      ],
      [
        "Ġ",
        "l"
      ],
      [
        "Ġ",
        "y"
      ],
      [
        "Ġt",
        "h"
      ],
      [
        "a",
        "r"
      ],
      [
        "Ġ",
        "h"
      ],
      [
        "Ġ",
        "o"
      ],
      [
        "Ġt",
        "o"
      ],
      [
        "Ġy",
        "ou"
      ],
      [
        "Ġ",
        "p"
      ],
      [
        "ha",
        "t"
      ],
      [
        "Ġ",
        "I"
      ],
      [
        "Ġ",
        "he"
      ],
      [
        "v",
        "e"
      ],
      [
        "o",
        "t"
      ],
      [
        "s",
        "t"
      ],
      [
        "Ġa",
        "nd"
      ],
      [
        "o",
        "w"
      ],
      [
        "in",
        "g"
      ],
      [
        "a",
        "n"
      ],
      [
        "Ġo",
        "f"
      ],
      [
        "o",
        "m"
      ],
      [
        "Ġ",
        "g"
      ],
      [
        "a",
        "t"
      ],
      [
        "Ġb",
        "e"
      ],
      [
        "s",
        "e"
      ],
      [
        "Ġm",
        "y"
      ],
      [
        "Ġ",
        "in"
      ],
      [
        "c",
        "e"
      ],
      [
        "Ġ",
        "ha"
      ],
      [
        "l",
        "e"
      ],
      [
        "a",
        "y"
      ],
      [
        "l",
        "d"
      ],
      [
        "i",
        "r"
      ],
      [
        "e",
        "t"
      ],
      [
        "e",
        "d"
      ],
      [
        "u",
        "t"
      ],
      [
        "Ġm",
        "e"
      ],
      [
        "i",
        "m"
      ],
      [
        "it",
        "h"
      ],
      [
        "'",
        "s"
      ],
      [
        "Ġn",
        "ot"
      ],
      [
        "c",
        "h"
      ],
      [
        "Ġt",
        "hat"
      ],
      [
        "Ġ",
        "is"
      ],
      [
        "g",
        "h"
      ],
      [
        "A",
        "nd"
      ],
      [
        "Ġf",
        "or"
      ],
      [
        "k",
        "e"
      ],
      [
        "Ġ",
        "u"
      ],
      [
        "ou",
        "r"
      ],
      [
        "Ġw",
        "e"
      ],
      [
        "o",
        "o"
      ],
      [
        "i",
        "ll"
      ],
      [
        "Ġ",
        "e"
      ],
      [
        "he",
        "r"
      ],
      [
        "Ġw",
        "ith"
      ],
      [
        "en",
        "t"
      ],
      [
        "Ġ",
        "it"
      ],
      [
        "Ġyou",
        "r"
      ],
      [
        "a",
        "d"
      ],
      [
        "r",
        "i"
      ],
      [
        "Ġth",
        "ou"
      ],
      [
        "Ġs",
        "t"
      ],
      [
        "'",
        "d"
      ],
      [
        "Ġ",
        "k"
      ],
      [
        "om",
        "e"
      ],
      [
        "Ġh",
        "is"
      ],
      [
        "gh",
        "t"
      ],
      [
        "E",
        "N"
      ],
      [
        "or",
        "d"
      ],
      [
        "i",
        "d"
      ],
      [
        "T",
        "he"
      ],
      [
        "a",
        "s"
      ],
      [
        "Ġ",
        "re"
      ],
      [
        "Ġha",
        "ve"
      ],
      [
        "I",
        "N"
      ],
      [
        "l",
        "y"
      ],
      [
        "r",
        "a"
      ],
      [
        "Ġl",
        "i"
      ],
      [
        "Ġh",
        "im"
      ],
      [
        "u",
        "r"
      ],
      [
        "Ġth",
        "is"
      ],
      [
        "a",
        "l"
      ],
      [
        "I",
        "O"
      ],
      [
        "Ġs",
        "o"
      ],
      [
        "Ġa",
        "s"
      ],
      [
        "Ġd",
        "e"
      ],
      [
        "Ġ",
        "on"
      ],
      [
        "o",
        "re"
      ],
      [
        "r",
        "o"
      ],
      [
        "A",
        "R"
      ],
      [
        "h",
        "i"
      ],
      [
        "ou",
        "ld"
      ],
      [
        "oo",
        "d"
      ],
      [
        "c",
        "k"
      ],
      [
        "a",
        "in"
      ],
      [
        "v",
        "er"
      ],
      [
        "es",
        "t"
      ],
      [
        "Ġth",
        "y"
      ],
      [
        "Ġs",
        "ha"
      ],
      [
        "es",
        "s"
      ],
      [
        "e",
        "a"
      ],
      [
        "Ġd",
        "o"
      ],
      [
        "Ġw",
        "ill"
      ],
      [
        "a",
        "m"
      ],
      [
        "Ġn",
        "o"
      ],
      [
        "Ġb",
        "ut"
      ],
      [
        "u",
        "s"
      ],
      [
        "a",
        "nd"
      ],
      [
        "U",
        "S"
      ],
      [
        "i",
        "f"
      ],
      [
        "Ġs",
        "e"
      ],
      [
        "g",
        "e"
      ],
      [
        "T",
        "h"
      ],
      [
        "Ġa",
        "ll"
      ],
      [
        "a",
        "ke"
      ],
      [
        "Ġs",
        "u"
      ],
      [
        "T",
        "o"
      ],
      [
        "Ġhe",
        "r"
      ],
      [
        "r",
        "u"
      ],
      [
        "i",
        "on"
      ],
      [
        "t",
        "h"
      ],
      [
        "Ġa",
        "n"
      ],
      [
        "t",
        "er"
      ],
      [
        "ar",
        "d"
      ],
      [
        "Ġl",
        "o"
      ],
      [
        "ha",
        "n"
      ],
      [
        "e",
        "ll"
      ],
      [
        "e",
        "ar"
      ],
      [
        "Ġs",
        "p"
      ],
      [
        "Ġthe",
        "e"
      ],
      [
        "Ġ",
        "our"
      ],
      [
        "Ġf",
        "a"
      ],
      [
        "Ġsha",
        "ll"
      ],
      [
        "Ġb",
        "y"
      ],
      [
        "U",
        "C"
      ],
      [
        "i",
        "l"
      ],
      [
        "Ġa",
        "re"
      ],
      [
        "IN",
        "G"
      ],
      [
        "Ġ",
        "C"
      ],
      [
        "r",
        "om"
      ],
      [
        "Ġn",
        "e"
      ],
      [
        "h",
        "o"
      ],
      [
        "Ġk",
        "n"
      ],
      [
        "A",
        "N"
      ],
      [
        "Ġ",
        "R"
      ],
      [
        "T",
        "hat"
      ],
      [
        "Ġ",
        "v"
      ],
      [
        "E",
        "R"
      ],
      [
        "O",
        "R"
      ],
      [
        "a",
        "st"
      ],
      [
        "c",
        "t"
      ],
      [
        "ou",
        "s"
      ],
      [
        "Ġw",
        "hat"
      ],
      [
        "i",
        "ght"
      ],
      [
        "Ġs",
        "h"
      ],
      [
        "u",
        "l"
      ],
      [
        "E",
        "T"
      ],
      [
        "Ġ",
        "'"
      ],
      [
        "an",
        "t"
      ],
      [
        "E",
        "S"
      ],
      [
        "Ġu",
        "p"
      ],
      [
        "se",
        "l"
      ],
      [
        "q",
        "u"
      ],
      [
        "B",
        "ut"
      ],
      [
        "ar",
        "t"
      ],
      [
        "Ġg",
        "ood"
      ],
      [
        "r",
        "ow"
      ],
      [
        "in",
        "e"
      ],
      [
        "at",
        "h"
      ],
      [
        "Ġl",
        "ord"
      ],
      [
        "hi",
        "ch"
      ],
      [
        "n",
        "t"
      ],
      [
        "u",
        "st"
      ],
      [
        "'",
        "ll"
      ],
      [
        "on",
        "e"
      ],
      [
        "Ġp",
        "r"
      ],
      [
        "Ġc",
        "om"
      ],
      [
        "Ġa",
        "t"
      ],
      [
        "Ġm",
        "an"
      ],
      [
        "W",
        "hat"
      ],
      [
        "Ġ",
        "M"
      ],
      [
        "Ġw",
        "he"
      ],
      [
        "Ġ",
        "E"
      ],
      [
        "K",
        "ING"
      ],
      [
        "Ġa",
        "m"
      ],
      [
        "e",
        "nd"
      ],
      [
        "i",
        "c"
      ],
      [
        "Ġc",
        "on"
      ],
      [
        "b",
        "le"
      ],
      [
        "r",
        "y"
      ],
      [
        "on",
        "g"
      ],
      [
        "i",
        "e"
      ],
      [
        "i",
        "ve"
      ],
      [
        "Ġb",
        "l"
      ],
      [
        "Ġf",
        "rom"
      ],
      [
        "v",
        "en"
      ],
      [
        "Ġ",
        "G"
      ],
      [
        "F",
        "or"
      ],
      [
        "Ġs",
        "he"
      ],
      [
        "e",
        "m"
      ],
      [
        "Ġg",
        "o"
      ],
      [
        "a",
        "re"
      ],
      [
        "Ġm",
        "ore"
      ],
      [
        "I",
        "C"
      ],
      [
        "ou",
        "t"
      ],
      [
        "Ġthe",
        "m"
      ],
      [
        "a",
        "u"
      ],
      [
        "Ġw",
        "as"
      ],
      [
        "ot",
        "h"
      ],
      [
        "ot",
        "her"
      ],
      [
        "H",
        "e"
      ],
      [
        "Ġs",
        "ir"
      ],
      [
        "o",
        "l"
      ],
      [
        "Ġn",
        "ow"
      ],
      [
        "Ġ",
        "L"
      ],
      [
        "Ġ",
        "hat"
      ],
      [
        "o",
        "st"
      ],
      [
        "Ġ",
        "if"
      ],
      [
        "L",
        "O"
      ],
      [
        "in",
        "d"
      ],
      [
        "Ġthe",
        "re"
      ],
      [
        "Ġw",
        "ould"
      ],
      [
        "Ġkn",
        "ow"
      ],
      [
        "Ġc",
        "an"
      ],
      [
        "er",
        "s"
      ],
      [
        "I",
        "US"
      ],
      [
        "e",
        "p"
      ],
      [
        "sel",
        "f"
      ],
      [
        "AR",
        "D"
      ],
      [
        "at",
        "her"
      ],
      [
        "f",
        "e"
      ],
      [
        "o",
        "nd"
      ],
      [
        "re",
        "s"
      ],
      [
        "at",
        "e"
      ],
      [
        "Ġs",
        "ay"
      ],
      [
        "Ġhe",
        "re"
      ],
      [
        "Ġlo",
        "ve"
      ],
      [
        "Ġs",
        "w"
      ],
      [
        "Ġthe",
        "ir"
      ],
      [
        "Ġb",
        "r"
      ],
      [
        "p",
        "p"
      ],
      [
        "Ġ",
        "or"
      ],
      [
        "-",
        "-"
      ],
      [
        "a",
        "ll"
      ],
      [
        "Ġ",
        "S"
      ],
      [
        "Ġt",
        "han"
      ],
      [
        "Ġthe",
        "n"
      ],
      [
        "Ġk",
        "ing"
      ],
      [
        "Ġu",
        "s"
      ],
      [
        "Ġ",
        "O"
      ],
      [
        "Ġ",
        "B"
      ],
      [
        "Ġthe",
        "y"
      ],
      [
        "Ġa",
        "r"
      ],
      [
        "o",
        "d"
      ],
      [
        "M",
        "y"
      ],
      [
        "Ġl",
        "et"
      ],
      [
        "Ġu",
        "n"
      ],
      [
        "i",
        "g"
      ],
      [
        "Ġw",
        "or"
      ],
      [
        "u",
        "re"
      ],
      [
        "in",
        "k"
      ],
      [
        "Ġ",
        "H"
      ],
      [
        "or",
        "t"
      ],
      [
        "h",
        "y"
      ],
      [
        "Ġ",
        "V"
      ],
      [
        "am",
        "e"
      ],
      [
        "f",
        "ore"
      ],
      [
        "A",
        "s"
      ],
      [
        "Ġm",
        "ay"
      ],
      [
        "e",
        "l"
      ],
      [
        "Ġ",
        "qu"
      ],
      [
        "Ġc",
        "ome"
      ],
      [
        "oo",
        "k"
      ],
      [
        "W",
        "he"
      ],
      [
        "is",
        "h"
      ],
      [
        "L",
        "I"
      ],
      [
        "Ġwe",
        "ll"
      ],
      [
        "K",
        "E"
      ],
      [
        "v",
        "es"
      ],
      [
        "Ġ",
        "j"
      ],
      [
        "Ġon",
        "e"
      ],
      [
        "Ġhat",
        "h"
      ],
      [
        "ir",
        "st"
      ],
      [
        "Y",
        "ou"
      ],
      [
        "Ġm",
        "ake"
      ],
      [
        "re",
        "at"
      ],
      [
        "a",
        "k"
      ],
      [
        "g",
        "ain"
      ],
      [
        "Ġm",
        "ust"
      ],
      [
        "ou",
        "nd"
      ],
      [
        "n",
        "g"
      ],
      [
        "Ġg",
        "ra"
      ],
      [
        "Ġwe",
        "re"
      ],
      [
        "Ġh",
        "o"
      ],
      [
        "c",
        "i"
      ],
      [
        "Ġse",
        "e"
      ],
      [
        "Ġli",
        "ke"
      ],
      [
        "u",
        "e"
      ],
      [
        "ea",
        "k"
      ],
      [
        "T",
        "IO"
      ],
      [
        "Ġsh",
        "ould"
      ],
      [
        "it",
        "y"
      ],
      [
        "Ġp",
        "ro"
      ],
      [
        "Ġ",
        "P"
      ],
      [
        "Ġs",
        "a"
      ],
      [
        "Ġm",
        "ad"
      ],
      [
        "u",
        "m"
      ],
      [
        "Ġp",
        "l"
      ],
      [
        "Ġf",
        "ather"
      ],
      [
        "R",
        "O"
      ],
      [
        "A",
        "U"
      ],
      [
        "Ġha",
        "d"
      ],
      [
        "Ġd",
        "id"
      ],
      [
        "p",
        "e"
      ],
      [
        "im",
        "e"
      ],
      [
        "Ġup",
        "on"
      ],
      [
        "i",
        "ce"
      ],
      [
        "O",
        "N"
      ],
      [
        "Ġto",
        "o"
      ],
      [
        "en",
        "ce"
      ],
      [
        "Ġ",
        "W"
      ],
      [
        "w",
        "ard"
      ],
      [
        "is",
        "t"
      ],
      [
        "Ġde",
        "ath"
      ],
      [
        "ow",
        "n"
      ],
      [
        "m",
        "an"
      ],
      [
        "o",
        "se"
      ],
      [
        "Ġ",
        "en"
      ],
      [
        "u",
        "n"
      ],
      [
        "I",
        "S"
      ],
      [
        "f",
        "ul"
      ],
      [
        "n",
        "ce"
      ],
      [
        "Ġ",
        "r"
      ],
      [
        "Ġp",
        "o"
      ],
      [
        "Ġsp",
        "eak"
      ],
      [
        "d",
        "e"
      ],
      [
        "ent",
        "le"
      ],
      [
        "i",
        "o"
      ],
      [
        "Ġ",
        "out"
      ],
      [
        "p",
        "t"
      ],
      [
        "Ġw",
        "hich"
      ],
      [
        "IC",
        "H"
      ],
      [
        "Ġf",
        "ri"
      ],
      [
        "O",
        "L"
      ],
      [
        "D",
        "U"
      ],
      [
        "Ġa",
        "gain"
      ],
      [
        "DU",
        "KE"
      ],
      [
        "Ġh",
        "ow"
      ],
      [
        "E",
        "L"
      ],
      [
        "i",
        "ck"
      ],
      [
        "Ġ",
        "A"
      ],
      [
        "Ġt",
        "ru"
      ],
      [
        "Ġhe",
        "art"
      ],
      [
        "Ġy",
        "et"
      ],
      [
        "Ġha",
        "nd"
      ],
      [
        "C",
        "A"
      ],
      [
        "Th",
        "ou"
      ],
      [
        "ver",
        "y"
      ],
      [
        "ICH",
        "ARD"
      ],
      [
        "EN",
        "TIO"
      ],
      [
        "W",
        "ith"
      ],
      [
        "ig",
        "n"
      ],
      [
        "Ġs",
        "ome"
      ],
      [
        "an",
        "ce"
      ],
      [
        "Ġw",
        "ho"
      ],
      [
        "W",
        "hich"
      ],
      [
        "I",
        "f"
      ],
      [
        "Ġwhe",
        "n"
      ],
      [
        "i",
        "es"
      ],
      [
        "Ġm",
        "ar"
      ],
      [
        "i",
        "re"
      ],
      [
        "Ġm",
        "ine"
      ],
      [
        "Ġh",
        "on"
      ],
      [
        "ha",
        "r"
      ],
      [
        "or",
        "n"
      ],
      [
        "Ġof",
        "f"
      ],
      [
        "in",
        "ce"
      ],
      [
        "IN",
        "C"
      ],
      [
        "I",
        "n"
      ],
      [
        "a",
        "ck"
      ],
      [
        "Ġ",
        "Y"
      ],
      [
        "Ġs",
        "on"
      ],
      [
        "Ġd",
        "is"
      ],
      [
        "Ġa",
        "l"
      ],
      [
        "'",
        "t"
      ],
      [
        "W",
        "e"
      ],
      [
        "u",
        "ch"
      ],
      [
        "w",
        "n"
      ],
      [
        "Ġhe",
        "a"
      ],
      [
        "F",
        "irst"
      ],
      [
        "o",
        "y"
      ],
      [
        "Ġt",
        "ime"
      ],
      [
        "Ġhe",
        "ar"
      ],
      [
        "A",
        "B"
      ],
      [
        "e",
        "c"
      ],
      [
        "Ġsu",
        "ch"
      ],
      [
        "n",
        "ess"
      ],
      [
        "L",
        "A"
      ],
      [
        "Ġbr",
        "other"
      ],
      [
        "O",
        "f"
      ],
      [
        "Ġbl",
        "ood"
      ],
      [
        "it",
        "her"
      ],
      [
        "Ġa",
        "b"
      ],
      [
        "U",
        "E"
      ],
      [
        "W",
        "hy"
      ],
      [
        "Ġthe",
        "se"
      ],
      [
        "N",
        "o"
      ],
      [
        "Ġg",
        "ive"
      ],
      [
        "Ġf",
        "o"
      ],
      [
        "Ġd",
        "ay"
      ],
      [
        "ĠI",
        "I"
      ],
      [
        "Ġe",
        "ar"
      ],
      [
        "ĠR",
        "ICHARD"
      ],
      [
        "T",
        "ER"
      ],
      [
        "Ġ",
        "ro"
      ],
      [
        "is",
        "e"
      ],
      [
        "Ġe",
        "x"
      ],
      [
        "Ġli",
        "fe"
      ],
      [
        "Th",
        "is"
      ],
      [
        "e",
        "et"
      ],
      [
        "Ġt",
        "ell"
      ],
      [
        "S",
        "o"
      ],
      [
        "Ġl",
        "ook"
      ],
      [
        "Ġth",
        "ink"
      ],
      [
        "UC",
        "H"
      ],
      [
        "ou",
        "l"
      ],
      [
        "Ġw",
        "ord"
      ],
      [
        "Ġe",
        "y"
      ],
      [
        "Ġwhe",
        "re"
      ],
      [
        "a",
        "g"
      ],
      [
        "a",
        "ge"
      ],
      [
        "e",
        "en"
      ],
      [
        "t",
        "her"
      ],
      [
        "G",
        "LO"
      ],
      [
        "Ġt",
        "ake"
      ],
      [
        "UC",
        "ES"
      ],
      [
        "Ġfri",
        "end"
      ],
      [
        "GLO",
        "UCES"
      ],
      [
        "GLOUCES",
        "TER"
      ],
      [
        "e",
        "f"
      ],
      [
        "er",
        "v"
      ],
      [
        "ad",
        "y"
      ],
      [
        "row",
        "n"
      ],
      [
        "Ġd",
        "es"
      ],
      [
        "ing",
        "s"
      ],
      [
        "a",
        "ve"
      ],
      [
        "n",
        "ot"
      ],
      [
        "Ġg",
        "entle"
      ],
      [
        "ur",
        "se"
      ],
      [
        "H",
        "ow"
      ],
      [
        "R",
        "Y"
      ],
      [
        "Ġ",
        "ri"
      ],
      [
        "a",
        "se"
      ],
      [
        "Q",
        "UE"
      ],
      [
        "w",
        "ay"
      ],
      [
        "INC",
        "ENTIO"
      ],
      [
        "QUE",
        "EN"
      ],
      [
        "Ġl",
        "ea"
      ],
      [
        "t",
        "is"
      ],
      [
        "ĠO",
        "F"
      ],
      [
        "Ġar",
        "t"
      ],
      [
        "Ġm",
        "ost"
      ],
      [
        "Whe",
        "re"
      ],
      [
        "Ġhon",
        "our"
      ],
      [
        "L",
        "AN"
      ],
      [
        "Ġm",
        "uch"
      ],
      [
        "Ġs",
        "l"
      ],
      [
        "Ġw",
        "ar"
      ],
      [
        "Ġf",
        "l"
      ],
      [
        "ur",
        "n"
      ],
      [
        "Ġmad",
        "e"
      ],
      [
        "m",
        "ent"
      ],
      [
        "N",
        "ow"
      ],
      [
        "Ġha",
        "st"
      ],
      [
        "Ġt",
        "w"
      ],
      [
        "Ġf",
        "ear"
      ],
      [
        "Ġ",
        "T"
      ],
      [
        "Ġbe",
        "t"
      ],
      [
        "EN",
        "RY"
      ],
      [
        "au",
        "ght"
      ],
      [
        "I",
        "s"
      ],
      [
        "L",
        "E"
      ],
      [
        "b",
        "er"
      ],
      [
        "f",
        "f"
      ],
      [
        "ĠG",
        "od"
      ],
      [
        "ou",
        "gh"
      ],
      [
        "ve",
        "d"
      ],
      [
        "Ġb",
        "re"
      ],
      [
        "c",
        "c"
      ],
      [
        "ow",
        "er"
      ],
      [
        "Ġne",
        "ver"
      ],
      [
        "ĠV",
        "INCENTIO"
      ],
      [
        "B",
        "e"
      ],
      [
        "a",
        "p"
      ],
      [
        "i",
        "gh"
      ],
      [
        "Ġ",
        "K"
      ],
      [
        "Ġg",
        "reat"
      ],
      [
        "Ġfa",
        "ir"
      ],
      [
        "W",
        "ho"
      ],
      [
        "e",
        "e"
      ],
      [
        "t",
        "le"
      ],
      [
        "Ġm",
        "en"
      ],
      [
        "or",
        "row"
      ],
      [
        "Ġc",
        "ou"
      ],
      [
        "Ġne",
        "w"
      ],
      [
        "ĠR",
        "ome"
      ],
      [
        "ast",
        "er"
      ],
      [
        "u",
        "ke"
      ],
      [
        "i",
        "z"
      ],
      [
        "o",
        "ld"
      ],
      [
        "OR",
        "K"
      ],
      [
        "Ġp",
        "art"
      ],
      [
        "at",
        "ion"
      ],
      [
        "IN",
        "IUS"
      ],
      [
        "s",
        "s"
      ],
      [
        "re",
        "e"
      ],
      [
        "id",
        "e"
      ],
      [
        "O",
        "r"
      ],
      [
        "Ġc",
        "all"
      ],
      [
        "p",
        "le"
      ],
      [
        "Ġan",
        "y"
      ],
      [
        "Ġhea",
        "ven"
      ],
      [
        "Ġa",
        "d"
      ],
      [
        "Ġcom",
        "m"
      ],
      [
        "I",
        "t"
      ],
      [
        "Y",
        "our"
      ],
      [
        "Ġst",
        "and"
      ],
      [
        "Ġcan",
        "not"
      ],
      [
        "Ġtru",
        "e"
      ],
      [
        "D",
        "W"
      ],
      [
        "Ġn",
        "ame"
      ],
      [
        "Ġbe",
        "en"
      ],
      [
        "ear",
        "s"
      ],
      [
        "DW",
        "ARD"
      ],
      [
        "Ġc",
        "l"
      ],
      [
        "Ġp",
        "re"
      ],
      [
        "Ġsw",
        "eet"
      ],
      [
        ",",
        "--"
      ],
      [
        "Ġd",
        "oth"
      ],
      [
        "Ġpr",
        "ay"
      ],
      [
        "h",
        "ing"
      ],
      [
        "P",
        "ET"
      ],
      [
        "U",
        "M"
      ],
      [
        "Ġno",
        "ble"
      ],
      [
        "L",
        "UC"
      ],
      [
        "M",
        "EN"
      ],
      [
        "T",
        "H"
      ],
      [
        "Ġo",
        "wn"
      ],
      [
        "Ġp",
        "le"
      ],
      [
        "as",
        "s"
      ],
      [
        "Ġ",
        "D"
      ],
      [
        "ou",
        "se"
      ],
      [
        "Ġp",
        "er"
      ],
      [
        "A",
        "y"
      ],
      [
        "C",
        "ome"
      ],
      [
        "u",
        "ll"
      ],
      [
        "The",
        "re"
      ],
      [
        "Ġw",
        "r"
      ],
      [
        "Ġd",
        "one"
      ],
      [
        "if",
        "e"
      ],
      [
        "a",
        "w"
      ],
      [
        "Ġt",
        "r"
      ],
      [
        "Ġw",
        "ay"
      ],
      [
        "Ġo",
        "ther"
      ],
      [
        "Ġhe",
        "ad"
      ],
      [
        "Ġme",
        "an"
      ],
      [
        "l",
        "i"
      ],
      [
        "re",
        "d"
      ],
      [
        "Whe",
        "n"
      ],
      [
        "d",
        "ward"
      ],
      [
        "Ġn",
        "or"
      ],
      [
        "E",
        "O"
      ],
      [
        "M",
        "EO"
      ],
      [
        "Ġs",
        "c"
      ],
      [
        "Ġs",
        "oul"
      ],
      [
        "Ġp",
        "res"
      ],
      [
        "RO",
        "MEO"
      ],
      [
        "a",
        "ce"
      ],
      [
        "v",
        "ing"
      ],
      [
        "Ġn",
        "ight"
      ],
      [
        "Ġbe",
        "ar"
      ],
      [
        "EN",
        "IUS"
      ],
      [
        "ain",
        "t"
      ],
      [
        "ĠC",
        "l"
      ],
      [
        "Ġwor",
        "ld"
      ],
      [
        "MEN",
        "ENIUS"
      ],
      [
        "g",
        "er"
      ],
      [
        "Ġbe",
        "fore"
      ],
      [
        "au",
        "se"
      ],
      [
        "Ġb",
        "oth"
      ],
      [
        "Ġqu",
        "een"
      ],
      [
        "p",
        "er"
      ],
      [
        "The",
        "n"
      ],
      [
        "aught",
        "er"
      ],
      [
        "R",
        "UCH"
      ],
      [
        "o",
        "ck"
      ],
      [
        "Ġc",
        "hi"
      ],
      [
        "He",
        "re"
      ],
      [
        "PET",
        "RUCH"
      ],
      [
        "PETRUCH",
        "IO"
      ],
      [
        "O",
        "M"
      ],
      [
        "a",
        "ble"
      ],
      [
        "Ġ",
        "very"
      ],
      [
        "Ġde",
        "ad"
      ],
      [
        "T",
        "ES"
      ],
      [
        "B",
        "y"
      ],
      [
        "Ġ",
        "ra"
      ],
      [
        "it",
        "e"
      ],
      [
        "T",
        "han"
      ],
      [
        "t",
        "he"
      ],
      [
        "Ġ",
        "ke"
      ],
      [
        "a",
        "b"
      ],
      [
        "l",
        "es"
      ],
      [
        "Ġ",
        "F"
      ],
      [
        "Ġd",
        "own"
      ],
      [
        "t",
        "o"
      ],
      [
        "Ġa",
        "pp"
      ],
      [
        "Ġmy",
        "self"
      ],
      [
        "Ġcon",
        "t"
      ],
      [
        "G",
        "R"
      ],
      [
        "H",
        "A"
      ],
      [
        "Ġw",
        "h"
      ],
      [
        "Ġre",
        "m"
      ],
      [
        "ĠL",
        "ord"
      ],
      [
        "Ġar",
        "m"
      ],
      [
        "Ġth",
        "us"
      ],
      [
        "IO",
        "LAN"
      ],
      [
        "il",
        "t"
      ],
      [
        "OR",
        "IOLAN"
      ],
      [
        "ORIOLAN",
        "US"
      ],
      [
        "C",
        "ORIOLANUS"
      ],
      [
        "S",
        "ec"
      ],
      [
        "Ġlea",
        "ve"
      ],
      [
        "Sec",
        "ond"
      ],
      [
        "Ġbe",
        "ing"
      ],
      [
        "ct",
        "ion"
      ],
      [
        "ĠE",
        "dward"
      ],
      [
        "N",
        "or"
      ],
      [
        "s",
        "w"
      ],
      [
        "Ġu",
        "nt"
      ],
      [
        "res",
        "s"
      ],
      [
        "Ġgra",
        "ce"
      ],
      [
        "l",
        "ess"
      ],
      [
        "Ġbe",
        "g"
      ],
      [
        "Ġey",
        "es"
      ],
      [
        "B",
        "A"
      ],
      [
        "l",
        "and"
      ],
      [
        "Ġm",
        "other"
      ],
      [
        "r",
        "an"
      ],
      [
        "Ġm",
        "a"
      ],
      [
        "Ġo",
        "ld"
      ],
      [
        "Ġ",
        "im"
      ],
      [
        "IN",
        "A"
      ],
      [
        "ĠE",
        "DWARD"
      ],
      [
        "it",
        "iz"
      ],
      [
        "itiz",
        "en"
      ],
      [
        "p",
        "s"
      ],
      [
        "Ġl",
        "ong"
      ],
      [
        "Ġe",
        "ver"
      ],
      [
        "ĠM",
        "ar"
      ],
      [
        "Ġli",
        "ve"
      ],
      [
        "Ġchi",
        "ld"
      ],
      [
        "L",
        "et"
      ],
      [
        "m",
        "e"
      ],
      [
        "Ġw",
        "ife"
      ],
      [
        "S",
        "he"
      ],
      [
        "Ġa",
        "way"
      ],
      [
        "Ġre",
        "p"
      ],
      [
        "ĠII",
        "I"
      ],
      [
        "Ġw",
        "om"
      ],
      [
        "Ġpo",
        "or"
      ],
      [
        "Ġfriend",
        "s"
      ],
      [
        "c",
        "ome"
      ],
      [
        "f",
        "or"
      ],
      [
        "w",
        "ick"
      ],
      [
        "Ġa",
        "f"
      ],
      [
        "Ġm",
        "ight"
      ],
      [
        "nd",
        "er"
      ],
      [
        "Ġst",
        "ay"
      ],
      [
        "ea",
        "ce"
      ],
      [
        "k",
        "s"
      ],
      [
        "ou",
        "d"
      ],
      [
        "Ġd",
        "ie"
      ],
      [
        "at",
        "ch"
      ],
      [
        "le",
        "d"
      ],
      [
        "Ġ",
        "J"
      ],
      [
        "Ġ",
        "ru"
      ],
      [
        "ar",
        "wick"
      ],
      [
        "Ġcom",
        "es"
      ],
      [
        "Ġcon",
        "s"
      ],
      [
        "Ġc",
        "rown"
      ],
      [
        "ow",
        "s"
      ],
      [
        "Ġman",
        "y"
      ],
      [
        "Ġp",
        "e"
      ],
      [
        "T",
        "is"
      ],
      [
        "ha",
        "ll"
      ],
      [
        "is",
        "on"
      ],
      [
        "Ġl",
        "e"
      ],
      [
        "ĠY",
        "ORK"
      ],
      [
        "l",
        "o"
      ],
      [
        "u",
        "ck"
      ],
      [
        "is",
        "s"
      ],
      [
        "Ġh",
        "ouse"
      ],
      [
        "Ġha",
        "r"
      ],
      [
        "Ġthou",
        "ght"
      ],
      [
        "Ġre",
        "st"
      ],
      [
        "IS",
        "AB"
      ],
      [
        "EL",
        "LA"
      ],
      [
        "ISAB",
        "ELLA"
      ],
      [
        "i",
        "an"
      ],
      [
        "er",
        "c"
      ],
      [
        "Ġc",
        "our"
      ],
      [
        "R",
        "AN"
      ],
      [
        "Ġ",
        "ent"
      ],
      [
        "Ġli",
        "e"
      ],
      [
        "c",
        "he"
      ],
      [
        "Ġs",
        "et"
      ],
      [
        "J",
        "U"
      ],
      [
        "w",
        "ell"
      ],
      [
        "or",
        "s"
      ],
      [
        "at",
        "ter"
      ],
      [
        "LI",
        "ET"
      ],
      [
        "ON",
        "TES"
      ],
      [
        "ĠW",
        "arwick"
      ],
      [
        "LE",
        "ONTES"
      ],
      [
        "JU",
        "LIET"
      ],
      [
        "N",
        "ay"
      ],
      [
        "in",
        "t"
      ],
      [
        "it",
        "tle"
      ],
      [
        "Ġd",
        "aughter"
      ],
      [
        "Ġg",
        "one"
      ],
      [
        "Ġbet",
        "ter"
      ],
      [
        "M",
        "I"
      ],
      [
        "r",
        "ant"
      ],
      [
        "ou",
        "ght"
      ],
      [
        "Ġpr",
        "ince"
      ],
      [
        "D",
        "Y"
      ],
      [
        "H",
        "is"
      ],
      [
        "Ġt",
        "ong"
      ],
      [
        "Ġw",
        "it"
      ],
      [
        "Ġnot",
        "hing"
      ],
      [
        "C",
        "E"
      ],
      [
        "V",
        "OL"
      ],
      [
        "EN",
        "CE"
      ],
      [
        "LA",
        "DY"
      ],
      [
        "B",
        "R"
      ],
      [
        "T",
        "A"
      ],
      [
        "c",
        "l"
      ],
      [
        "i",
        "ed"
      ],
      [
        "Ġke",
        "ep"
      ],
      [
        "G",
        "o"
      ],
      [
        "W",
        "ell"
      ],
      [
        "c",
        "es"
      ],
      [
        "i",
        "ous"
      ],
      [
        "o",
        "s"
      ],
      [
        "Ġs",
        "le"
      ],
      [
        "Ġre",
        "s"
      ],
      [
        "har",
        "d"
      ],
      [
        "Ġnew",
        "s"
      ],
      [
        "S",
        "IC"
      ],
      [
        "f",
        "t"
      ],
      [
        "i",
        "er"
      ],
      [
        "Ġt",
        "ri"
      ],
      [
        "Ġm",
        "o"
      ],
      [
        "re",
        "t"
      ],
      [
        "on",
        "t"
      ],
      [
        "Ġth",
        "ose"
      ],
      [
        "Ġg",
        "ri"
      ],
      [
        "oo",
        "l"
      ],
      [
        "un",
        "e"
      ],
      [
        "SIC",
        "INIUS"
      ],
      [
        "N",
        "ot"
      ],
      [
        "Ġl",
        "ittle"
      ],
      [
        "Ġlord",
        "s"
      ],
      [
        "Ġagain",
        "st"
      ],
      [
        "f",
        "ord"
      ],
      [
        "Ġb",
        "est"
      ],
      [
        "Ġh",
        "our"
      ],
      [
        "Ġhe",
        "nce"
      ],
      [
        "ard",
        "on"
      ],
      [
        "ak",
        "es"
      ],
      [
        "l",
        "se"
      ],
      [
        "Ġa",
        "cc"
      ],
      [
        "se",
        "d"
      ],
      [
        "Ġfa",
        "ce"
      ],
      [
        "ul",
        "t"
      ],
      [
        "Ġfo",
        "ll"
      ],
      [
        "O",
        "n"
      ],
      [
        "e",
        "w"
      ],
      [
        "u",
        "d"
      ],
      [
        "ar",
        "k"
      ],
      [
        "Ġyou",
        "ng"
      ],
      [
        "Ġe",
        "nd"
      ],
      [
        "or",
        "k"
      ],
      [
        "Ġth",
        "ing"
      ],
      [
        "Ġst",
        "ill"
      ],
      [
        "Ġk",
        "ind"
      ],
      [
        "ie",
        "ld"
      ],
      [
        "S",
        "T"
      ],
      [
        "Ġp",
        "ri"
      ],
      [
        "Ġp",
        "ur"
      ],
      [
        "al",
        "k"
      ],
      [
        "Th",
        "y"
      ],
      [
        "Ġcom",
        "p"
      ],
      [
        "LUC",
        "IO"
      ],
      [
        "a",
        "le"
      ],
      [
        "in",
        "s"
      ],
      [
        "er",
        "t"
      ],
      [
        "Ġp",
        "ut"
      ],
      [
        "Ġp",
        "ower"
      ],
      [
        "ĠI",
        "V"
      ],
      [
        "ic",
        "hard"
      ],
      [
        "Ġtw",
        "o"
      ],
      [
        "Ġc",
        "ha"
      ],
      [
        "Ġhim",
        "self"
      ],
      [
        "P",
        "ro"
      ],
      [
        "in",
        "ess"
      ],
      [
        "Ġf",
        "irst"
      ],
      [
        "Ġp",
        "eace"
      ],
      [
        "Ġg",
        "u"
      ],
      [
        "Ġe",
        "lse"
      ],
      [
        "ri",
        "ed"
      ],
      [
        "Ġde",
        "ar"
      ],
      [
        "ci",
        "ous"
      ],
      [
        "S",
        "ir"
      ],
      [
        "a",
        "il"
      ],
      [
        "t",
        "y"
      ],
      [
        "as",
        "on"
      ],
      [
        "hi",
        "le"
      ],
      [
        "Ġsu",
        "b"
      ],
      [
        "Ġunt",
        "o"
      ],
      [
        "i",
        "le"
      ],
      [
        "r",
        "ay"
      ],
      [
        "Ġt",
        "ill"
      ],
      [
        "Ġs",
        "m"
      ],
      [
        "ut",
        "y"
      ],
      [
        "R",
        "I"
      ],
      [
        "Z",
        "AB"
      ],
      [
        "e",
        "ct"
      ],
      [
        "Ġt",
        "ra"
      ],
      [
        "Ġb",
        "id"
      ],
      [
        "Ġb",
        "ack"
      ],
      [
        "Ġd",
        "re"
      ],
      [
        "Ġh",
        "us"
      ],
      [
        "ET",
        "H"
      ],
      [
        "ĠE",
        "LI"
      ],
      [
        "Ġthere",
        "fore"
      ],
      [
        "Ġear",
        "th"
      ],
      [
        "Ġword",
        "s"
      ],
      [
        "Ġcou",
        "nt"
      ],
      [
        "ZAB",
        "ETH"
      ],
      [
        "ĠELI",
        "ZABETH"
      ],
      [
        "H",
        "ave"
      ],
      [
        "b",
        "and"
      ],
      [
        "i",
        "us"
      ],
      [
        "m",
        "en"
      ],
      [
        "o",
        "ple"
      ],
      [
        "y",
        "al"
      ],
      [
        "Ġf",
        "ind"
      ],
      [
        "Ġc",
        "ould"
      ],
      [
        "Ġtong",
        "ue"
      ],
      [
        "or",
        "se"
      ],
      [
        "Ġl",
        "ady"
      ],
      [
        "Ġth",
        "ine"
      ],
      [
        "Ġne",
        "ed"
      ],
      [
        "ĠY",
        "ork"
      ],
      [
        "H",
        "ENRY"
      ],
      [
        "g",
        "et"
      ],
      [
        "t",
        "w"
      ],
      [
        "Ġt",
        "re"
      ],
      [
        "Ġf",
        "ell"
      ],
      [
        "en",
        "ry"
      ],
      [
        "Ġh",
        "igh"
      ],
      [
        "Ġfor",
        "th"
      ],
      [
        "Ġho",
        "pe"
      ],
      [
        "M",
        "ER"
      ],
      [
        "S",
        "t"
      ],
      [
        "l",
        "p"
      ],
      [
        "Ġh",
        "ome"
      ],
      [
        "ve",
        "re"
      ],
      [
        "et",
        "h"
      ],
      [
        "Ġse",
        "em"
      ],
      [
        "ee",
        "ch"
      ],
      [
        "ĠRome",
        "o"
      ],
      [
        "Ġhus",
        "band"
      ],
      [
        "C",
        "L"
      ],
      [
        "Ġd",
        "uke"
      ],
      [
        "Ġri",
        "ght"
      ],
      [
        "G",
        "E"
      ],
      [
        "W",
        "AR"
      ],
      [
        "W",
        "IC"
      ],
      [
        "f",
        "ort"
      ],
      [
        "Ġ",
        "What"
      ],
      [
        "re",
        "r"
      ],
      [
        "Ġb",
        "an"
      ],
      [
        "ut",
        "h"
      ],
      [
        "Ġthou",
        "gh"
      ],
      [
        "ĠV",
        "I"
      ],
      [
        "WAR",
        "WIC"
      ],
      [
        "WARWIC",
        "K"
      ],
      [
        "U",
        "T"
      ],
      [
        "a",
        "ch"
      ],
      [
        "i",
        "x"
      ],
      [
        "Ġm",
        "ind"
      ],
      [
        "Ġb",
        "ra"
      ],
      [
        "is",
        "ter"
      ],
      [
        "Ġc",
        "he"
      ],
      [
        "Ġc",
        "har"
      ],
      [
        "hi",
        "p"
      ],
      [
        "ĠH",
        "ENRY"
      ],
      [
        "Ġpe",
        "ople"
      ],
      [
        "N",
        "urse"
      ],
      [
        "d",
        "s"
      ],
      [
        "g",
        "ed"
      ],
      [
        "ĠC",
        "itizen"
      ],
      [
        "re",
        "n"
      ],
      [
        "The",
        "y"
      ],
      [
        "ĠH",
        "enry"
      ],
      [
        "HA",
        "M"
      ],
      [
        "I",
        "AN"
      ],
      [
        "L",
        "ET"
      ],
      [
        "P",
        "U"
      ],
      [
        "e",
        "ed"
      ],
      [
        "Ġb",
        "ri"
      ],
      [
        "Ġc",
        "han"
      ],
      [
        "Ġl",
        "aw"
      ],
      [
        "ĠR",
        "ichard"
      ],
      [
        "Ġsh",
        "ow"
      ],
      [
        "Ġcon",
        "f"
      ],
      [
        "Ġhand",
        "s"
      ],
      [
        "PU",
        "LET"
      ],
      [
        "E",
        "Y"
      ],
      [
        "b",
        "e"
      ],
      [
        "Ġm",
        "aster"
      ],
      [
        "Ġw",
        "hy"
      ],
      [
        "Ġc",
        "o"
      ],
      [
        "Ġc",
        "ause"
      ],
      [
        "Ġg",
        "l"
      ],
      [
        "Ġon",
        "ce"
      ],
      [
        "Ġsa",
        "id"
      ],
      [
        "Ġim",
        "p"
      ],
      [
        "G",
        "ood"
      ],
      [
        "M",
        "IO"
      ],
      [
        "S",
        "hall"
      ],
      [
        "Ġb",
        "od"
      ],
      [
        "Ġn",
        "one"
      ],
      [
        "ous",
        "in"
      ],
      [
        "Ġj",
        "oy"
      ],
      [
        "erv",
        "ant"
      ],
      [
        "A",
        "ll"
      ],
      [
        "b",
        "t"
      ],
      [
        "Ġfor",
        "t"
      ],
      [
        "Ġbr",
        "ing"
      ],
      [
        "Y",
        "et"
      ],
      [
        "Ġd",
        "ou"
      ],
      [
        "at",
        "es"
      ],
      [
        "Ġe",
        "very"
      ],
      [
        "UC",
        "KING"
      ],
      [
        "BR",
        "UT"
      ],
      [
        "UCKING",
        "HAM"
      ],
      [
        "BRUT",
        "US"
      ],
      [
        "B",
        "RO"
      ],
      [
        "B",
        "UCKINGHAM"
      ],
      [
        "F",
        "rom"
      ],
      [
        "T",
        "RAN"
      ],
      [
        "i",
        "et"
      ],
      [
        "Ġm",
        "ist"
      ],
      [
        "Ġp",
        "ass"
      ],
      [
        "ir",
        "d"
      ],
      [
        "Ġli",
        "ght"
      ],
      [
        "ING",
        "BRO"
      ],
      [
        "ES",
        "S"
      ],
      [
        "ĠB",
        "OL"
      ],
      [
        "TRAN",
        "IO"
      ],
      [
        "INGBRO",
        "KE"
      ],
      [
        "ĠBOL",
        "INGBROKE"
      ],
      [
        "D",
        "o"
      ],
      [
        "W",
        "ill"
      ],
      [
        "l",
        "t"
      ],
      [
        "v",
        "ost"
      ],
      [
        "Ġw",
        "o"
      ],
      [
        "Ġn",
        "at"
      ],
      [
        "Ġth",
        "r"
      ],
      [
        "Ġro",
        "yal"
      ],
      [
        "sw",
        "er"
      ],
      [
        "P",
        "ER"
      ],
      [
        "T",
        "IS"
      ],
      [
        "c",
        "le"
      ],
      [
        "Ġt",
        "ears"
      ],
      [
        "it",
        "s"
      ],
      [
        "Ġc",
        "ame"
      ],
      [
        "ar",
        "y"
      ],
      [
        "ĠM",
        "AR"
      ],
      [
        "Ġwho",
        "se"
      ],
      [
        "Ġple",
        "ase"
      ],
      [
        "l",
        "f"
      ],
      [
        "v",
        "y"
      ],
      [
        "or",
        "y"
      ],
      [
        "Ġp",
        "ardon"
      ],
      [
        "ro",
        "ke"
      ],
      [
        "ĠA",
        "n"
      ],
      [
        "C",
        "l"
      ],
      [
        "G",
        "AR"
      ],
      [
        "N",
        "E"
      ],
      [
        "p",
        "ose"
      ],
      [
        "Ġb",
        "es"
      ],
      [
        "Ġb",
        "oy"
      ],
      [
        "Ġf",
        "ull"
      ],
      [
        "ar",
        "ry"
      ],
      [
        "Ġhe",
        "ard"
      ],
      [
        "Ġha",
        "pp"
      ],
      [
        "Ġde",
        "v"
      ],
      [
        "Ġj",
        "ust"
      ],
      [
        "Ġwr",
        "ong"
      ],
      [
        "Ġpres",
        "ent"
      ],
      [
        "ĠMAR",
        "GAR"
      ],
      [
        "ĠMARGAR",
        "ET"
      ],
      [
        "A",
        "TH"
      ],
      [
        "e",
        "el"
      ],
      [
        "Ġs",
        "ince"
      ],
      [
        "Ġm",
        "is"
      ],
      [
        "en",
        "s"
      ],
      [
        "Ġl",
        "and"
      ],
      [
        "Ġl",
        "ast"
      ],
      [
        "Ġe",
        "re"
      ],
      [
        "Ġst",
        "ate"
      ],
      [
        "Ġpl",
        "ace"
      ],
      [
        "MI",
        "L"
      ],
      [
        "b",
        "l"
      ],
      [
        "s",
        "and"
      ],
      [
        "Ġme",
        "et"
      ],
      [
        "Ġu",
        "nder"
      ],
      [
        "Ġk",
        "ill"
      ],
      [
        "Ġaf",
        "ter"
      ],
      [
        "H",
        "OR"
      ],
      [
        "c",
        "ent"
      ],
      [
        "Ġs",
        "orrow"
      ],
      [
        "it",
        "ion"
      ],
      [
        "Ġc",
        "are"
      ],
      [
        "Ġthou",
        "sand"
      ],
      [
        "est",
        "y"
      ],
      [
        "AN",
        "GE"
      ],
      [
        "OR",
        "D"
      ],
      [
        "Ġho",
        "ld"
      ],
      [
        "GR",
        "E"
      ],
      [
        "ANGE",
        "LO"
      ],
      [
        "C",
        "U"
      ],
      [
        "O",
        "ur"
      ],
      [
        "Ġhe",
        "lp"
      ],
      [
        "AR",
        "INA"
      ],
      [
        "are",
        "nce"
      ],
      [
        "Ġwh",
        "om"
      ],
      [
        "Ġfoll",
        "ow"
      ],
      [
        "K",
        "ATH"
      ],
      [
        "d",
        "ay"
      ],
      [
        "Ġf",
        "ar"
      ],
      [
        "Ġl",
        "ess"
      ],
      [
        "Ġh",
        "ither"
      ],
      [
        "ce",
        "ive"
      ],
      [
        "ir",
        "t"
      ],
      [
        "Ġwe",
        "ep"
      ],
      [
        "Ġsha",
        "me"
      ],
      [
        "sel",
        "ves"
      ],
      [
        "ci",
        "us"
      ],
      [
        "Ġen",
        "em"
      ],
      [
        "Ġab",
        "out"
      ],
      [
        "Ġey",
        "e"
      ],
      [
        "KATH",
        "ARINA"
      ],
      [
        "i",
        "ol"
      ],
      [
        "Ġf",
        "al"
      ],
      [
        "Ġf",
        "ool"
      ],
      [
        "on",
        "s"
      ],
      [
        "Ġp",
        "at"
      ],
      [
        "ur",
        "de"
      ],
      [
        "Ġsu",
        "n"
      ],
      [
        "Ġan",
        "swer"
      ],
      [
        "a",
        "ir"
      ],
      [
        "Ġc",
        "h"
      ],
      [
        "as",
        "ure"
      ],
      [
        "Ġfa",
        "ll"
      ],
      [
        "Ġma",
        "id"
      ],
      [
        "L",
        "US"
      ],
      [
        "U",
        "n"
      ],
      [
        "U",
        "p"
      ],
      [
        "ou",
        "nt"
      ],
      [
        "Ġb",
        "us"
      ],
      [
        "Ġc",
        "ousin"
      ],
      [
        "th",
        "y"
      ],
      [
        "ES",
        "CA"
      ],
      [
        "Ġhat",
        "e"
      ],
      [
        "Ġgra",
        "cious"
      ],
      [
        "Ġgentle",
        "man"
      ],
      [
        "ĠK",
        "ing"
      ],
      [
        "Ġgri",
        "ef"
      ],
      [
        "ESCA",
        "LUS"
      ],
      [
        "A",
        "n"
      ],
      [
        "j",
        "ect"
      ],
      [
        "o",
        "ve"
      ],
      [
        "Ġm",
        "akes"
      ],
      [
        "Ġin",
        "to"
      ],
      [
        "im",
        "es"
      ],
      [
        "Ġst",
        "ri"
      ],
      [
        "H",
        "ath"
      ],
      [
        "i",
        "v"
      ],
      [
        "i",
        "ld"
      ],
      [
        "Ġst",
        "re"
      ],
      [
        "ĠE",
        "ng"
      ],
      [
        "Ġwom",
        "an"
      ],
      [
        "D",
        "UCH"
      ],
      [
        "Ġt",
        "urn"
      ],
      [
        "Ġh",
        "um"
      ],
      [
        "Ġbe",
        "l"
      ],
      [
        "al",
        "t"
      ],
      [
        "Ġdo",
        "st"
      ],
      [
        "Ġcom",
        "fort"
      ],
      [
        "ic",
        "es"
      ],
      [
        "Ġcou",
        "n"
      ],
      [
        "ĠD",
        "uke"
      ],
      [
        "Ġcour",
        "t"
      ],
      [
        "Ġsle",
        "ep"
      ],
      [
        "urde",
        "rer"
      ],
      [
        "DUCH",
        "ESS"
      ],
      [
        "L",
        "ord"
      ],
      [
        "p",
        "her"
      ],
      [
        "Ġt",
        "alk"
      ],
      [
        "it",
        "or"
      ],
      [
        "Ġo",
        "ver"
      ],
      [
        "Ġbod",
        "y"
      ],
      [
        "m",
        "orrow"
      ],
      [
        "Ġw",
        "ilt"
      ],
      [
        "Ġb",
        "u"
      ],
      [
        "Ġg",
        "r"
      ],
      [
        "ut",
        "e"
      ],
      [
        "ge",
        "lo"
      ],
      [
        "de",
        "ed"
      ],
      [
        "ĠMar",
        "cius"
      ],
      [
        "I",
        "A"
      ],
      [
        "i",
        "ence"
      ],
      [
        "Ġ",
        "i"
      ],
      [
        "is",
        "ed"
      ],
      [
        "Ġbe",
        "d"
      ],
      [
        "Ġfa",
        "ult"
      ],
      [
        "Ġat",
        "t"
      ],
      [
        "ie",
        "ve"
      ],
      [
        "Ġpro",
        "ve"
      ],
      [
        "Ġpl",
        "ay"
      ],
      [
        "CA",
        "MIL"
      ],
      [
        "ĠCl",
        "arence"
      ],
      [
        "CAMIL",
        "LO"
      ],
      [
        "G",
        "od"
      ],
      [
        "e",
        "re"
      ],
      [
        "i",
        "ly"
      ],
      [
        "Ġs",
        "ound"
      ],
      [
        "Ġd",
        "ra"
      ],
      [
        "an",
        "s"
      ],
      [
        "om",
        "et"
      ],
      [
        "Ġin",
        "st"
      ],
      [
        "Ġwe",
        "l"
      ],
      [
        "ad",
        "e"
      ],
      [
        "Ġre",
        "t"
      ],
      [
        "Ġde",
        "ed"
      ],
      [
        "Ġthan",
        "k"
      ],
      [
        "T",
        "EN"
      ],
      [
        "Ġs",
        "er"
      ],
      [
        "Ġb",
        "o"
      ],
      [
        "Ġf",
        "ight"
      ],
      [
        "Ġin",
        "deed"
      ],
      [
        "ill",
        "ain"
      ],
      [
        "ho",
        "ld"
      ],
      [
        "Ġv",
        "o"
      ],
      [
        "Ġsw",
        "ord"
      ],
      [
        "ĠAn",
        "gelo"
      ],
      [
        "HOR",
        "TEN"
      ],
      [
        "Ġfal",
        "se"
      ],
      [
        "HORTEN",
        "S"
      ],
      [
        "F",
        "RI"
      ],
      [
        "S",
        "h"
      ],
      [
        "Ġu",
        "se"
      ],
      [
        "Ġe",
        "ven"
      ],
      [
        "Ġso",
        "vere"
      ],
      [
        "Ġan",
        "other"
      ],
      [
        "Ġgra",
        "ve"
      ],
      [
        "Ġad",
        "v"
      ],
      [
        "Pro",
        "vost"
      ],
      [
        "Ġfell",
        "ow"
      ],
      [
        "Up",
        "on"
      ],
      [
        "HORTENS",
        "IO"
      ],
      [
        "FRI",
        "AR"
      ],
      [
        ",",
        "'"
      ],
      [
        "P",
        "TIS"
      ],
      [
        "e",
        "al"
      ],
      [
        "Ġc",
        "ur"
      ],
      [
        "Ġha",
        "s"
      ],
      [
        "Ġe",
        "m"
      ],
      [
        "ur",
        "y"
      ],
      [
        "pe",
        "ct"
      ],
      [
        "BA",
        "PTIS"
      ],
      [
        "Ġban",
        "ish"
      ],
      [
        "Ġfort",
        "une"
      ],
      [
        "BAPTIS",
        "TA"
      ],
      [
        "C",
        "US"
      ],
      [
        "C",
        "OM"
      ],
      [
        "T",
        "OL"
      ],
      [
        "Y",
        "CUS"
      ],
      [
        "p",
        "l"
      ],
      [
        "p",
        "en"
      ],
      [
        "ou",
        "ch"
      ],
      [
        "Ġm",
        "erc"
      ],
      [
        "Ġm",
        "atter"
      ],
      [
        "Ġw",
        "ant"
      ],
      [
        "Ġre",
        "ven"
      ],
      [
        "Ġas",
        "s"
      ],
      [
        "Ġse",
        "nd"
      ],
      [
        "Ġpr",
        "ison"
      ],
      [
        "fe",
        "ct"
      ],
      [
        "AU",
        "TOL"
      ],
      [
        "Ġr",
        "ather"
      ],
      [
        "Ġcount",
        "ry"
      ],
      [
        "Ġdou",
        "bt"
      ],
      [
        "COM",
        "INIUS"
      ],
      [
        "AUTOL",
        "YCUS"
      ],
      [
        ".",
        "'"
      ],
      [
        "A",
        "re"
      ],
      [
        "E",
        "ven"
      ],
      [
        "M",
        "ore"
      ],
      [
        "Ġw",
        "ish"
      ],
      [
        "Ġy",
        "ears"
      ],
      [
        "Ġre",
        "ason"
      ],
      [
        "Ġli",
        "es"
      ],
      [
        "Ġon",
        "ly"
      ],
      [
        "AR",
        "ENCE"
      ],
      [
        "Th",
        "ird"
      ],
      [
        "Ġv",
        "irt"
      ],
      [
        "Ġtr",
        "uth"
      ],
      [
        "W",
        "ould"
      ],
      [
        "i",
        "or"
      ],
      [
        "m",
        "s"
      ],
      [
        "o",
        "f"
      ],
      [
        "r",
        "ance"
      ],
      [
        "Ġ",
        "But"
      ],
      [
        "Ġd",
        "an"
      ],
      [
        "Ġp",
        "ers"
      ],
      [
        "an",
        "y"
      ],
      [
        "Ġbre",
        "ath"
      ],
      [
        "Ġarm",
        "s"
      ],
      [
        "Ġdre",
        "am"
      ],
      [
        "CL",
        "ARENCE"
      ],
      [
        "pher",
        "d"
      ],
      [
        "B",
        "EN"
      ],
      [
        "M",
        "AR"
      ],
      [
        "N",
        "OR"
      ],
      [
        "d",
        "d"
      ],
      [
        "d",
        "er"
      ],
      [
        "Ġs",
        "ent"
      ],
      [
        "en",
        "er"
      ],
      [
        "Ġg",
        "i"
      ],
      [
        "Ġst",
        "ra"
      ],
      [
        "Ġsha",
        "lt"
      ],
      [
        "Ġdis",
        "c"
      ],
      [
        "VOL",
        "IO"
      ],
      [
        "Cl",
        "own"
      ],
      [
        "Ġbus",
        "iness"
      ],
      [
        "BEN",
        "VOLIO"
      ],
      [
        "A",
        "l"
      ],
      [
        "A",
        "t"
      ],
      [
        "P",
        "RO"
      ],
      [
        "S",
        "PER"
      ],
      [
        "b",
        "y"
      ],
      [
        "he",
        "d"
      ],
      [
        "Ġs",
        "en"
      ],
      [
        "Ġp",
        "rom"
      ],
      [
        "Ġho",
        "ly"
      ],
      [
        "Ġen",
        "ough"
      ],
      [
        "erv",
        "ing"
      ],
      [
        "Ġcomm",
        "and"
      ],
      [
        "UM",
        "IO"
      ],
      [
        "GR",
        "UMIO"
      ],
      [
        "PRO",
        "SPER"
      ],
      [
        "PROSPER",
        "O"
      ],
      [
        "i",
        "a"
      ],
      [
        "k",
        "en"
      ],
      [
        "Ġs",
        "ea"
      ],
      [
        "Ġw",
        "ind"
      ],
      [
        "it",
        "t"
      ],
      [
        "Ġc",
        "ra"
      ],
      [
        "Ġl",
        "ay"
      ],
      [
        "ar",
        "s"
      ],
      [
        "Ġp",
        "ity"
      ],
      [
        "at",
        "or"
      ],
      [
        "Ġbe",
        "a"
      ],
      [
        "Ġha",
        "ng"
      ],
      [
        "Ġst",
        "ran"
      ],
      [
        "Ġso",
        "ld"
      ],
      [
        "Ġsp",
        "ir"
      ],
      [
        "Ġfa",
        "re"
      ],
      [
        "Ġpr",
        "oud"
      ],
      [
        "ĠM",
        "urderer"
      ],
      [
        "Ġsw",
        "ear"
      ],
      [
        "Ġcont",
        "ent"
      ],
      [
        "MER",
        "CU"
      ],
      [
        "MERCU",
        "TIO"
      ],
      [
        "i",
        "ke"
      ],
      [
        "Ġd",
        "are"
      ],
      [
        "et",
        "er"
      ],
      [
        "Ġli",
        "ves"
      ],
      [
        "Ġde",
        "p"
      ],
      [
        "Ġse",
        "c"
      ],
      [
        "Ġv",
        "illain"
      ],
      [
        "gain",
        "st"
      ],
      [
        "ĠK",
        "ate"
      ],
      [
        "LUC",
        "ENTIO"
      ],
      [
        "Ġrem",
        "em"
      ],
      [
        "Ġnat",
        "ure"
      ],
      [
        "Ġwel",
        "come"
      ],
      [
        "P",
        "OM"
      ],
      [
        "T",
        "w"
      ],
      [
        "c",
        "om"
      ],
      [
        "u",
        "nt"
      ],
      [
        "Ġt",
        "end"
      ],
      [
        "ha",
        "m"
      ],
      [
        "Ġf",
        "ree"
      ],
      [
        "Ġg",
        "re"
      ],
      [
        "Ġg",
        "et"
      ],
      [
        "Ġin",
        "t"
      ],
      [
        "Ġwith",
        "in"
      ],
      [
        "Ġk",
        "iss"
      ],
      [
        "est",
        "er"
      ],
      [
        "ĠC",
        "ome"
      ],
      [
        "Ġgo",
        "ds"
      ],
      [
        "Ġsa",
        "w"
      ],
      [
        "Ġmad",
        "am"
      ],
      [
        "LAN",
        "D"
      ],
      [
        "Ġhapp",
        "y"
      ],
      [
        "Ġsovere",
        "ign"
      ],
      [
        "POM",
        "P"
      ],
      [
        "L",
        "INA"
      ],
      [
        "P",
        "AU"
      ],
      [
        "a",
        "pt"
      ],
      [
        "Ġs",
        "erv"
      ],
      [
        "Ġs",
        "ister"
      ],
      [
        "Ġs",
        "omet"
      ],
      [
        "ha",
        "l"
      ],
      [
        "Ġf",
        "oul"
      ],
      [
        "Ġc",
        "ity"
      ],
      [
        "ver",
        "s"
      ],
      [
        "We",
        "re"
      ],
      [
        "Ġbes",
        "eech"
      ],
      [
        "PAU",
        "LINA"
      ],
      [
        "Y",
        "ORK"
      ],
      [
        "i",
        "ent"
      ],
      [
        "u",
        "se"
      ],
      [
        "er",
        "y"
      ],
      [
        "Ġd",
        "en"
      ],
      [
        "Ġy",
        "ield"
      ],
      [
        "Ġth",
        "ree"
      ],
      [
        "Ġo",
        "ath"
      ],
      [
        "Ġyour",
        "s"
      ],
      [
        "ond",
        "er"
      ],
      [
        "ag",
        "ue"
      ],
      [
        "Ġbre",
        "ak"
      ],
      [
        "Ġmean",
        "s"
      ],
      [
        "Ġsub",
        "ject"
      ],
      [
        "get",
        "her"
      ],
      [
        "GRE",
        "MIO"
      ],
      [
        "POMP",
        "EY"
      ],
      [
        "N",
        "IA"
      ],
      [
        "O",
        "LI"
      ],
      [
        "P",
        "OLI"
      ],
      [
        "X",
        "EN"
      ],
      [
        "b",
        "alt"
      ],
      [
        "y",
        "balt"
      ],
      [
        "Ġ",
        "Nor"
      ],
      [
        "Ġa",
        "w"
      ],
      [
        "Ġm",
        "er"
      ],
      [
        "Ġw",
        "hile"
      ],
      [
        "Ġb",
        "orn"
      ],
      [
        "Ġth",
        "ings"
      ],
      [
        "Ġh",
        "orse"
      ],
      [
        "an",
        "c"
      ],
      [
        "us",
        "ic"
      ],
      [
        "AN",
        "T"
      ],
      [
        "Ġblood",
        "y"
      ],
      [
        "Ġlook",
        "s"
      ],
      [
        "ef",
        "t"
      ],
      [
        "UM",
        "NIA"
      ],
      [
        "li",
        "ke"
      ],
      [
        "che",
        "s"
      ],
      [
        "VOL",
        "UMNIA"
      ],
      [
        "POLI",
        "XEN"
      ],
      [
        "POLIXEN",
        "ES"
      ],
      [
        "G",
        "ON"
      ],
      [
        "H",
        "er"
      ],
      [
        "r",
        "ong"
      ],
      [
        "u",
        "p"
      ],
      [
        "u",
        "es"
      ],
      [
        "Ġt",
        "em"
      ],
      [
        "Ġw",
        "in"
      ],
      [
        "Ġw",
        "ound"
      ],
      [
        "Ġf",
        "ire"
      ],
      [
        "en",
        "ger"
      ],
      [
        "Ġyour",
        "self"
      ],
      [
        "Ġsu",
        "pp"
      ],
      [
        "Ġsp",
        "o"
      ],
      [
        "Ġfa",
        "ith"
      ],
      [
        "ING",
        "S"
      ],
      [
        "ĠS",
        "erving"
      ],
      [
        "Ġma",
        "j"
      ],
      [
        "ST",
        "INGS"
      ],
      [
        "Ġtra",
        "itor"
      ],
      [
        "cent",
        "io"
      ],
      [
        "ĠServing",
        "man"
      ],
      [
        "R",
        "ENCE"
      ],
      [
        "S",
        "ay"
      ],
      [
        "b",
        "s"
      ],
      [
        "b",
        "roke"
      ],
      [
        "re",
        "m"
      ],
      [
        "Ġd",
        "ru"
      ],
      [
        "Ġl",
        "am"
      ],
      [
        "ess",
        "enger"
      ],
      [
        "ĠL",
        "AU"
      ],
      [
        "Ġmar",
        "k"
      ],
      [
        "Ġcomm",
        "on"
      ],
      [
        "HA",
        "STINGS"
      ],
      [
        "Ġchild",
        "ren"
      ],
      [
        "ert",
        "ain"
      ],
      [
        "Ġmist",
        "ress"
      ],
      [
        "ĠLAU",
        "RENCE"
      ],
      [
        "B",
        "Y"
      ],
      [
        "B",
        "ER"
      ],
      [
        "Ġc",
        "ond"
      ],
      [
        "Ġbe",
        "at"
      ],
      [
        "Ġre",
        "qu"
      ],
      [
        "Ġde",
        "f"
      ],
      [
        "Ġv",
        "al"
      ],
      [
        "Ġun",
        "cle"
      ],
      [
        "There",
        "fore"
      ],
      [
        "for",
        "m"
      ],
      [
        "Ġmaj",
        "esty"
      ],
      [
        "C",
        "LI"
      ],
      [
        "F",
        "F"
      ],
      [
        "L",
        "ook"
      ],
      [
        "W",
        "as"
      ],
      [
        "Ġa",
        "ff"
      ],
      [
        "Ġs",
        "in"
      ],
      [
        "Ġm",
        "et"
      ],
      [
        "Ġl",
        "ate"
      ],
      [
        "Ġl",
        "eft"
      ],
      [
        "Ġto",
        "ld"
      ],
      [
        "Ġso",
        "on"
      ],
      [
        "Ġse",
        "en"
      ],
      [
        "Ġsa",
        "ve"
      ],
      [
        "Ġday",
        "s"
      ],
      [
        "UM",
        "BER"
      ],
      [
        "TH",
        "UMBER"
      ],
      [
        "Ġwo",
        "e"
      ],
      [
        "ĠEng",
        "land"
      ],
      [
        "NOR",
        "THUMBER"
      ],
      [
        "Ġtend",
        "er"
      ],
      [
        "CLI",
        "FF"
      ],
      [
        "NORTHUMBER",
        "LAND"
      ],
      [
        "I",
        "D"
      ],
      [
        "T",
        "ake"
      ],
      [
        "b",
        "ed"
      ],
      [
        "e",
        "ver"
      ],
      [
        "r",
        "ing"
      ],
      [
        "t",
        "en"
      ],
      [
        "Ġs",
        "ight"
      ],
      [
        "Ġm",
        "on"
      ],
      [
        "Ġg",
        "ener"
      ],
      [
        "id",
        "es"
      ],
      [
        "id",
        "ow"
      ],
      [
        "Ġdo",
        "es"
      ],
      [
        "Thou",
        "gh"
      ],
      [
        "Ġret",
        "urn"
      ],
      [
        "Ġmerc",
        "y"
      ],
      [
        "Ġfare",
        "well"
      ],
      [
        "a",
        "c"
      ],
      [
        "d",
        "om"
      ],
      [
        "m",
        "p"
      ],
      [
        "Ġ",
        "AN"
      ],
      [
        "he",
        "s"
      ],
      [
        "Ġs",
        "it"
      ],
      [
        "Ġs",
        "ad"
      ],
      [
        "re",
        "l"
      ],
      [
        "Ġde",
        "ep"
      ],
      [
        "ter",
        "s"
      ],
      [
        "Ġgo",
        "ld"
      ],
      [
        "un",
        "es"
      ],
      [
        "Ġmar",
        "ry"
      ],
      [
        "Ġhea",
        "vy"
      ],
      [
        "Ġfo",
        "ot"
      ],
      [
        "Ġwar",
        "rant"
      ],
      [
        "ĠJ",
        "ul"
      ],
      [
        "Ġpur",
        "pose"
      ],
      [
        "Ġthr",
        "ough"
      ],
      [
        "Ġdan",
        "ger"
      ],
      [
        "ĠAN",
        "NE"
      ],
      [
        "A",
        "h"
      ],
      [
        "D",
        "id"
      ],
      [
        "G",
        "ive"
      ],
      [
        "P",
        "R"
      ],
      [
        "a",
        "im"
      ],
      [
        "i",
        "ct"
      ],
      [
        "m",
        "er"
      ],
      [
        "s",
        "o"
      ],
      [
        "u",
        "nd"
      ],
      [
        "v",
        "ent"
      ],
      [
        "Ġ",
        "ill"
      ],
      [
        "Ġc",
        "ho"
      ],
      [
        "Ġc",
        "old"
      ],
      [
        "Ġn",
        "urse"
      ],
      [
        "Ġto",
        "gether"
      ],
      [
        "Ġg",
        "row"
      ],
      [
        "our",
        "s"
      ],
      [
        "if",
        "ford"
      ],
      [
        "Ġsu",
        "re"
      ],
      [
        "ear",
        "n"
      ],
      [
        "CA",
        "PULET"
      ],
      [
        "ign",
        "ior"
      ],
      [
        "INC",
        "E"
      ],
      [
        "Ġdes",
        "er"
      ],
      [
        "ment",
        "s"
      ],
      [
        "PR",
        "INCE"
      ],
      [
        "a",
        "z"
      ],
      [
        "a",
        "id"
      ],
      [
        "c",
        "a"
      ],
      [
        "o",
        "int"
      ],
      [
        "Ġt",
        "imes"
      ],
      [
        "or",
        "iol"
      ],
      [
        "ing",
        "broke"
      ],
      [
        "ce",
        "ed"
      ],
      [
        "Ġwith",
        "out"
      ],
      [
        "ent",
        "y"
      ],
      [
        "Ġas",
        "k"
      ],
      [
        "ro",
        "ss"
      ],
      [
        "us",
        "h"
      ],
      [
        "Ġlo",
        "st"
      ],
      [
        "are",
        "well"
      ],
      [
        "ol",
        "ingbroke"
      ],
      [
        "Ġpl",
        "uck"
      ],
      [
        "Ġrep",
        "ort"
      ],
      [
        "Ġlie",
        "ge"
      ],
      [
        "Ġbel",
        "ieve"
      ],
      [
        "Ġspir",
        "it"
      ],
      [
        "l",
        "ing"
      ],
      [
        "s",
        "h"
      ],
      [
        "x",
        "t"
      ],
      [
        "Ġa",
        "ir"
      ],
      [
        "Ġa",
        "ge"
      ],
      [
        "ou",
        "th"
      ],
      [
        "Ġw",
        "at"
      ],
      [
        "Ġhe",
        "ir"
      ],
      [
        "et",
        "s"
      ],
      [
        "ain",
        "s"
      ],
      [
        "Ġthy",
        "self"
      ],
      [
        "if",
        "t"
      ],
      [
        "Ġlo",
        "ss"
      ],
      [
        "ĠM",
        "ont"
      ],
      [
        "Ġsay",
        "s"
      ],
      [
        "ĠB",
        "olingbroke"
      ],
      [
        "Who",
        "se"
      ],
      [
        "On",
        "e"
      ],
      [
        "Ġstran",
        "ge"
      ],
      [
        "A",
        "LO"
      ],
      [
        "H",
        "ad"
      ],
      [
        "i",
        "al"
      ],
      [
        "n",
        "o"
      ],
      [
        "n",
        "er"
      ],
      [
        "Ġb",
        "at"
      ],
      [
        "Ġc",
        "ry"
      ],
      [
        "Ġl",
        "earn"
      ],
      [
        "ce",
        "d"
      ],
      [
        "Ġsu",
        "ff"
      ],
      [
        "ak",
        "ing"
      ],
      [
        "Ġear",
        "s"
      ],
      [
        "Ġhast",
        "e"
      ],
      [
        "ĠCl",
        "ifford"
      ],
      [
        "Ġent",
        "reat"
      ],
      [
        "Ġdev",
        "il"
      ],
      [
        "Ġgr",
        "ound"
      ],
      [
        "Sh",
        "ould"
      ],
      [
        "Ġpers",
        "on"
      ],
      [
        "ĠJul",
        "iet"
      ],
      [
        "L",
        "ike"
      ],
      [
        "W",
        "h"
      ],
      [
        "g",
        "es"
      ],
      [
        "n",
        "ight"
      ],
      [
        "Ġm",
        "ur"
      ],
      [
        "in",
        "ed"
      ],
      [
        "Ġf",
        "ly"
      ],
      [
        "Ġto",
        "ward"
      ],
      [
        "Ġp",
        "ast"
      ],
      [
        "om",
        "an"
      ],
      [
        "le",
        "t"
      ],
      [
        "Ġfa",
        "st"
      ],
      [
        "Ġv",
        "is"
      ],
      [
        "au",
        "d"
      ],
      [
        "ĠL",
        "u"
      ],
      [
        "Ġpo",
        "int"
      ],
      [
        "Ġfri",
        "ar"
      ],
      [
        "Ġdis",
        "p"
      ],
      [
        "Ġsl",
        "ain"
      ],
      [
        "Ġbet",
        "w"
      ],
      [
        "ĠF",
        "rance"
      ],
      [
        "ix",
        "t"
      ],
      [
        "Ġjust",
        "ice"
      ],
      [
        "Ġstra",
        "ight"
      ],
      [
        "Ġremem",
        "ber"
      ],
      [
        "A",
        "PULET"
      ],
      [
        "F",
        "L"
      ],
      [
        "F",
        "ID"
      ],
      [
        "I",
        "Z"
      ],
      [
        "M",
        "ay"
      ],
      [
        "S",
        "ome"
      ],
      [
        "Ġ",
        "ord"
      ],
      [
        "Ġs",
        "il"
      ],
      [
        "in",
        "a"
      ],
      [
        "Ġb",
        "old"
      ],
      [
        "Ġc",
        "urse"
      ],
      [
        "Ġn",
        "ear"
      ],
      [
        "ut",
        "ion"
      ],
      [
        "Ġst",
        "rong"
      ],
      [
        "The",
        "se"
      ],
      [
        "ĠC",
        "APULET"
      ],
      [
        "OR",
        "IZ"
      ],
      [
        "Ġwor",
        "thy"
      ],
      [
        "Ġqu",
        "ick"
      ],
      [
        "AU",
        "FID"
      ],
      [
        "entle",
        "man"
      ],
      [
        "Ġtru",
        "st"
      ],
      [
        "Ġal",
        "one"
      ],
      [
        "Ġdes",
        "ire"
      ],
      [
        "Ġinst",
        "ru"
      ],
      [
        "Ġbea",
        "uty"
      ],
      [
        "Ġserv",
        "ice"
      ],
      [
        "FL",
        "ORIZ"
      ],
      [
        "AUFID",
        "IUS"
      ],
      [
        "FLORIZ",
        "EL"
      ],
      [
        "C",
        "an"
      ],
      [
        "S",
        "E"
      ],
      [
        "T",
        "ell"
      ],
      [
        "V",
        "ER"
      ],
      [
        "g",
        "s"
      ],
      [
        "n",
        "ing"
      ],
      [
        "s",
        "hip"
      ],
      [
        "w",
        "ith"
      ],
      [
        "Ġt",
        "ouch"
      ],
      [
        "Ġf",
        "ound"
      ],
      [
        "it",
        "he"
      ],
      [
        "ĠI",
        "s"
      ],
      [
        "ad",
        "am"
      ],
      [
        "Ġre",
        "ady"
      ],
      [
        "IO",
        "N"
      ],
      [
        "Ġbr",
        "ought"
      ],
      [
        "ure",
        "d"
      ],
      [
        "Ġpo",
        "ss"
      ],
      [
        "ĠT",
        "ybalt"
      ],
      [
        "Ġru",
        "n"
      ],
      [
        "Ġhar",
        "d"
      ],
      [
        "Ġenem",
        "y"
      ],
      [
        "Ġreven",
        "ge"
      ],
      [
        "Ġgener",
        "al"
      ],
      [
        "aud",
        "io"
      ],
      [
        "!",
        "'"
      ],
      [
        "H",
        "a"
      ],
      [
        "i",
        "ble"
      ],
      [
        "v",
        "o"
      ],
      [
        "Ġ",
        "Here"
      ],
      [
        "Ġw",
        "oo"
      ],
      [
        "Ġd",
        "uty"
      ],
      [
        "en",
        "ator"
      ],
      [
        "Ġg",
        "rant"
      ],
      [
        "Ġin",
        "f"
      ],
      [
        "ce",
        "pt"
      ],
      [
        "Ġit",
        "self"
      ],
      [
        "am",
        "ill"
      ],
      [
        "Ġlo",
        "se"
      ],
      [
        "au",
        "nt"
      ],
      [
        "Ġknow",
        "s"
      ],
      [
        "Ġcan",
        "st"
      ],
      [
        "ĠS",
        "enator"
      ],
      [
        "ink",
        "s"
      ],
      [
        "um",
        "ber"
      ],
      [
        "Ġmar",
        "ried"
      ],
      [
        "Ġthought",
        "s"
      ],
      [
        "Ġchar",
        "ge"
      ],
      [
        "A",
        "gainst"
      ],
      [
        "B",
        "ec"
      ],
      [
        "C",
        "IUS"
      ],
      [
        "R",
        "ICHARD"
      ],
      [
        "S",
        "p"
      ],
      [
        "c",
        "ester"
      ],
      [
        "e",
        "ep"
      ],
      [
        "g",
        "u"
      ],
      [
        "l",
        "ou"
      ],
      [
        "s",
        "ue"
      ],
      [
        "u",
        "a"
      ],
      [
        "Ġ",
        "You"
      ],
      [
        "Ġm",
        "orn"
      ],
      [
        "Ġwe",
        "ar"
      ],
      [
        "ri",
        "age"
      ],
      [
        "Ġre",
        "ad"
      ],
      [
        "Ġde",
        "li"
      ],
      [
        "Ġsp",
        "eed"
      ],
      [
        "Ġqu",
        "ar"
      ],
      [
        "Ġpro",
        "f"
      ],
      [
        "Ġtw",
        "enty"
      ],
      [
        "Ġstand",
        "s"
      ],
      [
        "BA",
        "ST"
      ],
      [
        "She",
        "pherd"
      ],
      [
        "che",
        "d"
      ],
      [
        "Ġhour",
        "s"
      ],
      [
        "Ġconf",
        "ess"
      ],
      [
        "Ġstre",
        "ng"
      ],
      [
        "SE",
        "BAST"
      ],
      [
        "ithe",
        "e"
      ],
      [
        "SEBAST",
        "IAN"
      ],
      [
        "O",
        "W"
      ],
      [
        "c",
        "ess"
      ],
      [
        "Ġ",
        "N"
      ],
      [
        "Ġm",
        "ock"
      ],
      [
        "Ġf",
        "ur"
      ],
      [
        "Ġf",
        "ore"
      ],
      [
        "Ġf",
        "ield"
      ],
      [
        "on",
        "es"
      ],
      [
        "Ġd",
        "iv"
      ],
      [
        "Ġc",
        "ar"
      ],
      [
        "Ġyou",
        "th"
      ],
      [
        "Ġp",
        "ost"
      ],
      [
        "Ġhe",
        "ll"
      ],
      [
        "ing",
        "ham"
      ],
      [
        "Ġha",
        "lf"
      ],
      [
        "oo",
        "p"
      ],
      [
        "Th",
        "us"
      ],
      [
        "ĠR",
        "i"
      ],
      [
        "ol",
        "k"
      ],
      [
        "fe",
        "ction"
      ],
      [
        "ĠH",
        "ast"
      ],
      [
        "Ġj",
        "ud"
      ],
      [
        "um",
        "p"
      ],
      [
        "Ġex",
        "ec"
      ],
      [
        "Ġfear",
        "ful"
      ],
      [
        "Ġcoun",
        "sel"
      ],
      [
        "amill",
        "o"
      ],
      [
        "B",
        "ION"
      ],
      [
        "C",
        "om"
      ],
      [
        "D",
        "EL"
      ],
      [
        "T",
        "ill"
      ],
      [
        "m",
        "ost"
      ],
      [
        "p",
        "are"
      ],
      [
        "Ġt",
        "er"
      ],
      [
        "Ġm",
        "in"
      ],
      [
        "Ġw",
        "ret"
      ],
      [
        "Ġb",
        "os"
      ],
      [
        "Ġp",
        "ar"
      ],
      [
        "Ġbe",
        "hold"
      ],
      [
        "Ġin",
        "c"
      ],
      [
        "Ġe",
        "ach"
      ],
      [
        "ad",
        "s"
      ],
      [
        "Ġre",
        "c"
      ],
      [
        "Ġde",
        "l"
      ],
      [
        "ĠC",
        "oriol"
      ],
      [
        "ol",
        "s"
      ],
      [
        "Ġwor",
        "k"
      ],
      [
        "ort",
        "al"
      ],
      [
        "Ġheart",
        "s"
      ],
      [
        "Ġmar",
        "riage"
      ],
      [
        "Ġdes",
        "p"
      ],
      [
        "ĠCl",
        "audio"
      ],
      [
        "itizen",
        "s"
      ],
      [
        "uck",
        "ingham"
      ],
      [
        "Ġres",
        "ol"
      ],
      [
        "MAR",
        "CIUS"
      ],
      [
        "ĠMont",
        "ague"
      ],
      [
        "lou",
        "cester"
      ],
      [
        "BION",
        "DEL"
      ],
      [
        "Ġbos",
        "om"
      ],
      [
        "BIONDEL",
        "LO"
      ],
      [
        "A",
        "way"
      ],
      [
        "M",
        "ON"
      ],
      [
        "M",
        "adam"
      ],
      [
        "b",
        "ly"
      ],
      [
        "f",
        "olk"
      ],
      [
        "i",
        "ers"
      ],
      [
        "n",
        "ow"
      ],
      [
        "Ġ",
        "The"
      ],
      [
        "Ġt",
        "it"
      ],
      [
        "Ġt",
        "en"
      ],
      [
        "Ġt",
        "ale"
      ],
      [
        "Ġb",
        "ound"
      ],
      [
        "Ġd",
        "am"
      ],
      [
        "Ġc",
        "ut"
      ],
      [
        "en",
        "ch"
      ],
      [
        "Ġy",
        "e"
      ],
      [
        "Ġo",
        "pen"
      ],
      [
        "ra",
        "h"
      ],
      [
        "al",
        "m"
      ],
      [
        "ĠC",
        "ap"
      ],
      [
        "Ġsh",
        "ort"
      ],
      [
        "Ġknow",
        "n"
      ],
      [
        "ĠB",
        "uckingham"
      ],
      [
        "Ġsee",
        "k"
      ],
      [
        "Ġhar",
        "m"
      ],
      [
        "Ġcomp",
        "any"
      ],
      [
        "Ġgu",
        "ilt"
      ],
      [
        "Ġhigh",
        "ness"
      ],
      [
        "Ġstri",
        "ke"
      ],
      [
        "Ġatt",
        "end"
      ],
      [
        "Ġser",
        "ve"
      ],
      [
        "Ġmur",
        "der"
      ],
      [
        "ĠHast",
        "ings"
      ],
      [
        "F",
        "arewell"
      ],
      [
        "H",
        "ER"
      ],
      [
        "O",
        "P"
      ],
      [
        "c",
        "han"
      ],
      [
        "h",
        "ood"
      ],
      [
        "Ġ",
        "ve"
      ],
      [
        "Ġ",
        "He"
      ],
      [
        "Ġ",
        "AU"
      ],
      [
        "Ġa",
        "g"
      ],
      [
        "Ġs",
        "at"
      ],
      [
        "Ġs",
        "ide"
      ],
      [
        "Ġw",
        "hi"
      ],
      [
        "Ġw",
        "atch"
      ],
      [
        "re",
        "st"
      ],
      [
        "is",
        "hed"
      ],
      [
        "Ġf",
        "eel"
      ],
      [
        "Ġd",
        "ish"
      ],
      [
        "Ġd",
        "ist"
      ],
      [
        "ent",
        "s"
      ],
      [
        "and",
        "er"
      ],
      [
        "Ġsu",
        "it"
      ],
      [
        "Ġlo",
        "ving"
      ],
      [
        "ON",
        "IO"
      ],
      [
        "Ġhon",
        "est"
      ],
      [
        "Ġheaven",
        "s"
      ],
      [
        "Ġtri",
        "b"
      ],
      [
        "MER",
        "LE"
      ],
      [
        "Ġdra",
        "w"
      ],
      [
        "Ġvo",
        "ices"
      ],
      [
        "Ġsomet",
        "hing"
      ],
      [
        "ANT",
        "ONIO"
      ],
      [
        "Ġstreng",
        "th"
      ],
      [
        "ĠAU",
        "MERLE"
      ],
      [
        "M",
        "arry"
      ],
      [
        "P",
        "ray"
      ],
      [
        "S",
        "ee"
      ],
      [
        "Z",
        "ALO"
      ],
      [
        "f",
        "id"
      ],
      [
        "g",
        "ing"
      ],
      [
        "Ġa",
        "ct"
      ],
      [
        "Ġs",
        "ake"
      ],
      [
        "Ġw",
        "ast"
      ],
      [
        "Ġw",
        "onder"
      ],
      [
        "Ġw",
        "idow"
      ],
      [
        "Ġb",
        "it"
      ],
      [
        "Ġc",
        "or"
      ],
      [
        "Ġst",
        "o"
      ],
      [
        "Ġst",
        "ir"
      ],
      [
        "ĠG",
        "entleman"
      ],
      [
        "ĠG",
        "loucester"
      ],
      [
        "ĠL",
        "anc"
      ],
      [
        "Ġdid",
        "st"
      ],
      [
        "Ġgentle",
        "men"
      ],
      [
        "Ġcl",
        "oud"
      ],
      [
        "Ġwom",
        "en"
      ],
      [
        "eth",
        "inks"
      ],
      [
        "Ġenem",
        "ies"
      ],
      [
        "GON",
        "ZALO"
      ],
      [
        "ĠLanc",
        "aster"
      ],
      [
        "U",
        "nt"
      ],
      [
        "i",
        "ves"
      ],
      [
        "s",
        "u"
      ],
      [
        "Ġs",
        "ing"
      ],
      [
        "Ġm",
        "usic"
      ],
      [
        "re",
        "w"
      ],
      [
        "Ġb",
        "reat"
      ],
      [
        "Ġd",
        "r"
      ],
      [
        "Ġp",
        "ra"
      ],
      [
        "Ġp",
        "ie"
      ],
      [
        "Ġp",
        "ale"
      ],
      [
        "Ġg",
        "ates"
      ],
      [
        "oo",
        "se"
      ],
      [
        "ra",
        "ce"
      ],
      [
        "il",
        "s"
      ],
      [
        "ĠC",
        "amillo"
      ],
      [
        "Ġne",
        "xt"
      ],
      [
        "Ġkn",
        "ew"
      ],
      [
        "Ġcom",
        "ing"
      ],
      [
        "Ġthan",
        "ks"
      ],
      [
        "Ġcl",
        "ose"
      ],
      [
        "Ġple",
        "asure"
      ],
      [
        "Ġsoul",
        "s"
      ],
      [
        "ian",
        "ca"
      ],
      [
        "Ġcour",
        "se"
      ],
      [
        "Ġent",
        "er"
      ],
      [
        "Ġwit",
        "hal"
      ],
      [
        "Ġbra",
        "ve"
      ],
      [
        "Ġche",
        "e"
      ],
      [
        "ceive",
        "d"
      ],
      [
        "Ġtit",
        "le"
      ],
      [
        "D",
        "IO"
      ],
      [
        "f",
        "ter"
      ],
      [
        "n",
        "e"
      ],
      [
        "v",
        "our"
      ],
      [
        "y",
        "ou"
      ],
      [
        "Ġt",
        "y"
      ],
      [
        "Ġw",
        "a"
      ]
    ]
  }
}