{
  "version": "1.0",
  "truncation": null,
  "padding": null,
  "added_tokens": [
    {
      "id": 0,
      "content": "<unk>",
      "single_word": false,
      "lstrip": false,
      "rstrip": false,
      "normalized": false,
      "special": true
    },
    {
      "id": 1,
      "content": "<endOfText>",
      "single_word": false,
      "lstrip": false,
      "rstrip": false,
      "normalized": false,
      "special": true
    },
    {
      "id": 2,
      "content": "<human>",
      "single_word": false,
      "lstrip": false,
      "rstrip": false,
      "normalized": false,
      "special": true
    },
    {
      "id": 3,
      "content": "<bot>",
      "single_word": false,
      "lstrip": false,
      "rstrip": false,
      "normalized": false,
      "special": true
    }
  ],
  "normalizer": null,
  "pre_tokenizer": {
    "type": "ByteLevel",
    "add_prefix_space": false,
    "trim_offsets": true,
    "use_regex": true
  },
  "post_processor": null,
  "decoder": {
    "type": "ByteLevel",
    "add_prefix_space": true,
    "trim_offsets": true,
    "use_regex": true
  },
  "model": {
    "type": "BPE",
    "dropout": null,
    "unk_token": "<unk>",
    "continuing_subword_prefix": null,
    "end_of_word_suffix": null,
    "fuse_unk": false,
    "byte_fallback": false,
    "ignore_merges": false,
    "vocab": {
      "<unk>": 0,
      "<endOfText>": 1,
      "<human>": 2,
      "<bot>": 3,
      "!": 4,
      "\"": 5,
      "#": 6,
      "$": 7,
      "%": 8,
      "&": 9,
      "'": 10,
      "(": 11,
      ")": 12,
      "*": 13,
      "+": 14,
      ",": 15,
      "-": 16,
      ".": 17,
      "/": 18,
      "0": 19,
      "1": 20,
      "2": 21,
      "3": 22,
      "4": 23,
      "5": 24,
      "6": 25,
      "7": 26,
      "8": 27,
      "9": 28,
      ":": 29,
      ";": 30,
      "<": 31,
      "=": 32,
      ">": 33,
      "?": 34,
      "@": 35,
      "A": 36,
      "B": 37,
      "C": 38,
      "D": 39,
      "E": 40,
      "F": 41,
      "G": 42,
      "H": 43,
      "I": 44,
      "J": 45,
      "K": 46,
      "L": 47,
      "M": 48,
      "N": 49,
      "O": 50,
      "P": 51,
      "Q": 52,
      "R": 53,
      "S": 54,
      "T": 55,
      "U": 56,
      "V": 57,
      "W": 58,
      "X": 59,
      "Y": 60,
      "Z": 61,
      "[": 62,
      "\\": 63,
      "]": 64,
      "^": 65,
      "_": 66,
      "`": 67,
      "a": 68,
      "b": 69,
      "c": 70,
      "d": 71,
      "e": 72,
      "f": 73,
      "g": 74,
      "h": 75,
      "i": 76,
      "j": 77,
      "k": 78,
      "l": 79,
      "m": 80,
      "n": 81,
      "o": 82,
      "p": 83,
      "q": 84,
      "r": 85,
      "s": 86,
      "t": 87,
      "u": 88,
      "v": 89,
      "w": 90,
      "x": 91,
      "y": 92,
      "z": 93,
      "{": 94,
      "|": 95,
      "}": 96,
      "~": 97,
      "¡": 98,
      "¢": 99,
      "£": 100,
      "¤": 101,
      "¥": 102,
      "¦": 103,
      "§": 104,
      "¨": 105,
      "©": 106,
      "ª": 107,
      "«": 108,
      "¬": 109,
      "®": 110,
      "¯": 111,
      "°": 112,
      "±": 113,
      "²": 114,
      "³": 115,
      "´": 116,
      "µ": 117,
      "¶": 118,
      "·": 119,
      "¸": 120,
      "¹": 121,
      "º": 122,
      "»": 123,
      "¼": 124,
      "½": 125,
      "¾": 126,
      "¿": 127,
      "Â": 128,
      "Ã": 129,
      "Ä": 130,
      "Å": 131,
      "Æ": 132,
      "Ç": 133,
      "È": 134,
      "É": 135,
      "Ê": 136,
      "Ë": 137,
      "Ì": 138,
      "Í": 139,
      "Î": 140,
      "Ï": 141,
      "Ð": 142,
      "Ñ": 143,
      "×": 144,
      "Ø": 145,
      "Ù": 146,
      "Ú": 147,
      "Û": 148,
      "à": 149,
      "á": 150,
      "â": 151,
      "ã": 152,
      "ä": 153,
      "å": 154,
      "æ": 155,
      "ç": 156,
      "è": 157,
      "é": 158,
      "ê": 159,
      "ë": 160,
      "ì": 161,
      "í": 162,
      "ï": 163,
      "ð": 164,
      "ĉ": 165,
      "Ċ": 166,
      "Ġ": 167,
      "Ģ": 168,
      "ģ": 169,
      "Ĥ": 170,
      "ĥ": 171,
      "Ħ": 172,
      "ħ": 173,
      "Ĩ": 174,
      "ĩ": 175,
      "Ī": 176,
      "ī": 177,
      "Ĭ": 178,
      "ĭ": 179,
      "Į": 180,
      "į": 181,
      "İ": 182,
      "ı": 183,
      "Ĳ": 184,
      "ĳ": 185,
      "Ĵ": 186,
      "ĵ": 187,
      "Ķ": 188,
      "ķ": 189,
      "ĸ": 190,
      "Ĺ": 191,
      "ĺ": 192,
      "Ļ": 193,
      "ļ": 194,
      "Ľ": 195,
      "ľ": 196,
      "Ŀ": 197,
      "ŀ": 198,
      "Ł": 199,
      "ł": 200,
      "Ń": 201,
      "Ġt": 202,
      "Ġa": 203,
      "he": 204,
      "in": 205,
      "er": 206,
      "nd": 207,
      "Ġthe": 208,
      "on": 209,
      "re": 210,
      "Ġo": 211,
      "Ġs": 212,
      "at": 213,
      "an": 214,
      "is": 215,
      "Ġc": 216,
      "Ġw": 217,
      "es": 218,
      "en": 219,
      "or": 220,
      "ed": 221,
      "it": 222,
      "al": 223,
      "Ġf": 224,
      "ar": 225,
      "Ġb": 226,
      "Ġp": 227,
      "Ġin": 228,
      "Ġof": 229,
      "ing": 230,
      "Ġand": 231,
      "Ġm": 232,
      "ic": 233,
      "ou": 234,
      "as": 235,
      "Ġto": 236,
      "Ġd": 237,
      "ion": 238,
      "le": 239,
      "om": 240,
      "ex": 241,
      "end": 242,
      "Ġh": 243,
      "ot": 244,
      "ext": 245,
      "Ġis": 246,
      "ent": 247,
      "ĠT": 248,
      "il": 249,
      "Of": 250,
      "Ġl": 251,
      "Text": 252,
      "endOf": 253,
      "endOfText": 254,
      "st": 255,
      "ĠS": 256,
      "el": 257,
      "Ġre": 258,
      "ro": 259,
      "um": 260,
      "ĠA": 261,
      "am": 262,
      "ct": 263,
      "et": 264,
      "Ġth": 265,
      "Ġn": 266,
      "Ġg": 267,
      "ĠC": 268,
      "ol": 269,
      "iv": 270,
      "ĠI": 271,
      "ra": 272,
      "ch": 273,
      "ly": 274,
      "id": 275,
      "ow": 276,
      "us": 277,
      "im": 278,
      "Ġ1": 279,
      "ce": 280,
      "ĠM": 281,
      "ĠW": 282,
      "Ġfor": 283,
      "Ġon": 284,
      "ig": 285,
      "ur": 286,
      "ation": 287,
      "Ġbe": 288,
      "Ġe": 289,
      "ay": 290,
      "ĠB": 291,
      "ut": 292,
      "Ġas": 293,
      "ers": 294,
      "ir": 295,
      "ĠThe": 296,
      "uman": 297,
      "Ġst": 298,
      "ad": 299,
      "Ġare": 300,
      "ĠP": 301,
      "ul": 302,
      "bot": 303,
      ".<": 304,
      "human": 305,
      "ĠH": 306,
      "Ġy": 307,
      "ith": 308,
      "Ġ(": 309,
      "ter": 310,
      "Ġwh": 311,
      "her": 312,
      "Ġwith": 313,
      "un": 314,
      "if": 315,
      "Ġwas": 316,
      "Ġor": 317,
      "Ġan": 318,
      "Ġal": 319,
      "ĠG": 320,
      "Ġ2": 321,
      "est": 322,
      "ver": 323,
      "ĠF": 324,
      "Ġthat": 325,
      "ag": 326,
      "em": 327,
      "ist": 328,
      "ĠD": 329,
      "od": 330,
      "th": 331,
      "Ġit": 332,
      "ĠR": 333,
      "ĠN": 334,
      "Ġby": 335,
      "Ġcom": 336,
      "os": 337,
      "op": 338,
      "Ġfr": 339,
      "ĠL": 340,
      "Ġcon": 341,
      "av": 342,
      "ies": 343,
      "Ġyou": 344,
      "and": 345,
      "ĠE": 346,
      "Ġv": 347,
      "ld": 348,
      "ac": 349,
      "Ġpro": 350,
      "'s": 351,
      "ke": 352,
      "Ġde": 353,
      "oc": 354,
      "ill": 355,
      "ate": 356,
      "Ġmo": 357,
      "all": 358,
      "ab": 359,
      "Ġ19": 360,
      "ity": 361,
      "Ġat": 362,
      "res": 363,
      "ain": 364,
      "Ġr": 365,
      "Ġhe": 366,
      "ive": 367,
      "Ġ20": 368,
      "Ġfrom": 369,
      "qu": 370,
      "pe": 371,
      "ich": 372,
      "igh": 373,
      "ess": 374,
      "Ġse": 375,
      "ĠJ": 376,
      "Ġsu": 377,
      "ant": 378,
      "ĠWh": 379,
      "ort": 380,
      "Ġpl": 381,
      "se": 382,
      "art": 383,
      "ĠU": 384,
      "ia": 385,
      "nt": 386,
      "ard": 387,
      "ri": 388,
      "ud": 389,
      "Ġch": 390,
      "ap": 391,
      "Ġus": 392,
      "Ġex": 393,
      "ally": 394,
      "Ġcan": 395,
      "âĢ": 396,
      "ĠO": 397,
      "ome": 398,
      "our": 399,
      "Ġle": 400,
      "ell": 401,
      "ast": 402,
      "Ġ\"": 403,
      "?<": 404,
      "ge": 405,
      "Ġwhich": 406,
      "ated": 407,
      "ber": 408,
      "og": 409,
      "ave": 410,
      "pp": 411,
      "Ġcomp": 412,
      "ame": 413,
      "Ġsh": 414,
      "ight": 415,
      "ment": 416,
      "Ġwor": 417,
      "Ġk": 418,
      "ew": 419,
      "ĠK": 420,
      "ure": 421,
      "ian": 422,
      "ak": 423,
      "ear": 424,
      "ions": 425,
      "ip": 426,
      "rou": 427,
      "ĠSt": 428,
      "ine": 429,
      "ial": 430,
      "ong": 431,
      "00": 432,
      "ĠIn": 433,
      "so": 434,
      "ust": 435,
      "Ġwhe": 436,
      "Ġhave": 437,
      "ore": 438,
      "ther": 439,
      "Ġinc": 440,
      "mer": 441,
      "gh": 442,
      "up": 443,
      "ass": 444,
      "ect": 445,
      "ry": 446,
      "fer": 447,
      "iz": 448,
      "any": 449,
      "Ġhas": 450,
      "are": 451,
      "ide": 452,
      "ire": 453,
      "ĠIt": 454,
      "out": 455,
      "ep": 456,
      "ric": 457,
      "ould": 458,
      "age": 459,
      "Ġnot": 460,
      "ĠWhat": 461,
      "ount": 462,
      "Ġhis": 463,
      "ach": 464,
      "ary": 465,
      "Ġab": 466,
      "Ġsp": 467,
      "ub": 468,
      "ue": 469,
      "ks": 470,
      "ish": 471,
      "ous": 472,
      "Ġte": 473,
      "ran": 474,
      "Ġme": 475,
      "ood": 476,
      "low": 477,
      "act": 478,
      "ime": 479,
      "Ġalso": 480,
      "Ġco": 481,
      "du": 482,
      "Ġen": 483,
      "irst": 484,
      "per": 485,
      "ĠCh": 486,
      "ical": 487,
      "ence": 488,
      "ult": 489,
      "Ġcl": 490,
      "Ġint": 491,
      "pl": 492,
      "cc": 493,
      "vel": 494,
      "ates": 495,
      "ord": 496,
      "pt": 497,
      "Ġtheir": 498,
      "The": 499,
      "ie": 500,
      "ater": 501,
      "Ġcont": 502,
      "Ġun": 503,
      "ere": 504,
      "ack": 505,
      "Ġone": 506,
      "own": 507,
      "ff": 508,
      "Ġad": 509,
      "Ġfirst": 510,
      "ve": 511,
      "ĠV": 512,
      "ang": 513,
      "ok": 514,
      "Ġyour": 515,
      "ĠUn": 516,
      "rit": 517,
      "ake": 518,
      "Ġplay": 519,
      "Ġtra": 520,
      "lect": 521,
      "Ġthis": 522,
      "ice": 523,
      "one": 524,
      "ĠTh": 525,
      "Ġper": 526,
      "Ġdo": 527,
      "Ġmost": 528,
      "),": 529,
      "Ġother": 530,
      "Ġpr": 531,
      "ations": 532,
      "lud": 533,
      "Ġall": 534,
      "Ġim": 535,
      "Ġits": 536,
      "Ġres": 537,
      "orm": 538,
      "ound": 539,
      "Ġar": 540,
      "co": 541,
      "ĠY": 542,
      "Ġwe": 543,
      "Ġbut": 544,
      "Ġwere": 545,
      "Ġ201": 546,
      "Ġj": 547,
      "les": 548,
      "ely": 549,
      "ind": 550,
      "ree": 551,
      "ile": 552,
      "Ġne": 553,
      "ign": 554,
      "ition": 555,
      "Ġthey": 556,
      "Ġinclud": 557,
      "Ġbec": 558,
      "Ġpart": 559,
      "ib": 560,
      "Ġmore": 561,
      "Ġyear": 562,
      "ark": 563,
      "amp": 564,
      "ase": 565,
      "able": 566,
      "Ġ3": 567,
      "Ġsome": 568,
      "ory": 569,
      "Ġser": 570,
      "ace": 571,
      "ited": 572,
      "ph": 573,
      "Ġkn": 574,
      "ru": 575,
      "und": 576,
      "Ġsc": 577,
      "ĠHe": 578,
      "Ġtime": 579,
      "Ġwho": 580,
      "Ġro": 581,
      "tern": 582,
      "Ġpe": 583,
      "Ġcomm": 584,
      "ens": 585,
      "ors": 586,
      "Ġtw": 587,
      "Ġra": 588,
      "Ġout": 589,
      "we": 590,
      "Ġrec": 591,
      "reat": 592,
      "ents": 593,
      "Ġcons": 594,
      "meric": 595,
      "ance": 596,
      "Ġspe": 597,
      "ost": 598,
      "ational": 599,
      "âĢĵ": 600,
      "erm": 601,
      "ike": 602,
      "ased": 603,
      "land": 604,
      "Ġdis": 605,
      "Ġover": 606,
      "ng": 607,
      "Ġgo": 608,
      "Ġ-": 609,
      "orn": 610,
      "Ġso": 611,
      "ĠAl": 612,
      "Ġmany": 613,
      "Ġpre": 614,
      "ces": 615,
      "fter": 616,
      "Ġwhen": 617,
      "als": 618,
      "Ġabout": 619,
      "ular": 620,
      "ĠAmeric": 621,
      "ild": 622,
      "Âł": 623,
      "ĠĊ": 624,
      "Ġbet": 625,
      "int": 626,
      "Ġsuch": 627,
      "Ġwill": 628,
      "ons": 629,
      "old": 630,
      "ings": 631,
      "aus": 632,
      "Ġqu": 633,
      "Ġsy": 634,
      "hed": 635,
      "ose": 636,
      "Ġup": 637,
      "Ġdif": 638,
      "ction": 639,
      "Ġinto": 640,
      "form": 641,
      "very": 642,
      "arg": 643,
      "ople": 644,
      "ob": 645,
      "ĠInd": 646,
      "ck": 647,
      "ite": 648,
      "Ġev": 649,
      "aw": 650,
      "ress": 651,
      "Ġtwo": 652,
      "ail": 653,
      "Ġimp": 654,
      "oy": 655,
      "ick": 656,
      "Ġdes": 657,
      "ced": 658,
      "uring": 659,
      "Ġpop": 660,
      "ov": 661,
      "ific": 662,
      "Ġused": 663,
      "ning": 664,
      "lic": 665,
      "Ġthem": 666,
      "Ġapp": 667,
      "20": 668,
      "Ġworld": 669,
      "ollow": 670,
      "Ġbeen": 671,
      "Ġ200": 672,
      "Ġgen": 673,
      "ough": 674,
      "ays": 675,
      "Ġ18": 676,
      "Ġbo": 677,
      "Ġteam": 678,
      "ities": 679,
      "ne": 680,
      "Ġprodu": 681,
      "Ġcount": 682,
      "red": 683,
      "let": 684,
      ").": 685,
      "Ġthan": 686,
      "Ġag": 687,
      "ft": 688,
      "ĠUnited": 689,
      "wn": 690,
      "Ġpeople": 691,
      "Ġind": 692,
      "Ġhad": 693,
      "Ġ4": 694,
      "Ġform": 695,
      "ics": 696,
      "Ġfollow": 697,
      "rough": 698,
      "Ġact": 699,
      "Ġdiffer": 700,
      "ball": 701,
      "Ġelect": 702,
      "Ġwould": 703,
      "Ġwork": 704,
      "ween": 705,
      "19": 706,
      "round": 707,
      "Ġcol": 708,
      "ari": 709,
      "ivers": 710,
      "ward": 711,
      "hes": 712,
      "ans": 713,
      "Ġ5": 714,
      "stem": 715,
      "ied": 716,
      "ata": 717,
      "Ġuse": 718,
      "oth": 719,
      "ade": 720,
      "Ġmod": 721,
      "Ġam": 722,
      "Ġreg": 723,
      "ten": 724,
      "olog": 725,
      "Ġty": 726,
      "Ġfe": 727,
      "Ġoff": 728,
      "Ġbetween": 729,
      "Ġknown": 730,
      "ĠAs": 731,
      "ved": 732,
      "Ġwhere": 733,
      "Ġloc": 734,
      "ars": 735,
      "eg": 736,
      "ating": 737,
      "Ġafter": 738,
      "ĠThis": 739,
      "Ġbu": 740,
      "Ġthere": 741,
      "hip": 742,
      "ĠHow": 743,
      "ract": 744,
      "rib": 745,
      "ys": 746,
      "Ġwhat": 747,
      "ames": 748,
      "Ġfl": 749,
      "Ġatt": 750,
      "ower": 751,
      "Ġlike": 752,
      "ise": 753,
      "Ġph": 754,
      "Ġspec": 755,
      "ren": 756,
      "Ġacc": 757,
      "gan": 758,
      "ath": 759,
      "Ġinv": 760,
      "Ġher": 761,
      "its": 762,
      "ik": 763,
      "Ġlist": 764,
      "Ġthese": 765,
      "Ġund": 766,
      "ily": 767,
      "ins": 768,
      "Ġcent": 769,
      "ĠStates": 770,
      "Ġnum": 771,
      "Ġman": 772,
      "Ġpo": 773,
      "hen": 774,
      "rans": 775,
      "Ġear": 776,
      "ident": 777,
      "ix": 778,
      "ember": 779,
      "cess": 780,
      "Ġthrough": 781,
      "Ġyears": 782,
      "Ġbest": 783,
      "illion": 784,
      "ause": 785,
      "ĠAmerican": 786,
      "Ġmay": 787,
      "Ġeach": 788,
      "Ġrel": 789,
      "Ġnew": 790,
      "ond": 791,
      "iss": 792,
      "Ġdec": 793,
      "ĠAr": 794,
      "Ġsystem": 795,
      "ines": 796,
      "velop": 797,
      "Ġinst": 798,
      "Ġ199": 799,
      "ug": 800,
      "Ġonly": 801,
      "ject": 802,
      "ĠSp": 803,
      "Ġinter": 804,
      "Ġunder": 805,
      "Ġbl": 806,
      "ec": 807,
      "Ġdr": 808,
      "Ġfam": 809,
      "Ġprov": 810,
      "ual": 811,
      "Ġhow": 812,
      "Ġwell": 813,
      "Ġfin": 814,
      "Ġcar": 815,
      "ool": 816,
      "ify": 817,
      "ĠNew": 818,
      "Ġfound": 819,
      "ĠMar": 820,
      "Ġno": 821,
      "ets": 822,
      "ider": 823,
      "erson": 824,
      "Ġwater": 825,
      "ict": 826,
      "In": 827,
      "Ġpres": 828,
      "eld": 829,
      "Ġ202": 830,
      "Ġdifferent": 831,
      "ring": 832,
      "aj": 833,
      "ason": 834,
      "Ġsub": 835,
      "Ġneed": 836,
      "Ġsm": 837,
      "Ġcall": 838,
      "Ġdef": 839,
      "Ġass": 840,
      "Ġmus": 841,
      "ral": 842,
      "ife": 843,
      "ron": 844,
      "ros": 845,
      "Ġduring": 846,
      "outh": 847,
      "ful": 848,
      "Ġac": 849,
      "tain": 850,
      "ures": 851,
      "ee": 852,
      "Ġext": 853,
      "Ġgener": 854,
      "pen": 855,
      "Ġany": 856,
      "row": 857,
      "ork": 858,
      "ically": 859,
      "Ġif": 860,
      "io": 861,
      "Ġtrans": 862,
      "âĢĻ": 863,
      "Ġdevelop": 864,
      "att": 865,
      "oot": 866,
      "Ġdata": 867,
      "ll": 868,
      "ince": 869,
      "Ġfollowing": 870,
      "Ġcre": 871,
      "Ġrep": 872,
      "iven": 873,
      "urn": 874,
      "ock": 875,
      "Ġem": 876,
      "Ġlo": 877,
      "Ġhigh": 878,
      "fore": 879,
      "ink": 880,
      "ank": 881,
      "ĠCl": 882,
      "Ġlong": 883,
      "raph": 884,
      "cond": 885,
      "Ġmet": 886,
      "ient": 887,
      "ram": 888,
      "ts": 889,
      "Ġcap": 890,
      "ural": 891,
      "Ġ198": 892,
      "ism": 893,
      "orld": 894,
      "Ġ6": 895,
      "Ġadd": 896,
      "Ġmain": 897,
      "ever": 898,
      "Ġvari": 899,
      "Ġmade": 900,
      "other": 901,
      "ĠSh": 902,
      "Ġbeing": 903,
      "Ġthen": 904,
      "Ġpos": 905,
      "ah": 906,
      "ern": 907,
      "Ġpar": 908,
      "Ġpol": 909,
      "Ġhel": 910,
      "angu": 911,
      "Ġsk": 912,
      "anc": 913,
      "orth": 914,
      "Ġthree": 915,
      "Ġstart": 916,
      "oh": 917,
      "ative": 918,
      "Ġend": 919,
      "ublic": 920,
      "con": 921,
      "ash": 922,
      "ually": 923,
      "ĠAn": 924,
      "ĠDe": 925,
      "ĠLe": 926,
      "ting": 927,
      "iver": 928,
      "ax": 929,
      "Ġwhile": 930,
      "ized": 931,
      "Ġtyp": 932,
      "Ġdist": 933,
      "ven": 934,
      "Ġgame": 935,
      "uc": 936,
      "Ġmake": 937,
      "ĠEng": 938,
      "Ġob": 939,
      "Ġke": 940,
      "aking": 941,
      "uss": 942,
      "ature": 943,
      "ather": 944,
      "ield": 945,
      "ility": 946,
      "ilm": 947,
      "ouse": 948,
      "chool": 949,
      "ĠWorld": 950,
      "Ġshe": 951,
      "Ġrem": 952,
      "arge": 953,
      "ible": 954,
      "Ġsur": 955,
      "Ġrun": 956,
      "Ġget": 957,
      "ries": 958,
      "Ġlangu": 959,
      "ange": 960,
      "Ġcur": 961,
      "Ġinclude": 962,
      "ined": 963,
      "Ġwin": 964,
      "Ġwon": 965,
      "Ġeff": 966,
      "Ġpass": 967,
      "ury": 968,
      "Ġpopular": 969,
      "Ġhelp": 970,
      "Ġgra": 971,
      "ĠYou": 972,
      "Ġnumber": 973,
      "Ġlarg": 974,
      "ier": 975,
      "Ġexp": 976,
      "Ġart": 977,
      "Ġcommon": 978,
      "Ġent": 979,
      "Ġlead": 980,
      "Ġsim": 981,
      "Ġshould": 982,
      "ional": 983,
      "Ġhist": 984,
      "ants": 985,
      "man": 986,
      "au": 987,
      "iet": 988,
      "Ġcould": 989,
      "ĠThere": 990,
      "Ġcalled": 991,
      "Ġmov": 992,
      "Ġincluding": 993,
      "Ġconsider": 994,
      "ote": 995,
      "az": 996,
      "Ġgood": 997,
      "000": 998,
      "imes": 999,
      "ĠFran": 1000,
      "chn": 1001,
      "Ġmin": 1002,
      "enn": 1003,
      "ished": 1004,
      "Ġstud": 1005,
      "uro": 1006,
      "Ġcity": 1007,
      "ĠCom": 1008,
      "Ġfour": 1009,
      "ement": 1010,
      "Ġserv": 1011,
      "Ġperson": 1012,
      "roup": 1013,
      "bo": 1014,
      "ĠĠ": 1015,
      "Ġboth": 1016,
      "Ġaround": 1017,
      "Ġset": 1018,
      "els": 1019,
      "cy": 1020,
      "ton": 1021,
      "gy": 1022,
      "Ġsecond": 1023,
      "rom": 1024,
      "Ġprocess": 1025,
      "Ġrefer": 1026,
      "Ġoften": 1027,
      "ious": 1028,
      "Ġmy": 1029,
      "ĠSe": 1030,
      "ments": 1031,
      "air": 1032,
      "Ġbel": 1033,
      "Ġinf": 1034,
      "uch": 1035,
      "Ġhuman": 1036,
      "Ġbre": 1037,
      "Ġgreat": 1038,
      "Ġrecord": 1039,
      "Ġown": 1040,
      "Ġsing": 1041,
      "Ġback": 1042,
      "ience": 1043,
      "ĠIs": 1044,
      "der": 1045,
      "ruct": 1046,
      "Ġstate": 1047,
      "ina": 1048,
      "Ġday": 1049,
      "Ġbecause": 1050,
      "omet": 1051,
      "Ġsoc": 1052,
      "igin": 1053,
      "Ġ196": 1054,
      "Ġ197": 1055,
      "Ġbased": 1056,
      "Ġsupp": 1057,
      "Ġsmall": 1058,
      "uit": 1059,
      "Ġret": 1060,
      "Ġmon": 1061,
      "ĠThey": 1062,
      "Ġmed": 1063,
      "rent": 1064,
      "Ġmillion": 1065,
      "Ġvis": 1066,
      "ross": 1067,
      "Ġsign": 1068,
      "af": 1069,
      "Ġmil": 1070,
      "orts": 1071,
      "Ġ7": 1072,
      "Ġname": 1073,
      "ists": 1074,
      "Ġche": 1075,
      "ajor": 1076,
      "Ġbefore": 1077,
      "ner": 1078,
      "ĠFor": 1079,
      "led": 1080,
      "ital": 1081,
      "te": 1082,
      "pect": 1083,
      "Ġrequ": 1084,
      "ices": 1085,
      "Ġdire": 1086,
      "Ġrele": 1087,
      "ird": 1088,
      "ution": 1089,
      "Ġseason": 1090,
      "ium": 1091,
      "ket": 1092,
      "ĠZ": 1093,
      "Ġdep": 1094,
      "ially": 1095,
      "Ġbecame": 1096,
      "elf": 1097,
      "alth": 1098,
      "ize": 1099,
      "Ġmat": 1100,
      "Ġfilm": 1101,
      "Ġvery": 1102,
      "Ġcountry": 1103,
      "Ġagain": 1104,
      "ble": 1105,
      "oun": 1106,
      "Ġcompany": 1107,
      "Ġpoint": 1108,
      "lish": 1109,
      "Ġpower": 1110,
      "ĠEuro": 1111,
      "Ġ8": 1112,
      "Ġwrit": 1113,
      "Ġtop": 1114,
      "ology": 1115,
      "Ġelectric": 1116,
      "Ġlife": 1117,
      "ale": 1118,
      "ĠWar": 1119,
      "ont": 1120,
      "Ġaut": 1121,
      "Ġtext": 1122,
      "ris": 1123,
      "Ġseries": 1124,
      "ining": 1125,
      "vern": 1126,
      "nam": 1127,
      "Ġmark": 1128,
      "ĠIndia": 1129,
      "Ġchar": 1130,
      "Ġtechn": 1131,
      "iversity": 1132,
      "ĠEx": 1133,
      "ague": 1134,
      "ages": 1135,
      "ision": 1136,
      "ats": 1137,
      "ene": 1138,
      "Ġ9": 1139,
      "Ġ10": 1140,
      "eng": 1141,
      "rop": 1142,
      "cept": 1143,
      "ired": 1144,
      "Ġincre": 1145,
      "Ġfood": 1146,
      "ull": 1147,
      "ĠâĢĵ": 1148,
      "Ġsol": 1149,
      "Ġap": 1150,
      "Ġhim": 1151,
      "ĠBl": 1152,
      "ĠUS": 1153,
      "Ġdoes": 1154,
      "ĠIf": 1155,
      "\",": 1156,
      "Ġlarge": 1157,
      "Ġorigin": 1158,
      "akes": 1159,
      "iving": 1160,
      "way": 1161,
      "ĠCan": 1162,
      "Ġlanguage": 1163,
      "vent": 1164,
      "ĠCol": 1165,
      "ĠEurope": 1166,
      "ootball": 1167,
      "Ġterm": 1168,
      "ĠPl": 1169,
      "Ġdid": 1170,
      "Ġeng": 1171,
      "rum": 1172,
      "'t": 1173,
      "ted": 1174,
      "Ġway": 1175,
      "Ġbas": 1176,
      "Ġsame": 1177,
      "Ġmajor": 1178,
      "ĠSc": 1179,
      "ĠAd": 1180,
      "Ġplan": 1181,
      "ai": 1182,
      "Ġarea": 1183,
      "iqu": 1184,
      "ulation": 1185,
      "arm": 1186,
      "Ġusing": 1187,
      "ues": 1188,
      "ives": 1189,
      "Ġprog": 1190,
      "Ġgroup": 1191,
      "Ġgl": 1192,
      "ĠAt": 1193,
      "Ġevery": 1194,
      "Ġimport": 1195,
      "cer": 1196,
      "ling": 1197,
      "ohn": 1198,
      "ty": 1199,
      "Ġcare": 1200,
      "Ġlater": 1201,
      "ided": 1202,
      "Ġest": 1203,
      "Ġsever": 1204,
      "Ġchild": 1205,
      "ĠWho": 1206,
      "Ġdesign": 1207,
      "Ġclass": 1208,
      "Ġmusic": 1209,
      "til": 1210,
      "ived": 1211,
      "Ġfun": 1212,
      "Ġlear": 1213,
      "Ġhome": 1214,
      "Ġresult": 1215,
      "Ġperform": 1216,
      "ampions": 1217,
      "inc": 1218,
      "Ġsince": 1219,
      "Ġair": 1220,
      "iew": 1221,
      "iness": 1222,
      "Ġcharact": 1223,
      "Ġearly": 1224,
      "ĠRe": 1225,
      "Ġav": 1226,
      "Ġpartic": 1227,
      "Ġdesc": 1228,
      "Ġexper": 1229,
      "emb": 1230,
      "reen": 1231,
      "ody": 1232,
      "conom": 1233,
      "Ġtake": 1234,
      "Ġbuild": 1235,
      "Ġdown": 1236,
      "ĠBe": 1237,
      "Ġbus": 1238,
      "here": 1239,
      "Ġval": 1240,
      "Ġfamily": 1241,
      "Ġ17": 1242,
      "Ġallow": 1243,
      "pr": 1244,
      "Ġdirect": 1245,
      "Ġmult": 1246,
      "ccess": 1247,
      "ĠShe": 1248,
      "ĠAust": 1249,
      "Ġcontro": 1250,
      "ared": 1251,
      "Ġuntil": 1252,
      "gg": 1253,
      "Ġtrad": 1254,
      "ample": 1255,
      "Ġtour": 1256,
      "Ġoper": 1257,
      "Ġorgan": 1258,
      "erv": 1259,
      "ley": 1260,
      "Ġplayed": 1261,
      "ĠGerm": 1262,
      "Ġprof": 1263,
      "Ġcontin": 1264,
      "ware": 1265,
      "Ġpur": 1266,
      "ains": 1267,
      "Ġhand": 1268,
      "hest": 1269,
      "ĠWhich": 1270,
      "Ġlargest": 1271,
      "arch": 1272,
      "ĠPh": 1273,
      "Ġschool": 1274,
      "ĠNational": 1275,
      "ĠSouth": 1276,
      "lished": 1277,
      "Ġimportant": 1278,
      "rid": 1279,
      "Ġins": 1280,
      "rand": 1281,
      "Ã©": 1282,
      "Ġlast": 1283,
      "ends": 1284,
      "Ġed": 1285,
      "Ġstre": 1286,
      "ĠJohn": 1287,
      "mp": 1288,
      "Ġopen": 1289,
      "Ġlight": 1290,
      "Ġcountries": 1291,
      "Ġcompet": 1292,
      "ness": 1293,
      "Ġshow": 1294,
      "Ġpublic": 1295,
      "ĠSw": 1296,
      "une": 1297,
      "Ġhig": 1298,
      "Ġmuch": 1299,
      "Ġadv": 1300,
      "Ġdet": 1301,
      "Ġseveral": 1302,
      "ither": 1303,
      "ĠIndian": 1304,
      "Ġcurrent": 1305,
      "Ġeffect": 1306,
      "Ġfive": 1307,
      "Ġ'": 1308,
      "alk": 1309,
      "iam": 1310,
      "ĠâĢ": 1311,
      "ĠPro": 1312,
      "ober": 1313,
      "Ġstr": 1314,
      "amed": 1315,
      "Ġexpl": 1316,
      "Ġdog": 1317,
      "Ġ195": 1318,
      "Ġgovern": 1319,
      "Ġplace": 1320,
      "Ġcomput": 1321,
      "ĠWhen": 1322,
      "Ġhistory": 1323,
      "\".": 1324,
      "Ġsum": 1325,
      "ĠCal": 1326,
      "Ġexample": 1327,
      "Ġ15": 1328,
      "Ġeconom": 1329,
      "Ġproduct": 1330,
      "ese": 1331,
      "Ġlaw": 1332,
      "Ġequ": 1333,
      "ively": 1334,
      "ĠBrit": 1335,
      "ĠOn": 1336,
      "aving": 1337,
      "Ġcentury": 1338,
      "Ġcommun": 1339,
      "day": 1340,
      "Ġold": 1341,
      "ĠQ": 1342,
      "apan": 1343,
      "ple": 1344,
      "Ġsuccess": 1345,
      "Ġfact": 1346,
      "Ġrece": 1347,
      "oci": 1348,
      "Ġword": 1349,
      "ately": 1350,
      "Ġ194": 1351,
      "ĠUniversity": 1352,
      "orp": 1353,
      "Ġland": 1354,
      "ĠNorth": 1355,
      "vers": 1356,
      "Ġcult": 1357,
      "ĠAf": 1358,
      "cle": 1359,
      "ides": 1360,
      "itions": 1361,
      "Ġeven": 1362,
      "ality": 1363,
      "Ġright": 1364,
      "omin": 1365,
      "Ġrest": 1366,
      "ified": 1367,
      "Ġanim": 1368,
      "gen": 1369,
      "ute": 1370,
      "ases": 1371,
      "Ġgrow": 1372,
      "Ġocc": 1373,
      "Ġfew": 1374,
      "Ġsee": 1375,
      "Ġfield": 1376,
      "ĠAll": 1377,
      "osed": 1378,
      "wards": 1379,
      "Ġcond": 1380,
      "Ġstand": 1381,
      "ization": 1382,
      "ĠCar": 1383,
      "Ġconsidered": 1384,
      "Ġappe": 1385,
      "Ġappro": 1386,
      "ĠHar": 1387,
      "ĠKing": 1388,
      "Ġeas": 1389,
      "Ġprogram": 1390,
      "ĠCon": 1391,
      "Ġhead": 1392,
      "Ġactiv": 1393,
      "Ġref": 1394,
      "eb": 1395,
      "Ġsal": 1396,
      "atic": 1397,
      "Ġsec": 1398,
      "Ġball": 1399,
      "Ġopp": 1400,
      "Ġjust": 1401,
      "ves": 1402,
      "ised": 1403,
      "lex": 1404,
      "to": 1405,
      "Ġperc": 1406,
      "ampionship": 1407,
      "bum": 1408,
      "Ġ16": 1409,
      "eder": 1410,
      "Ġlevel": 1411,
      "ternational": 1412,
      "Ġagainst": 1413,
      "the": 1414,
      "aster": 1415,
      "ĠWhy": 1416,
      "cl": 1417,
      "son": 1418,
      "ger": 1419,
      "Ġopt": 1420,
      "Ġnear": 1421,
      "ĠAmerica": 1422,
      "ĠEnglish": 1423,
      "ĠAm": 1424,
      "ĠHowever": 1425,
      "Ġknow": 1426,
      "iod": 1427,
      "Ġfind": 1428,
      "Ġmodel": 1429,
      "Ġtit": 1430,
      "atural": 1431,
      "oss": 1432,
      "18": 1433,
      "Ġsw": 1434,
      "Ġnet": 1435,
      "Ġconst": 1436,
      "ĠJapan": 1437,
      "tle": 1438,
      "Ġwant": 1439,
      "agn": 1440,
      "ĠGiven": 1441,
      "ences": 1442,
      "Ġteams": 1443,
      "Ġann": 1444,
      "Ġdue": 1445,
      "Ġshort": 1446,
      "Ġinfl": 1447,
      "formation": 1448,
      "Ġnamed": 1449,
      "com": 1450,
      "ĠThese": 1451,
      ".\"": 1452,
      "Ġevent": 1453,
      "Ġmarket": 1454,
      "par": 1455,
      "Ġplayer": 1456,
      "Ġ$": 1457,
      "Ġgames": 1458,
      "Ġener": 1459,
      "Ġbusiness": 1460,
      "read": 1461,
      "Ġbro": 1462,
      "ane": 1463,
      "oman": 1464,
      "yd": 1465,
      "Ġprofess": 1466,
      "10": 1467,
      "aid": 1468,
      "Ġplayers": 1469,
      "Ġsl": 1470,
      "Ġsomet": 1471,
      "Ġdescrib": 1472,
      "ann": 1473,
      "Ġfootball": 1474,
      "ots": 1475,
      "Ġless": 1476,
      "Ġthose": 1477,
      "ove": 1478,
      "Ġsour": 1479,
      "Ġresp": 1480,
      "ĠGe": 1481,
      "Ġpolit": 1482,
      "ended": 1483,
      "Ġalbum": 1484,
      "Ġoffic": 1485,
      "ĠAnd": 1486,
      "Ġ12": 1487,
      "Ġeither": 1488,
      "Ġsingle": 1489,
      "ards": 1490,
      "line": 1491,
      "Ġwithin": 1492,
      "Ġengine": 1493,
      "Ġphys": 1494,
      "Ġbody": 1495,
      "ivid": 1496,
      "Ġcomplet": 1497,
      "ĠLeague": 1498,
      "Ġtem": 1499,
      "Ġstring": 1500,
      "Ġparag": 1501,
      "Ġsupport": 1502,
      "app": 1503,
      "Ġleg": 1504,
      "now": 1505,
      "rem": 1506,
      "ĠGo": 1507,
      "itional": 1508,
      "Ġpopulation": 1509,
      "Ġhealth": 1510,
      "Ġ2022": 1511,
      "work": 1512,
      "ploy": 1513,
      "ĠAfric": 1514,
      "nect": 1515,
      "aly": 1516,
      "Ġlit": 1517,
      "Ġparagraph": 1518,
      "ether": 1519,
      "Ġtr": 1520,
      "ories": 1521,
      "Ġlocated": 1522,
      "by": 1523,
      "port": 1524,
      "Ġwar": 1525,
      "ĠPr": 1526,
      "ored": 1527,
      "ches": 1528,
      "Ġsun": 1529,
      "attle": 1530,
      "Ġreleased": 1531,
      "Ġmust": 1532,
      "ĠSan": 1533,
      "Ġbecome": 1534,
      "ĠAustral": 1535,
      "rench": 1536,
      "ĠYork": 1537,
      "gin": 1538,
      "ĠEar": 1539,
      "Ġreal": 1540,
      "Ġfri": 1541,
      "ently": 1542,
      "ĠSome": 1543,
      "Ġinvest": 1544,
      "Ġorder": 1545,
      "atch": 1546,
      "Ġposs": 1547,
      "ms": 1548,
      "ination": 1549,
      "Ġprot": 1550,
      "itive": 1551,
      "Ġusually": 1552,
      "cing": 1553,
      "ek": 1554,
      "ering": 1555,
      "Ġsong": 1556,
      "Ġbegan": 1557,
      "Ġele": 1558,
      "ried": 1559,
      "Ġprim": 1560,
      "Ġenergy": 1561,
      "iforn": 1562,
      "Ġtypically": 1563,
      "Ġnational": 1564,
      "ĠGive": 1565,
      "Ġtraining": 1566,
      "Ġborn": 1567,
      "Ġpot": 1568,
      "ĠClass": 1569,
      "ones": 1570,
      "ĠSep": 1571,
      "Ġalong": 1572,
      "lands": 1573,
      "Ġtimes": 1574,
      "Ġperiod": 1575,
      "rad": 1576,
      "ĠBritish": 1577,
      "ential": 1578,
      "ilt": 1579,
      "ĠCity": 1580,
      "Ġvisit": 1581,
      "Ġcour": 1582,
      "ifornia": 1583,
      "Ġage": 1584,
      "Ġ193": 1585,
      "200": 1586,
      "Ġnon": 1587,
      "though": 1588,
      "Ġhard": 1589,
      "oney": 1590,
      "ĠMus": 1591,
      "ada": 1592,
      "ĠId": 1593,
      "lo": 1594,
      "Ġide": 1595,
      "ode": 1596,
      "Ġprom": 1597,
      "sh": 1598,
      "Ġinterest": 1599,
      "ration": 1600,
      "sc": 1601,
      "ense": 1602,
      "oint": 1603,
      "ĠMay": 1604,
      "Ġpresident": 1605,
      "rodu": 1606,
      "Ġanother": 1607,
      "Ġdel": 1608,
      "ĠFin": 1609,
      "ending": 1610,
      "Ġcharacter": 1611,
      "ĠCalifornia": 1612,
      "Ġgiven": 1613,
      "Ġspecies": 1614,
      "pril": 1615,
      "âĢĿ": 1616,
      "ograph": 1617,
      "Ġnow": 1618,
      "Ġgu": 1619,
      "Ġmanag": 1620,
      "side": 1621,
      "Ġdays": 1622,
      "Ġlow": 1623,
      "Ġtravel": 1624,
      "ugust": 1625,
      "ilar": 1626,
      "ĠCo": 1627,
      "Ġwithout": 1628,
      "key": 1629,
      "Ġredu": 1630,
      "Ġmonth": 1631,
      "ety": 1632,
      "Ġinstrum": 1633,
      "hing": 1634,
      "Ġmar": 1635,
      "Ġled": 1636,
      "Ġthings": 1637,
      "Ġthough": 1638,
      "Ġsocial": 1639,
      "Ġes": 1640,
      "omen": 1641,
      "ney": 1642,
      "tal": 1643,
      "Ġour": 1644,
      "Ġpract": 1645,
      "resent": 1646,
      "Ġkeep": 1647,
      "atter": 1648,
      "Ġcreated": 1649,
      "Ġmaking": 1650,
      "Ġindivid": 1651,
      "Ġcapital": 1652,
      "aces": 1653,
      "Ġchildren": 1654,
      "Ġcontrol": 1655,
      "hor": 1656,
      "iron": 1657,
      "Ġcomb": 1658,
      "Ġinformation": 1659,
      "ĠAfter": 1660,
      "ze": 1661,
      "ivil": 1662,
      "Ġ14": 1663,
      "Ġobject": 1664,
      "Ġgovernment": 1665,
      "ĠOne": 1666,
      "ator": 1667,
      "Ġlive": 1668,
      "Ġstill": 1669,
      "ability": 1670,
      "Ġcer": 1671,
      "Ġcareer": 1672,
      "Ġcaus": 1673,
      "ĠApril": 1674,
      "Ġnatural": 1675,
      "Ġstates": 1676,
      "Ġfamous": 1677,
      "ask": 1678,
      "idd": 1679,
      "hod": 1680,
      "oks": 1681,
      "ĠX": 1682,
      "Ġsoft": 1683,
      "Ġspecific": 1684,
      "Ġkey": 1685,
      "ival": 1686,
      "pec": 1687,
      "la": 1688,
      "Ġband": 1689,
      "Ġmember": 1690,
      "ĠPar": 1691,
      "Ġlook": 1692,
      "ior": 1693,
      "ott": 1694,
      "ape": 1695,
      "Ġbr": 1696,
      "tember": 1697,
      "estern": 1698,
      "Ġacross": 1699,
      "orpor": 1700,
      "ana": 1701,
      "Ġways": 1702,
      "Ġhouse": 1703,
      "ways": 1704,
      "Ġthird": 1705,
      "ĠGu": 1706,
      "Ġformer": 1707,
      "ĠMarch": 1708,
      "olf": 1709,
      "ording": 1710,
      "Ġamong": 1711,
      "Ġmemb": 1712,
      "Ġconf": 1713,
      "iple": 1714,
      "ples": 1715,
      "anu": 1716,
      "ention": 1717,
      "ĠHis": 1718,
      "ËĪ": 1719,
      "Ġpub": 1720,
      "Ġside": 1721,
      "ming": 1722,
      "ĠFrom": 1723,
      "Ġvide": 1724,
      "Ġarch": 1725,
      "lear": 1726,
      "ĠOr": 1727,
      "Ġcompan": 1728,
      "Ġclub": 1729,
      "ĠCent": 1730,
      "ĠBo": 1731,
      "Ġlocal": 1732,
      "Ġdevelopment": 1733,
      "Ġfish": 1734,
      "Ġtype": 1735,
      "aut": 1736,
      "Ġhaving": 1737,
      "Ġflow": 1738,
      "Ġbeh": 1739,
      "ental": 1740,
      "Ġread": 1741,
      "ocus": 1742,
      "Ġtri": 1743,
      "Ġinvol": 1744,
      "Ġvarious": 1745,
      "Ġtypes": 1746,
      "aur": 1747,
      "less": 1748,
      "tt": 1749,
      "verage": 1750,
      "Ġdev": 1751,
      "ours": 1752,
      "ogn": 1753,
      "Ġturn": 1754,
      "ission": 1755,
      "rist": 1756,
      "Ġkm": 1757,
      "Ġindust": 1758,
      "alf": 1759,
      "asons": 1760,
      "Ġimpro": 1761,
      "oon": 1762,
      "Ġ[": 1763,
      "ister": 1764,
      "Ġsport": 1765,
      "Ġdisc": 1766,
      "ĠâĢľ": 1767,
      "ler": 1768,
      "Ġsix": 1769,
      "Ġ2021": 1770,
      "ussion": 1771,
      "ĠAugust": 1772,
      "Ġ2020": 1773,
      "Ġchang": 1774,
      "ĠGeor": 1775,
      "put": 1776,
      "Ġstruct": 1777,
      "Ġbetter": 1778,
      "ribut": 1779,
      "Ġ13": 1780,
      "ĠPark": 1781,
      "ĠNov": 1782,
      "Ġbook": 1783,
      "Ġamount": 1784,
      "ĠComm": 1785,
      "bs": 1786,
      "cis": 1787,
      "my": 1788,
      "Ġestab": 1789,
      "Ġinflu": 1790,
      "ensive": 1791,
      "born": 1792,
      "ĠII": 1793,
      "ĠRep": 1794,
      "17": 1795,
      "ĠFrench": 1796,
      "Ġbene": 1797,
      "acks": 1798,
      "ani": 1799,
      "Ġdem": 1800,
      "lege": 1801,
      "Ġtell": 1802,
      "Ġstat": 1803,
      "Ġred": 1804,
      "Ġproper": 1805,
      "ĠIdent": 1806,
      "of": 1807,
      "Ġrese": 1808,
      "ĠBar": 1809,
      "ift": 1810,
      "ĠJu": 1811,
      "Ġweight": 1812,
      "ym": 1813,
      "Ġconnect": 1814,
      "12": 1815,
      "yle": 1816,
      "ery": 1817,
      "ctober": 1818,
      "ĠTe": 1819,
      "Ġter": 1820,
      "ĠCup": 1821,
      "board": 1822,
      "Ġsit": 1823,
      "Ġcrit": 1824,
      "Ġrev": 1825,
      "cem": 1826,
      "ĠEarth": 1827,
      "Ġet": 1828,
      "Ġfre": 1829,
      "ffee": 1830,
      "Ġfinal": 1831,
      "fic": 1832,
      "Ġident": 1833,
      "Ġtotal": 1834,
      "Ġdeveloped": 1835,
      "Ġmembers": 1836,
      "med": 1837,
      "ency": 1838,
      "ĠWest": 1839,
      "for": 1840,
      "ĠIdentify": 1841,
      "joy": 1842,
      "Ġmight": 1843,
      "ama": 1844,
      "Ġsports": 1845,
      "Ġclim": 1846,
      "50": 1847,
      "Ġbase": 1848,
      "Ġmodern": 1849,
      "ged": 1850,
      "ems": 1851,
      "aced": 1852,
      "Ġwhether": 1853,
      "ountain": 1854,
      "Ġbelie": 1855,
      "Ġpercussion": 1856,
      "ires": 1857,
      "amb": 1858,
      "ued": 1859,
      "ateg": 1860,
      "Ġheld": 1861,
      "ĠMc": 1862,
      "Ġspace": 1863,
      "Ġsurf": 1864,
      "Ġpassage": 1865,
      "Ġproble": 1866,
      "ĠClassify": 1867,
      "ĠSeptember": 1868,
      "Ġfocus": 1869,
      "Ġdra": 1870,
      "cember": 1871,
      "Ġla": 1872,
      "chie": 1873,
      "ĠJune": 1874,
      "Ġsystems": 1875,
      "Ġoccur": 1876,
      "rew": 1877,
      "Ġnext": 1878,
      "ustom": 1879,
      "Ġcir": 1880,
      "ĠPe": 1881,
      "Ġsimilar": 1882,
      "Ġste": 1883,
      "ured": 1884,
      "Ġcost": 1885,
      "Ġassoci": 1886,
      "Ġ&": 1887,
      "icy": 1888,
      "ids": 1889,
      "ung": 1890,
      "ricket": 1891,
      "fact": 1892,
      "Ġsepar": 1893,
      "ĠOctober": 1894,
      "Ġmethod": 1895,
      "Ġ100": 1896,
      "ĠFl": 1897,
      "Ġtele": 1898,
      "Ġsignific": 1899,
      "oor": 1900,
      "Ġdeb": 1901,
      "epend": 1902,
      "ĠChina": 1903,
      "stand": 1904,
      "ĠSup": 1905,
      "dom": 1906,
      "Ġgr": 1907,
      "Ġgeneral": 1908,
      "ĠEd": 1909,
      "uitar": 1910,
      "ey": 1911,
      "ances": 1912,
      "Ġcamp": 1913,
      "Ġavail": 1914,
      "Ġ11": 1915,
      "Ġbillion": 1916,
      "ians": 1917,
      "Ġmach": 1918,
      "Ġhighest": 1919,
      "Ġlim": 1920,
      "Ġtre": 1921,
      "Ġpain": 1922,
      "Ġable": 1923,
      "Ġ30": 1924,
      "Ġserved": 1925,
      "Ġfeel": 1926,
      "Ġaff": 1927,
      "Ġcho": 1928,
      "Ġpresent": 1929,
      "ald": 1930,
      "ables": 1931,
      "Ġothers": 1932,
      "Ġrock": 1933,
      "ĠCount": 1934,
      "Ġconc": 1935,
      "Ġspecial": 1936,
      "Ġi": 1937,
      "atures": 1938,
      "Ġdiv": 1939,
      "Ġproject": 1940,
      "Ġmeas": 1941,
      "Ġdon": 1942,
      "Ġlate": 1943,
      "umb": 1944,
      "Ġcompanies": 1945,
      "Ġmean": 1946,
      "ancial": 1947,
      "ĠFrance": 1948,
      "ique": 1949,
      "eh": 1950,
      "ĠDecember": 1951,
      "ĠOf": 1952,
      "ĠEl": 1953,
      "Ġprofessional": 1954,
      "oes": 1955,
      "Ġcat": 1956,
      "Ġbi": 1957,
      "Ġbul": 1958,
      "ilities": 1959,
      "Ġrepresent": 1960,
      "Ġreturn": 1961,
      "ington": 1962,
      "Ġenjoy": 1963,
      "Ġz": 1964,
      "hem": 1965,
      "olution": 1966,
      "ĠWill": 1967,
      "ained": 1968,
      "Ġchange": 1969,
      "Ġregion": 1970,
      "ondon": 1971,
      "Ġlearning": 1972,
      "BA": 1973,
      "Ġproduced": 1974,
      "ĠAss": 1975,
      "Ġgenerally": 1976,
      "Ġemploy": 1977,
      "rict": 1978,
      "Ġparticular": 1979,
      "ĠHer": 1980,
      "Ġleft": 1981,
      "Ġprev": 1982,
      "ĠTo": 1983,
      "Ġgive": 1984,
      "ĠRed": 1985,
      "Ġjo": 1986,
      "ĠWe": 1987,
      "Ġview": 1988,
      "ĠEngland": 1989,
      "Ġcomputer": 1990,
      "ipp": 1991,
      "most": 1992,
      "Ġhot": 1993,
      "Ġnorth": 1994,
      "Ġmoney": 1995,
      "ĠTell": 1996,
      "anuary": 1997,
      "ps": 1998,
      "Ġpat": 1999,
      "Ġbuilt": 2000,
      "Ġhold": 2001,
      "ctor": 2002,
      "Ġtry": 2003,
      "Ġfore": 2004,
      "Ġbank": 2005,
      "ĠNo": 2006,
      "Ġreference": 2007,
      "ĠAfrica": 2008,
      "ĠNovember": 2009,
      "Ġtest": 2010,
      "ĠMan": 2011,
      "Ġapplic": 2012,
      "Ġprovide": 2013,
      "Th": 2014,
      "ched": 2015,
      "Ġbig": 2016,
      "ams": 2017,
      "urity": 2018,
      "Ġintrodu": 2019,
      "Ġlearn": 2020,
      "ĠWhile": 2021,
      "Ġsqu": 2022,
      "Ġsouth": 2023,
      "itary": 2024,
      "Ġglob": 2025,
      "Ġcor": 2026,
      "ĠBra": 2027,
      "amples": 2028,
      "Ġcook": 2029,
      "ĠEuropean": 2030,
      "Ġpress": 2031,
      "oll": 2032,
      "ills": 2033,
      "ĠJuly": 2034,
      "Ġfall": 2035,
      "Ġris": 2036,
      "âĢĶ": 2037,
      "Ġservices": 2038,
      "ef": 2039,
      "Ġmot": 2040,
      "Ġquest": 2041,
      "yl": 2042,
      "Ġcustom": 2043,
      "Ġput": 2044,
      "uck": 2045,
      "Ġtoo": 2046,
      "utes": 2047,
      "itch": 2048,
      "Ġcoffee": 2049,
      "aterial": 2050,
      "Ġcommonly": 2051,
      "30": 2052,
      "min": 2053,
      "ketball": 2054,
      "Ġachie": 2055,
      "Ġguitar": 2056,
      "ĠLondon": 2057,
      "Ġrad": 2058,
      "Ġpoints": 2059,
      "Ġleast": 2060,
      "ĠRo": 2061,
      "Ġsuper": 2062,
      "uel": 2063,
      "Ġcities": 2064,
      "Ġfounded": 2065,
      "Ġtournam": 2066,
      "Ġsignificant": 2067,
      "ener": 2068,
      "ows": 2069,
      "ĠJanuary": 2070,
      "ological": 2071,
      "viron": 2072,
      "Ġthink": 2073,
      "Ġprovided": 2074,
      "Ġhistor": 2075,
      "15": 2076,
      "ered": 2077,
      "Ġfree": 2078,
      "Ġmen": 2079,
      "ush": 2080,
      "ret": 2081,
      "Ġsaf": 2082,
      "Ġexist": 2083,
      "Ġel": 2084,
      "Ġconsum": 2085,
      "Ġservice": 2086,
      "Ġcal": 2087,
      "Ġiss": 2088,
      "ĠSing": 2089,
      "Ġrecogn": 2090,
      "Ġconsist": 2091,
      "Ġbuilding": 2092,
      "Ġstarted": 2093,
      "Ġstrong": 2094,
      "oe": 2095,
      "ĠSchool": 2096,
      "Ġvers": 2097,
      "Ġpublished": 2098,
      "Ġinit": 2099,
      "ert": 2100,
      "ino": 2101,
      "itect": 2102,
      "Ġoffer": 2103,
      "Ġreceived": 2104,
      "Ġcr": 2105,
      "Ġwood": 2106,
      "arter": 2107,
      "Ġport": 2108,
      "ĠMin": 2109,
      "Ġep": 2110,
      "Ġwritten": 2111,
      "Ġmultiple": 2112,
      "Ġvideo": 2113,
      "St": 2114,
      "Ġwid": 2115,
      "ĠTw": 2116,
      "Ġoriginal": 2117,
      "lin": 2118,
      "ĠGermany": 2119,
      "11": 2120,
      "sw": 2121,
      "Ġmaterial": 2122,
      "Ġline": 2123,
      "Ġdisco": 2124,
      "Ġtemper": 2125,
      "ev": 2126,
      "Ġtax": 2127,
      "icle": 2128,
      "ably": 2129,
      "ruary": 2130,
      "ebruary": 2131,
      "Ġsoftware": 2132,
      "Ġvol": 2133,
      "arent": 2134,
      "ption": 2135,
      "Ġrace": 2136,
      "ead": 2137,
      "Ġpost": 2138,
      "ĠAng": 2139,
      "rain": 2140,
      "Ġweek": 2141,
      "Ġblack": 2142,
      "Ġcreate": 2143,
      "No": 2144,
      "oph": 2145,
      "Ġbenef": 2146,
      "Ġlay": 2147,
      "iding": 2148,
      "Ġpolitical": 2149,
      "aim": 2150,
      "rown": 2151,
      "ago": 2152,
      "ĠGerman": 2153,
      "Ġtog": 2154,
      "urther": 2155,
      "thern": 2156,
      "Ġ2019": 2157,
      "Ġcirc": 2158,
      "ean": 2159,
      "mit": 2160,
      "ole": 2161,
      "erc": 2162,
      "Ġwhite": 2163,
      "inese": 2164,
      "Ġtechnology": 2165,
      "Ġfunction": 2166,
      "Ġaward": 2167,
      "Ġpric": 2168,
      "cean": 2169,
      "Ġcreat": 2170,
      "omm": 2171,
      "ĠCanada": 2172,
      "Ġtogether": 2173,
      "ael": 2174,
      "Ġfull": 2175,
      "ules": 2176,
      "Ġ2018": 2177,
      "Ġavailable": 2178,
      "ĠSun": 2179,
      "Ġrange": 2180,
      "Ġcollect": 2181,
      "iction": 2182,
      "Ġrequire": 2183,
      "Ġpast": 2184,
      "Ġpersonal": 2185,
      "ĠAustralia": 2186,
      "Ġlik": 2187,
      "Ġrepl": 2188,
      "ĠWith": 2189,
      "Ġstory": 2190,
      "adem": 2191,
      "Ġveg": 2192,
      "inct": 2193,
      "ales": 2194,
      "rab": 2195,
      "ĠHouse": 2196,
      "ĠRuss": 2197,
      "Ġyoung": 2198,
      "Ġrole": 2199,
      "Ġmanu": 2200,
      "Ġreferred": 2201,
      "Ġresearch": 2202,
      "time": 2203,
      "Ġtook": 2204,
      "ĠExt": 2205,
      "Ġinstrument": 2206,
      "Ġdest": 2207,
      "ĠMich": 2208,
      "ĠDav": 2209,
      "16": 2210,
      "Ġcivil": 2211,
      "Ġlot": 2212,
      "aves": 2213,
      "Ġcy": 2214,
      "omb": 2215,
      "oms": 2216,
      "Ġevents": 2217,
      "Ġaccess": 2218,
      "Ġmanufact": 2219,
      "ony": 2220,
      "Ġwind": 2221,
      "etic": 2222,
      "imately": 2223,
      "ellow": 2224,
      "Ġexperience": 2225,
      "outhern": 2226,
      "asing": 2227,
      "ĠFrancis": 2228,
      "Ch": 2229,
      "uits": 2230,
      "Ġanal": 2231,
      "Ġaccount": 2232,
      "ico": 2233,
      "Ġge": 2234,
      "osp": 2235,
      "Ġenviron": 2236,
      "iverse": 2237,
      "Ġbreak": 2238,
      "era": 2239,
      "Ġdeg": 2240,
      "Ġobs": 2241,
      "Ġpossible": 2242,
      "hern": 2243,
      "ĠGree": 2244,
      "ope": 2245,
      "Ġrunning": 2246,
      "Ġsummer": 2247,
      "Ġnetwork": 2248,
      "ĠChrist": 2249,
      "ta": 2250,
      "abor": 2251,
      "cial": 2252,
      "self": 2253,
      "anish": 2254,
      "Ġpay": 2255,
      "Ġproduction": 2256,
      "Ph": 2257,
      "reg": 2258,
      "Ġpri": 2259,
      "ĠGold": 2260,
      "ĠFebruary": 2261,
      "vision": 2262,
      "ĠAir": 2263,
      "rap": 2264,
      "Ġbegin": 2265,
      "Ġalways": 2266,
      "avor": 2267,
      "elling": 2268,
      "Ġhalf": 2269,
      "Ġspeed": 2270,
      "Ġeduc": 2271,
      "Ġsent": 2272,
      "Ġscience": 2273,
      "Ġmodels": 2274,
      "iety": 2275,
      "ges": 2276,
      "Ġareas": 2277,
      "aul": 2278,
      "Ġmilitary": 2279,
      "ĠPhil": 2280,
      "Ġactivities": 2281,
      "stit": 2282,
      "amm": 2283,
      "Ġplaying": 2284,
      "Ġappear": 2285,
      "iddle": 2286,
      "Ġoil": 2287,
      "ica": 2288,
      "Ġgreen": 2289,
      "ĠBay": 2290,
      "ĠPres": 2291,
      "ashington": 2292,
      "Ġaway": 2293,
      "erous": 2294,
      "ĠMal": 2295,
      "ĠRes": 2296,
      "Ġfinancial": 2297,
      "Ġhit": 2298,
      "ights": 2299,
      "Ġpred": 2300,
      "orthern": 2301,
      "Ġbooks": 2302,
      "Ġaverage": 2303,
      "oring": 2304,
      "Ġhours": 2305,
      "Ġegg": 2306,
      "ades": 2307,
      "199": 2308,
      "Ġvariety": 2309,
      "Ġprotect": 2310,
      "Ġfund": 2311,
      "aches": 2312,
      "Ġbecom": 2313,
      "Ġunderstand": 2314,
      "Ġneeded": 2315,
      "Ġincrease": 2316,
      "Ġcertain": 2317,
      "14": 2318,
      "Ġinternational": 2319,
      "ĠGreat": 2320,
      "raft": 2321,
      "lymp": 2322,
      "ĠFeder": 2323,
      "Ġchampionship": 2324,
      "Ġarchitect": 2325,
      "Ġsize": 2326,
      "Ġwalk": 2327,
      "ĠSer": 2328,
      "Ġwhy": 2329,
      "ĠĠĠĠ": 2330,
      "Ġfriends": 2331,
      "Ġcome": 2332,
      "aper": 2333,
      "ube": 2334,
      "Ġsuccessful": 2335,
      "Ġprevious": 2336,
      "li": 2337,
      "rated": 2338,
      "Ġlower": 2339,
      "Ġreach": 2340,
      "Ġprop": 2341,
      "Ġestablished": 2342,
      "Ġmix": 2343,
      "Ġmakes": 2344,
      "Ġnames": 2345,
      "ula": 2346,
      "ĠDo": 2347,
      "ĠJames": 2348,
      "ĠChinese": 2349,
      "ennis": 2350,
      "Ġdi": 2351,
      "Ġliving": 2352,
      "Ġdeath": 2353,
      "Ġ192": 2354,
      "play": 2355,
      "ĠState": 2356,
      "Ġmatch": 2357,
      "Ġcell": 2358,
      "icro": 2359,
      "eter": 2360,
      "Ġlove": 2361,
      "gar": 2362,
      "ille": 2363,
      "istic": 2364,
      "Ġeconomic": 2365,
      "Ġfast": 2366,
      "illed": 2367,
      "Ġvalue": 2368,
      "Ġwords": 2369,
      "yn": 2370,
      "avy": 2371,
      "Ġsound": 2372,
      "ump": 2373,
      "ĠWashington": 2374,
      "Ġbullet": 2375,
      "ĠApp": 2376,
      "ĠMon": 2377,
      "Ġincluded": 2378,
      "Ġquick": 2379,
      "Ġdifference": 2380,
      "Ġstudy": 2381,
      "Ġmiles": 2382,
      "ream": 2383,
      "Ġbir": 2384,
      "ĠEast": 2385,
      "ached": 2386,
      "Ġmeans": 2387,
      "ĠChampionship": 2388,
      "Ġanimals": 2389,
      "ĠDis": 2390,
      "Ġrank": 2391,
      "Ġgoal": 2392,
      "Ġindepend": 2393,
      "Ġthroughout": 2394,
      "Ġproducts": 2395,
      "Ġsource": 2396,
      "Ġbuy": 2397,
      "Ġbelow": 2398,
      "Ġauthor": 2399,
      "Ġsaid": 2400,
      "Ġstep": 2401,
      "ffic": 2402,
      "Ġincludes": 2403,
      "Ġscient": 2404,
      "Ġgoing": 2405,
      "ĠKingdom": 2406,
      "ĠRepublic": 2407,
      "Ġmagn": 2408,
      "Ġaddition": 2409,
      "ounced": 2410,
      "Ġphysical": 2411,
      "na": 2412,
      "Ġglobal": 2413,
      "cher": 2414,
      "ners": 2415,
      "Ġsold": 2416,
      "ument": 2417,
      "ĠMed": 2418,
      "ĠEn": 2419,
      "Ġrelations": 2420,
      "Ġski": 2421,
      "Ġimpact": 2422,
      "Ġhumans": 2423,
      "ÉĻ": 2424,
      "ĠPol": 2425,
      "ĠNBA": 2426,
      "pecially": 2427,
      "13": 2428,
      "ĠAI": 2429,
      "ĠRiver": 2430,
      "Ġ2017": 2431,
      "ysis": 2432,
      "ĠComp": 2433,
      "Ġmonths": 2434,
      "asks": 2435,
      "Ġround": 2436,
      "Ġplant": 2437,
      "ĠOpen": 2438,
      "Ġindividual": 2439,
      ").<": 2440,
      "rat": 2441,
      "ison": 2442,
      "ĠAct": 2443,
      "ification": 2444,
      "Ġreport": 2445,
      "itation": 2446,
      "ĠRoman": 2447,
      "Ġhigher": 2448,
      "ule": 2449,
      "Ġsnow": 2450,
      "Ġmi": 2451,
      "ads": 2452,
      "Ġattack": 2453,
      "Ġprimary": 2454,
      "mar": 2455,
      "ĠOlymp": 2456,
      "Ġsometimes": 2457,
      "ĠWilliam": 2458,
      "Ġtournament": 2459,
      "Ġwidely": 2460,
      "mon": 2461,
      "iter": 2462,
      "lement": 2463,
      "ruction": 2464,
      "Ġpie": 2465,
      "Ġcover": 2466,
      "augh": 2467,
      "ĠSl": 2468,
      "Ġrate": 2469,
      "Ġterms": 2470,
      "Ġcommunic": 2471,
      "ĠSuper": 2472,
      "Ġwomen": 2473,
      "Ġfire": 2474,
      "Ġdescribed": 2475,
      "Ġoutside": 2476,
      "Ġhowever": 2477,
      "Ġposition": 2478,
      "Ġminutes": 2479,
      "ĠPlay": 2480,
      "ficult": 2481,
      "ĠExtract": 2482,
      "Ġenvironment": 2483,
      "ĠAsia": 2484,
      "Ġtitle": 2485,
      "Ġofficial": 2486,
      "ĠFrancisco": 2487,
      "ien": 2488,
      "ster": 2489,
      "ĠAward": 2490,
      "ĠWrit": 2491,
      "Ġworking": 2492,
      "Ġnovel": 2493,
      "Ġmovie": 2494,
      "uct": 2495,
      "ystem": 2496,
      "Ġbar": 2497,
      "Ġtown": 2498,
      "Ġground": 2499,
      "ray": 2500,
      "ĠFirst": 2501,
      "Ġitems": 2502,
      "Ġsequ": 2503,
      "Ġ2016": 2504,
      "Ġrespons": 2505,
      "go": 2506,
      "oud": 2507,
      "ĠPort": 2508,
      "Ġexc": 2509,
      "ele": 2510,
      "wide": 2511,
      "antic": 2512,
      "Ġdifficult": 2513,
      "sp": 2514,
      "Ġice": 2515,
      "ĠBut": 2516,
      "ĠDel": 2517,
      "Ġmedia": 2518,
      "Ġdeterm": 2519,
      "Ġ0": 2520,
      "ara": 2521,
      "Ġmid": 2522,
      "Ġonce": 2523,
      "Ġvac": 2524,
      "Ġnever": 2525,
      "ĠCounty": 2526,
      "hel": 2527,
      "Ġcard": 2528,
      "ĠWhere": 2529,
      "ĠPri": 2530,
      "Ġlet": 2531,
      "Ġbasketball": 2532,
      "Ġgrowth": 2533,
      "uk": 2534,
      "Ġaud": 2535,
      "Ġvill": 2536,
      "ude": 2537,
      "Ġ2010": 2538,
      "Ġperformance": 2539,
      "ridge": 2540,
      "iber": 2541,
      "ma": 2542,
      "Ġcame": 2543,
      "Ġfig": 2544,
      "Ġdied": 2545,
      "ĠSoc": 2546,
      "ips": 2547,
      "ĠVal": 2548,
      "Ġbatter": 2549,
      "ĠAcc": 2550,
      "iment": 2551,
      "ĠMost": 2552,
      "ĠBy": 2553,
      "Ġuses": 2554,
      "Ġweather": 2555,
      "anks": 2556,
      "leep": 2557,
      "ida": 2558,
      "ĠChar": 2559,
      "ĠGeorge": 2560,
      "not": 2561,
      "Ġmass": 2562,
      "Ġhol": 2563,
      "resh": 2564,
      "Ġmaintain": 2565,
      "Ġtasks": 2566,
      "rest": 2567,
      "Ġwide": 2568,
      "itz": 2569,
      "Ġcomplex": 2570,
      "ief": 2571,
      "Ġstandard": 2572,
      "ients": 2573,
      "ving": 2574,
      "arily": 2575,
      "ĠInternational": 2576,
      "Ġ2009": 2577,
      "Ġten": 2578,
      "eth": 2579,
      "Ġ2011": 2580,
      "Ġfeature": 2581,
      "Ġindustry": 2582,
      "..": 2583,
      "SA": 2584,
      "Ġpark": 2585,
      "Ġtool": 2586,
      "Ġhost": 2587,
      "iles": 2588,
      "Ġforce": 2589,
      "irt": 2590,
      "Ġcharacters": 2591,
      "Ġassociated": 2592,
      "On": 2593,
      "iol": 2594,
      "nown": 2595,
      "Ġdom": 2596,
      "urb": 2597,
      "urch": 2598,
      "ado": 2599,
      "ĠDay": 2600,
      "Ġveh": 2601,
      "Ġparts": 2602,
      "Ġgreatest": 2603,
      "Ġespecially": 2604,
      "Ġlaun": 2605,
      ".,": 2606,
      "wh": 2607,
      "Ġfar": 2608,
      "uture": 2609,
      "Ġ22": 2610,
      "Ġplaces": 2611,
      "Ġ2015": 2612,
      "Ġfeatures": 2613,
      "Ġphot": 2614,
      "Ġdefe": 2615,
      "alt": 2616,
      "aries": 2617,
      "ĠMex": 2618,
      "Ġprob": 2619,
      "Ġ190": 2620,
      "Ġresour": 2621,
      "Ġformat": 2622,
      "Ġdesigned": 2623,
      "Ġnight": 2624,
      "Ġansw": 2625,
      "Ġregular": 2626,
      "Ġcase": 2627,
      "ĠSo": 2628,
      "ĠMy": 2629,
      "ĠHere": 2630,
      "osing": 2631,
      "rup": 2632,
      "Ġwr": 2633,
      "ĠAb": 2634,
      "ĠMany": 2635,
      "Ġprote": 2636,
      "ned": 2637,
      "ona": 2638,
      "eds": 2639,
      "lease": 2640,
      "eles": 2641,
      "ĠWestern": 2642,
      "Ġever": 2643,
      "Ġ25": 2644,
      "Ġplants": 2645,
      "apore": 2646,
      "Ġclaim": 2647,
      "Ġ2023": 2648,
      "Ġfac": 2649,
      "Ġintern": 2650,
      "Ġant": 2651,
      "sequ": 2652,
      "Ġresults": 2653,
      "Ġculture": 2654,
      "Ġsomething": 2655,
      "Ġintroduced": 2656,
      "iger": 2657,
      "ference": 2658,
      "Ġcontain": 2659,
      "Ġfollowed": 2660,
      "Ġtelevision": 2661,
      "Ġveget": 2662,
      "AT": 2663,
      "za": 2664,
      "Ġmem": 2665,
      "chan": 2666,
      "Ġconcept": 2667,
      "Ġincome": 2668,
      "Ġregard": 2669,
      "Ġtraditional": 2670,
      "ydro": 2671,
      "ĠPresident": 2672,
      "Ġcricket": 2673,
      "amil": 2674,
      "ops": 2675,
      "Ġenough": 2676,
      "Ġprinc": 2677,
      "Ġlanguages": 2678,
      "Ġestim": 2679,
      "Ġanimal": 2680,
      "Ġnature": 2681,
      "Ġstyle": 2682,
      "ĠEm": 2683,
      "bur": 2684,
      "wood": 2685,
      "Ġfurther": 2686,
      "Ġbrand": 2687,
      "ĠGrand": 2688,
      "astic": 2689,
      "Ġworks": 2690,
      "light": 2691,
      "Ġdig": 2692,
      "ĠDes": 2693,
      "Ġsym": 2694,
      "aff": 2695,
      "field": 2696,
      "Ġtheory": 2697,
      "Ġask": 2698,
      "Ġcateg": 2699,
      "empt": 2700,
      "acific": 2701,
      "ellig": 2702,
      "Ġneg": 2703,
      "Ġgoals": 2704,
      "Ġlocation": 2705,
      "ĠBlack": 2706,
      "Ġmachine": 2707,
      "Ġrelationship": 2708,
      "eum": 2709,
      "bers": 2710,
      "ka": 2711,
      "utive": 2712,
      "opp": 2713,
      "Ġseven": 2714,
      "Ġcharg": 2715,
      "Ġterrit": 2716,
      "Ġlikely": 2717,
      "iation": 2718,
      "oid": 2719,
      "zil": 2720,
      "Ġparent": 2721,
      "Ġbeaut": 2722,
      "Ġcommer": 2723,
      "Ġfruit": 2724,
      "sel": 2725,
      "ume": 2726,
      "ĠAc": 2727,
      "ĠPart": 2728,
      "ĠReg": 2729,
      "ĠList": 2730,
      "acy": 2731,
      "ression": 2732,
      "Ġ188": 2733,
      "Ġsurface": 2734,
      "yp": 2735,
      "Ġrout": 2736,
      "Ġenc": 2737,
      "Ġclose": 2738,
      "Ġpriv": 2739,
      "iting": 2740,
      "Ġmountain": 2741,
      "Ġgre": 2742,
      "Ġkind": 2743,
      "Ġarg": 2744,
      "Ġ2008": 2745,
      "Ġelectron": 2746,
      "Ġcolor": 2747,
      "Ġlonger": 2748,
      "Ġenter": 2749,
      "hi": 2750,
      "like": 2751,
      "Ġsay": 2752,
      "Ġcut": 2753,
      "Ġlost": 2754,
      "ĠMart": 2755,
      "ĠItal": 2756,
      "ĠAtl": 2757,
      "ĠMod": 2758,
      "Ġstay": 2759,
      "ĠLa": 2760,
      "ĠEmp": 2761,
      "pper": 2762,
      "Ġrain": 2763,
      "Ġblue": 2764,
      "Ġfactors": 2765,
      "Ġanalysis": 2766,
      "It": 2767,
      "orks": 2768,
      "Ġseen": 2769,
      "Ġmeet": 2770,
      "oston": 2771,
      "Ġformed": 2772,
      "Ġ1980": 2773,
      "Ġwinning": 2774,
      "cient": 2775,
      "Ġbord": 2776,
      "Ġpick": 2777,
      "ĠSum": 2778,
      "owl": 2779,
      "ĠBill": 2780,
      "Ġ24": 2781,
      "Ġdise": 2782,
      "Ġprevent": 2783,
      "Ġpurch": 2784,
      "Ġfrequ": 2785,
      "ham": 2786,
      "atin": 2787,
      "asc": 2788,
      "astern": 2789,
      "ĠCong": 2790,
      "ĠLake": 2791,
      "Ġexamples": 2792,
      "Ġabove": 2793,
      "ĠUnion": 2794,
      "Ġ2012": 2795,
      "Ġ1990": 2796,
      "Ġsecurity": 2797,
      "Ġself": 2798,
      "Ġdeep": 2799,
      "Ġmove": 2800,
      "Ġsure": 2801,
      "Ġcompon": 2802,
      "ĠChic": 2803,
      "Ġfeet": 2804,
      "Ġsubject": 2805,
      "Phone": 2806,
      "Ã¡": 2807,
      "Ġcars": 2808,
      "lying": 2809,
      "estic": 2810,
      "ements": 2811,
      "ĠWrite": 2812,
      "21": 2813,
      "be": 2814,
      "ising": 2815,
      "Ġfail": 2816,
      "ĠCap": 2817,
      "ĠMad": 2818,
      "Ġfruits": 2819,
      "Ġens": 2820,
      "Ġ2013": 2821,
      "Ġ2014": 2822,
      "Ġdogs": 2823,
      "Ġdate": 2824,
      "idence": 2825,
      "Ġexpect": 2826,
      "Ġleague": 2827,
      "Ġ50": 2828,
      "ĠJapanese": 2829,
      "back": 2830,
      "Ġcause": 2831,
      "Ġdat": 2832,
      "ĠHol": 2833,
      "ĠDuring": 2834,
      "Ġremain": 2835,
      "Ġparticip": 2836,
      "Ġtreat": 2837,
      "ĠMet": 2838,
      "ĠBC": 2839,
      "ĠHigh": 2840,
      "Ġsomeone": 2841,
      "ĠIsland": 2842,
      "Ġcourse": 2843,
      "ky": 2844,
      "Ġhapp": 2845,
      "Ġselect": 2846,
      "Ġgradu": 2847,
      "Ġmeaning": 2848,
      "action": 2849,
      "Ġleading": 2850,
      "Ġgroups": 2851,
      "Ġpractice": 2852,
      "atively": 2853,
      "ĠPer": 2854,
      "Ġsugg": 2855,
      "aken": 2856,
      "Ġjob": 2857,
      "Ġpurp": 2858,
      "ĠQu": 2859,
      "Ġetc": 2860,
      "ĠSingapore": 2861,
      "Ġsuggest": 2862,
      "ala": 2863,
      "ership": 2864,
      "Ġclos": 2865,
      "Ġallows": 2866,
      "ĠMichael": 2867,
      "Ġsand": 2868,
      "Ġwent": 2869,
      "ĠSpanish": 2870,
      "eleb": 2871,
      "ux": 2872,
      "ĠBer": 2873,
      "ĠFootball": 2874,
      "ĠRec": 2875,
      "Ġshare": 2876,
      "Ġattempt": 2877,
      "Ġlarger": 2878,
      "Ġsmaller": 2879,
      "ĠCollege": 2880,
      "Ġstructure": 2881,
      "rast": 2882,
      "uals": 2883,
      "atform": 2884,
      "Ġalthough": 2885,
      "thing": 2886,
      "Ġrather": 2887,
      "Ġcoast": 2888,
      "Ġdrive": 2889,
      "Ġcommunity": 2890,
      "Ġconditions": 2891,
      "Ġtitles": 2892,
      "west": 2893,
      "omp": 2894,
      "Ġcontent": 2895,
      "ĠArt": 2896,
      "Ġdefin": 2897,
      "Ġsitu": 2898,
      "eal": 2899,
      "Ġfather": 2900,
      "Ġreasons": 2901,
      "ĠBr": 2902,
      "ĠBel": 2903,
      "Ġchall": 2904,
      "Ġmechan": 2905,
      "Ġrecomm": 2906,
      "Ġeconomy": 2907,
      "Ġswim": 2908,
      "ĠAnt": 2909,
      "Ġstar": 2910,
      "Ġability": 2911,
      "Ġapprox": 2912,
      "ID": 2913,
      "ha": 2914,
      "ero": 2915,
      "ĠHaw": 2916,
      "ĠDep": 2917,
      "ĠItaly": 2918,
      "Ġpositive": 2919,
      "Ġmovies": 2920,
      "Ġprocessing": 2921,
      "ength": 2922,
      "Ġannounced": 2923,
      "ĠItalian": 2924,
      "anced": 2925,
      "Ġtoday": 2926,
      "ĠBoston": 2927,
      "akers": 2928,
      "Ġ189": 2929,
      "Ġcoll": 2930,
      "ledge": 2931,
      "Ġliter": 2932,
      "Ġbaseball": 2933,
      "Ġbenefits": 2934,
      "bon": 2935,
      "ockey": 2936,
      "lectric": 2937,
      "Ġ2007": 2938,
      "Ġcentral": 2939,
      "ĠSpain": 2940,
      "Ġsimple": 2941,
      "Ġcheese": 2942,
      "Ġbroad": 2943,
      "ography": 2944,
      "ĠBrazil": 2945,
      "22": 2946,
      "oo": 2947,
      "ya": 2948,
      "Ġson": 2949,
      "Ġsem": 2950,
      "ania": 2951,
      "Ġlif": 2952,
      "ĠSm": 2953,
      "rag": 2954,
      "Ġeast": 2955,
      "ĠBu": 2956,
      "ĠCentral": 2957,
      "As": 2958,
      "pite": 2959,
      "Ġtennis": 2960,
      "Ġfuture": 2961,
      "Ġreason": 2962,
      "Ġeat": 2963,
      "ĠIts": 2964,
      "Ġqual": 2965,
      "Ġautom": 2966,
      "60": 2967,
      "ius": 2968,
      "Ġslow": 2969,
      "Ġloss": 2970,
      "ston": 2971,
      "Ġnuc": 2972,
      "ĠGl": 2973,
      "ĠName": 2974,
      "ander": 2975,
      "ĠOther": 2976,
      "venue": 2977,
      "Ġoptions": 2978,
      "Ġtarg": 2979,
      "Ġtakes": 2980,
      "Ġcou": 2981,
      "ĠPacific": 2982,
      "Ġ21": 2983,
      "Ġinteg": 2984,
      "Ġlittle": 2985,
      "ĠChicago": 2986,
      "An": 2987,
      "FA": 2988,
      "Ġdone": 2989,
      "ĠMe": 2990,
      "Ġemer": 2991,
      "Ġactive": 2992,
      "Ġextrem": 2993,
      "ford": 2994,
      "Ġcode": 2995,
      "itude": 2996,
      "ĠDem": 2997,
      "Ġwinter": 2998,
      "Ġchanges": 2999,
      "Ġwest": 3000,
      "esla": 3001,
      "Ġexec": 3002,
      "Ġspread": 3003,
      "Ġrisk": 3004,
      "ĠEmpire": 3005,
      "ils": 3006,
      "asters": 3007,
      "Ġrespect": 3008,
      "Ġflu": 3009,
      "ini": 3010,
      "Ġcred": 3011,
      "Ġfresh": 3012,
      "Ġing": 3013,
      "Ġvia": 3014,
      "Ġincreased": 3015,
      "Ġcompetition": 3016,
      "ĠAccording": 3017,
      "80": 3018,
      "Ġpan": 3019,
      "ĠMil": 3020,
      "Ġalmost": 3021,
      "aps": 3022,
      "itionally": 3023,
      "Ġparty": 3024,
      "Ġboard": 3025,
      "Ġneeds": 3026,
      "Ġentire": 3027,
      "azon": 3028,
      "Ġcheck": 3029,
      "based": 3030,
      "icles": 3031,
      "irl": 3032,
      "Ġstri": 3033,
      "ĠPat": 3034,
      "ails": 3035,
      "Ġforms": 3036,
      "Ġrelated": 3037,
      "Ġmilk": 3038,
      "Ġtemperature": 3039,
      "Ġcry": 3040,
      "Ġmind": 3041,
      "Ġcomes": 3042,
      "ocr": 3043,
      "apt": 3044,
      "Ġtransport": 3045,
      "Ġeffic": 3046,
      "Ġfilms": 3047,
      "ĠiPhone": 3048,
      "ores": 3049,
      "Ġdry": 3050,
      "ĠTur": 3051,
      "ĠMor": 3052,
      "Ġaltern": 3053,
      "ĠGener": 3054,
      "ava": 3055,
      "izing": 3056,
      "Ġacqu": 3057,
      "Ġelectrical": 3058,
      "che": 3059,
      "lor": 3060,
      "Â°": 3061,
      "ĠPal": 3062,
      "ighb": 3063,
      "Ġinstead": 3064,
      "Ġmovement": 3065,
      "ounter": 3066,
      "Ġsales": 3067,
      "hol": 3068,
      "ËĲ": 3069,
      "Ġtend": 3070,
      "Ġcop": 3071,
      "Ġwine": 3072,
      "Ġft": 3073,
      "Ġgolf": 3074,
      "artment": 3075,
      "ibility": 3076,
      "Ġroad": 3077,
      "Ġpopul": 3078,
      "Ġcenter": 3079,
      "Ġextract": 3080,
      "Ġapproach": 3081,
      "Ġfriend": 3082,
      "Ġidea": 3083,
      "Ġdeliver": 3084,
      "ademy": 3085,
      "ĠMexico": 3086,
      "Ġbird": 3087,
      "ĠTV": 3088,
      "ĠBased": 3089,
      "ĠHall": 3090,
      "iful": 3091,
      "Ġ27": 3092,
      "Ġelements": 3093,
      "Ġeducation": 3094,
      "Ġcommercial": 3095,
      "bit": 3096,
      "Ġsn": 3097,
      "Ġheat": 3098,
      "Ġ2000": 3099,
      "Ġbox": 3100,
      "Ġsquare": 3101,
      "Ġquestion": 3102,
      "minist": 3103,
      "cks": 3104,
      "Ġclear": 3105,
      "Ġpers": 3106,
      "Ġhor": 3107,
      "Ġhydro": 3108,
      "Ġprefer": 3109,
      "Ġworldwide": 3110,
      "Ġ2006": 3111,
      "ĠSeattle": 3112,
      "ĠHarry": 3113,
      "Ġmanagement": 3114,
      "ĠAssoci": 3115,
      "Ġmer": 3116,
      "Ġdam": 3117,
      "imin": 3118,
      "vert": 3119,
      "ĠInc": 3120,
      "Ġprovides": 3121,
      "selves": 3122,
      "ox": 3123,
      "istan": 3124,
      "Ġstudents": 3125,
      "ĠDavid": 3126,
      "set": 3127,
      "val": 3128,
      "Ġsleep": 3129,
      "Ġcle": 3130,
      "Ġpen": 3131,
      "Ġmag": 3132,
      "imal": 3133,
      "iff": 3134,
      "Ġvict": 3135,
      "Ġmoved": 3136,
      "aker": 3137,
      "rick": 3138,
      "Ġleader": 3139,
      "Ġadvant": 3140,
      "Ġpotential": 3141,
      "Ġaction": 3142,
      "ĠTesla": 3143,
      "Ġey": 3144,
      "odes": 3145,
      "ĠNe": 3146,
      "Ġquant": 3147,
      "Ġ2004": 3148,
      "ought": 3149,
      "ĠAngeles": 3150,
      "ercise": 3151,
      "ees": 3152,
      "ira": 3153,
      "ĠBest": 3154,
      "ĠDr": 3155,
      "ĠRich": 3156,
      "Ġrules": 3157,
      "ĠAdd": 3158,
      "ĠQue": 3159,
      "Ġsalt": 3160,
      "Ġproblem": 3161,
      "known": 3162,
      "ĠTex": 3163,
      "ĠRober": 3164,
      "Ġheart": 3165,
      "Ġgetting": 3166,
      "Wh": 3167,
      "Ġtable": 3168,
      "Ġtaking": 3169,
      "utions": 3170,
      "ĠPot": 3171,
      "ĠLos": 3172,
      "Ġquality": 3173,
      "Ġ40": 3174,
      "Ġregions": 3175,
      "Ġdecl": 3176,
      "Ġbehind": 3177,
      "Ġtrip": 3178,
      "Ġepis": 3179,
      "writ": 3180,
      "Ġswe": 3181,
      "Ġcross": 3182,
      "Ġceleb": 3183,
      "ĠSch": 3184,
      "ogle": 3185,
      "Ġneighb": 3186,
      "Ġadded": 3187,
      "Ġlevels": 3188,
      "Ġengineering": 3189,
      "gent": 3190,
      "rate": 3191,
      "ria": 3192,
      "anch": 3193,
      "Ġfight": 3194,
      "Ġhon": 3195,
      "Ġstra": 3196,
      "ortun": 3197,
      "Ġadditional": 3198,
      "Ġproblems": 3199,
      "Ġapplications": 3200,
      "'re": 3201,
      "iate": 3202,
      "Ġess": 3203,
      "Ġtree": 3204,
      "ented": 3205,
      "Ġfront": 3206,
      "ĠStar": 3207,
      "Ġtrained": 3208,
      "Ġrequired": 3209,
      "Ġwatch": 3210,
      "itan": 3211,
      "arian": 3212,
      "Ġdoc": 3213,
      "ĠTour": 3214,
      "ivity": 3215,
      "Ġeight": 3216,
      "Ġplatform": 3217,
      "Ġkil": 3218,
      "ords": 3219,
      "ĠAlthough": 3220,
      "FL": 3221,
      "cil": 3222,
      "ĠTom": 3223,
      "Ġnut": 3224,
      "Ġgold": 3225,
      "rial": 3226,
      "Ġfourth": 3227,
      "Ġelectricity": 3228,
      "ij": 3229,
      "nder": 3230,
      "ĠPaul": 3231,
      "ĠSte": 3232,
      "Ġinstit": 3233,
      "Ġrelease": 3234,
      "Ġcaused": 3235,
      "Ġbehav": 3236,
      "ĠOff": 3237,
      "Ġprice": 3238,
      "Ġquickly": 3239,
      "hold": 3240,
      "ators": 3241,
      "oted": 3242,
      "Ġ187": 3243,
      "Ġstreng": 3244,
      "Ġprior": 3245,
      "Ġresources": 3246,
      "elligence": 3247,
      "ny": 3248,
      "year": 3249,
      "ota": 3250,
      "istics": 3251,
      "Ġcontribut": 3252,
      "ĠVir": 3253,
      "icken": 3254,
      "Ġrelig": 3255,
      "craft": 3256,
      "fect": 3257,
      "off": 3258,
      "sy": 3259,
      "aring": 3260,
      "ully": 3261,
      "ĠNor": 3262,
      "que": 3263,
      "appen": 3264,
      "pped": 3265,
      "Ġphil": 3266,
      "Ġnumbers": 3267,
      "Ġactivity": 3268,
      "Ġimprove": 3269,
      "Ġaffect": 3270,
      "ĠApple": 3271,
      "ĠCongress": 3272,
      "ply": 3273,
      "Ġfit": 3274,
      "ĠAwards": 3275,
      "ocks": 3276,
      "Ġbread": 3277,
      "Ġeasy": 3278,
      "Ġdomestic": 3279,
      "Ġapproximately": 3280,
      "35": 3281,
      "He": 3282,
      "Ġder": 3283,
      "ĠAp": 3284,
      "ĠChe": 3285,
      "ĠDon": 3286,
      "Ġ186": 3287,
      "Ġoffice": 3288,
      "Ġhighly": 3289,
      "gypt": 3290,
      "Ġpressure": 3291,
      "aign": 3292,
      "atory": 3293,
      "Ġwarm": 3294,
      "Ġrice": 3295,
      "ipment": 3296,
      "Ġunique": 3297,
      "Ġattract": 3298,
      "Ġruns": 3299,
      "ĠAmazon": 3300,
      "ĠPeople": 3301,
      "Al": 3302,
      "itor": 3303,
      "Ġlog": 3304,
      "Ġroom": 3305,
      "Ġoriginally": 3306,
      "Ġwild": 3307,
      "ĠCont": 3308,
      "Ġitself": 3309,
      "Ġstarting": 3310,
      "Ġorganization": 3311,
      "NA": 3312,
      "fl": 3313,
      "ture": 3314,
      "ato": 3315,
      "Ġbit": 3316,
      "ĠCO": 3317,
      "Ġseasons": 3318,
      "Ġthemselves": 3319,
      "Ġdistance": 3320,
      "Ġrequires": 3321,
      "ĠAssociation": 3322,
      "ĠTexas": 3323,
      "Ġsat": 3324,
      "Ġcup": 3325,
      "orage": 3326,
      "Ġinn": 3327,
      "Ġmention": 3328,
      "ĠTra": 3329,
      "ĠSen": 3330,
      "abit": 3331,
      "ĠYear": 3332,
      "Ġprep": 3333,
      "Ġcollege": 3334,
      "Ġprimarily": 3335,
      "hood": 3336,
      "iences": 3337,
      "ĠTer": 3338,
      "olk": 3339,
      "usion": 3340,
      "thlet": 3341,
      "Ġking": 3342,
      "Ġimm": 3343,
      "Ġwhole": 3344,
      "ĠSea": 3345,
      "24": 3346,
      "LM": 3347,
      "Ġbur": 3348,
      "Ġbring": 3349,
      "Ġisland": 3350,
      "Ġjour": 3351,
      "Ġglass": 3352,
      "Ġbecoming": 3353,
      "Ġanswer": 3354,
      "yth": 3355,
      "Ġcorpor": 3356,
      "Ġmom": 3357,
      "Ġgas": 3358,
      "aby": 3359,
      "Ġmeat": 3360,
      "Ġrights": 3361,
      "Ġknowledge": 3362,
      "Ġwrote": 3363,
      "Ġtou": 3364,
      "Ġfavor": 3365,
      "ola": 3366,
      "utch": 3367,
      "ocol": 3368,
      "Ġbutter": 3369,
      "Ġearth": 3370,
      "Ġrecords": 3371,
      "Ġobjects": 3372,
      "Ġtrees": 3373,
      "Ġparticularly": 3374,
      "Ġestimated": 3375,
      ".[": 3376,
      "elt": 3377,
      "imum": 3378,
      "arden": 3379,
      "Ġexercise": 3380,
      "ĠOcean": 3381,
      "bert": 3382,
      "Ġupon": 3383,
      "ecause": 3384,
      "Ġdrink": 3385,
      "Ġsoccer": 3386,
      "',": 3387,
      "Ġstore": 3388,
      "ĠGra": 3389,
      "alls": 3390,
      "Ġcomma": 3391,
      "Ġ2005": 3392,
      "Ġskills": 3393,
      "airs": 3394,
      "Ġdebut": 3395,
      "Ġtarget": 3396,
      "Ġingred": 3397,
      "Ġtask": 3398,
      "erved": 3399,
      "Ġalive": 3400,
      "Ġarr": 3401,
      "Ġprem": 3402,
      "Ġappl": 3403,
      "Ġmathem": 3404,
      "Ġeventually": 3405,
      "Ġdiscover": 3406,
      "ĠGolden": 3407,
      "ĠAcademy": 3408,
      "hib": 3409,
      "Ġdark": 3410,
      "ĠSu": 3411,
      "road": 3412,
      "ĠArab": 3413,
      "Ġexpand": 3414,
      "Ġbeautiful": 3415,
      "CA": 3416,
      "dd": 3417,
      "ech": 3418,
      "works": 3419,
      "Ġsil": 3420,
      "ĠAlex": 3421,
      "ĠWood": 3422,
      "Ġstock": 3423,
      "ĠEgypt": 3424,
      "Ġcolors": 3425,
      "ĠGoogle": 3426,
      "Ġbirth": 3427,
      "ae": 3428,
      "ĠSov": 3429,
      "ĠSince": 3430,
      "Ġsearch": 3431,
      "ificial": 3432,
      "ĠAustralian": 3433,
      "ĠParis": 3434,
      "head": 3435,
      "Ġcats": 3436,
      "Ġbal": 3437,
      "ĠSim": 3438,
      "uries": 3439,
      "ĠGame": 3440,
      "Ġ28": 3441,
      "ribution": 3442,
      "Ġclimate": 3443,
      "ĠGreek": 3444,
      ")<": 3445,
      "edy": 3446,
      "Ġlength": 3447,
      "Ġreached": 3448,
      "ĠAg": 3449,
      "Ġonline": 3450,
      "osition": 3451,
      "Ġvary": 3452,
      "Ġadult": 3453,
      "Ġtrain": 3454,
      "Ġ1970": 3455,
      "Ġsources": 3456,
      "Ġproperty": 3457,
      "25": 3458,
      "uous": 3459,
      "Ġer": 3460,
      "ett": 3461,
      "Ġnorm": 3462,
      "ĠGreen": 3463,
      "Ġtransfer": 3464,
      "ĠFrank": 3465,
      "Ġequipment": 3466,
      "Ġreview": 3467,
      "Ġdisease": 3468,
      "cast": 3469,
      "pro": 3470,
      "Ġ{": 3471,
      "Ġcold": 3472,
      "itt": 3473,
      "Ġfeder": 3474,
      "ĠAre": 3475,
      "Ġnation": 3476,
      "unt": 3477,
      "Ġ29": 3478,
      "Ġtrack": 3479,
      "Ġworked": 3480,
      "cont": 3481,
      "Ġ1960": 3482,
      "Ġrestaur": 3483,
      "ita": 3484,
      "ĠSant": 3485,
      "ĠWhite": 3486,
      "ibr": 3487,
      "oved": 3488,
      "Ġprompt": 3489,
      "Ġreduce": 3490,
      "Ġprivate": 3491,
      "PI": 3492,
      "enty": 3493,
      "idents": 3494,
      "ĠMicro": 3495,
      "ĠFire": 3496,
      "soft": 3497,
      "Ġactually": 3498,
      "Ġsolar": 3499,
      "Ġeggs": 3500,
      "ĠAtlantic": 3501,
      "erve": 3502,
      "roll": 3503,
      "ctions": 3504,
      "ĠBas": 3505,
      "ĠEach": 3506,
      "aily": 3507,
      "Ġuseful": 3508,
      "Ġoldest": 3509,
      "king": 3510,
      "wing": 3511,
      "heast": 3512,
      "Ġstage": 3513,
      "unic": 3514,
      "Ġhere": 3515,
      "Ġblood": 3516,
      "Ġmusical": 3517,
      "Ġpercent": 3518,
      "Ġinvolved": 3519,
      "Ġradio": 3520,
      "ÃŃ": 3521,
      "rees": 3522,
      "Ġpow": 3523,
      "Ġmother": 3524,
      "aming": 3525,
      "ĠMount": 3526,
      "Ġquarter": 3527,
      "Ġoperating": 3528,
      "ĠOnce": 3529,
      "Ġcauses": 3530,
      "Ġversion": 3531,
      "Ġparents": 3532,
      "rease": 3533,
      "ĠTr": 3534,
      "ĠMo": 3535,
      "ĠMah": 3536,
      "ands": 3537,
      "ript": 3538,
      "ĠThat": 3539,
      "Ġconsists": 3540,
      "198": 3541,
      "Ġmeasure": 3542,
      "lier": 3543,
      "ura": 3544,
      "Ġdomin": 3545,
      "Ġlines": 3546,
      "roph": 3547,
      "ĠBen": 3548,
      "Ġ23": 3549,
      "Ġdeal": 3550,
      "ĠKore": 3551,
      "Ġcontact": 3552,
      "Ġcontract": 3553,
      "Ġcomplete": 3554,
      "Ġthought": 3555,
      "Ġjoined": 3556,
      "Ġvillage": 3557,
      "Ġchalleng": 3558,
      "23": 3559,
      "ao": 3560,
      "de": 3561,
      "isation": 3562,
      "Ġfem": 3563,
      "omas": 3564,
      "ste": 3565,
      "ĠMass": 3566,
      "Ġkids": 3567,
      "ĠInter": 3568,
      "Ġremains": 3569,
      "ĠBlue": 3570,
      "iques": 3571,
      "cent": 3572,
      "Ġcand": 3573,
      "Ġbike": 3574,
      "Ġreally": 3575,
      "Ġforces": 3576,
      "ĠGroup": 3577,
      "Ġ26": 3578,
      "Ġriver": 3579,
      "Ġdecision": 3580,
      "hester": 3581,
      "Ġrefers": 3582,
      "ĠMusic": 3583,
      "Ġbrother": 3584,
      "Ġmethods": 3585,
      "Ġbulleted": 3586,
      "Ġsouthern": 3587,
      "ites": 3588,
      "Ġleaves": 3589,
      "ĠStre": 3590,
      "Ġrecorded": 3591,
      "Ġawarded": 3592,
      "!<": 3593,
      "gor": 3594,
      "Ã³": 3595,
      "Ġsite": 3596,
      "Ġinj": 3597,
      "Ġmill": 3598,
      "asy": 3599,
      "ĠMark": 3600,
      "Ġstation": 3601,
      "Ġwhose": 3602,
      "ache": 3603,
      "udd": 3604,
      "ipl": 3605,
      "izes": 3606,
      "Ġimplement": 3607,
      "Ġelection": 3608,
      "ĠClub": 3609,
      "Ġplanet": 3610,
      "Ġprogramming": 3611,
      "Ġinfluence": 3612,
      "Ġpattern": 3613,
      "house": 3614,
      "onst": 3615,
      "Ġfif": 3616,
      "ĠSec": 3617,
      "ĠMary": 3618,
      "ĠBig": 3619,
      "ĠPlease": 3620,
      "istor": 3621,
      "ĠNot": 3622,
      "Ġsea": 3623,
      "riz": 3624,
      "Ġrap": 3625,
      "Ġnumerous": 3626,
      "Ġblock": 3627,
      "Ġincreasing": 3628,
      "Ġcompleted": 3629,
      "Ġindividuals": 3630,
      "Ġdigital": 3631,
      "ares": 3632,
      "gest": 3633,
      "ki": 3634,
      "Ġ/": 3635,
      "Ġtaken": 3636,
      "Ġsens": 3637,
      "Ġsaw": 3638,
      "Ġcast": 3639,
      "arn": 3640,
      "Ġdou": 3641,
      "ĠAut": 3642,
      "Ġbond": 3643,
      "hess": 3644,
      "Ġeffects": 3645,
      "ĠSoviet": 3646,
      "ken": 3647,
      "ili": 3648,
      "ĠSystem": 3649,
      "Ġnorthern": 3650,
      "actions": 3651,
      "Ġcoach": 3652,
      "Ġrecent": 3653,
      "ifying": 3654,
      "Ġaccept": 3655,
      "Ġsimply": 3656,
      "Ġconduct": 3657,
      "ĠRobert": 3658,
      "70": 3659,
      "ground": 3660,
      "nal": 3661,
      "omes": 3662,
      "imb": 3663,
      "iring": 3664,
      "add": 3665,
      "Ġsugar": 3666,
      "Ġ31": 3667,
      "Ġoverall": 3668,
      "oyal": 3669,
      "iking": 3670,
      "Ġnuclear": 3671,
      "Ġkilomet": 3672,
      "ĠVirgin": 3673,
      "--": 3674,
      "Ar": 3675,
      "ios": 3676,
      "Ġpath": 3677,
      "ĠCur": 3678,
      "adium": 3679,
      "iang": 3680,
      "Ġproduce": 3681,
      "Ġsurround": 3682,
      "ĠZeal": 3683,
      "Ġ=": 3684,
      "ena": 3685,
      "Ġmess": 3686,
      "Ġdates": 3687,
      "ĠRock": 3688,
      "ĠJos": 3689,
      "ampion": 3690,
      "Ġbelong": 3691,
      "Ġcontinued": 3692,
      "Ġideas": 3693,
      "ĠZealand": 3694,
      "can": 3695,
      "isp": 3696,
      "Ġbott": 3697,
      "Ġexcept": 3698,
      "Ġabs": 3699,
      "There": 3700,
      "Ġdirected": 3701,
      "Ġcurrently": 3702,
      "Ġcourt": 3703,
      "Ġcampaign": 3704,
      "Ġhydrogen": 3705,
      "ville": 3706,
      "Ġtast": 3707,
      "Ġfix": 3708,
      "Ġancient": 3709,
      "ĠGal": 3710,
      "aged": 3711,
      "izations": 3712,
      "Ġcontains": 3713,
      "Ġadop": 3714,
      "ressed": 3715,
      "Ġwriting": 3716,
      "force": 3717,
      "Ġprincip": 3718,
      "Ġcit": 3719,
      "Ġbatt": 3720,
      "Ġbicy": 3721,
      "Ġtom": 3722,
      "Ġtowards": 3723,
      "ender": 3724,
      "Ġhappen": 3725,
      "adian": 3726,
      "unk": 3727,
      "Ġviol": 3728,
      "Ġrot": 3729,
      "sec": 3730,
      "Ġchem": 3731,
      "Ġavoid": 3732,
      "Ġdescribe": 3733,
      "get": 3734,
      "rel": 3735,
      "omic": 3736,
      "istance": 3737,
      "âĢĬ": 3738,
      "Ġdirection": 3739,
      "Ġdirectly": 3740,
      "Ġdevice": 3741,
      "Ġlimited": 3742,
      "itzer": 3743,
      "ocratic": 3744,
      "Ġclean": 3745,
      "Ġlab": 3746,
      "ceed": 3747,
      "Ġrule": 3748,
      "Ġuser": 3749,
      "Ġadminist": 3750,
      "Ġcolon": 3751,
      "Ġemp": 3752,
      "Ġsinger": 3753,
      "Ġretire": 3754,
      "ready": 3755,
      "Ġlooking": 3756,
      "ĠDisney": 3757,
      "bed": 3758,
      "ises": 3759,
      "ĠMac": 3760,
      "Ġappoint": 3761,
      "Ġextinct": 3762,
      "Ġfoods": 3763,
      "Ġinside": 3764,
      "ĠAfrican": 3765,
      "Ġbeginning": 3766,
      "Ġprotein": 3767,
      "ĠPotter": 3768,
      "Ġingredients": 3769,
      "Ġfederal": 3770,
      "cel": 3771,
      "rect": 3772,
      "Ġfarm": 3773,
      "Ġnomin": 3774,
      "ension": 3775,
      "Ġsurv": 3776,
      "Ġopportun": 3777,
      "Ġholid": 3778,
      "isions": 3779,
      "ĠSol": 3780,
      "Ġrevenue": 3781,
      "Ġanaly": 3782,
      "Ġusers": 3783,
      "Ġcannot": 3784,
      "Ġadj": 3785,
      "ounds": 3786,
      "Ġnecess": 3787,
      "Ġserve": 3788,
      "Ġsolid": 3789,
      "Ġmajority": 3790,
      "Ġallowed": 3791,
      "ackson": 3792,
      "Ġsafe": 3793,
      "40": 3794,
      "iant": 3795,
      "Ġhous": 3796,
      "Ġliqu": 3797,
      "ĠGar": 3798,
      "oses": 3799,
      "Ġspend": 3800,
      "Ġcloud": 3801,
      "Ġdefined": 3802,
      "Ġopened": 3803,
      "Ġconstit": 3804,
      "Ġscientific": 3805,
      "Ġcomponents": 3806,
      "fort": 3807,
      "ĠSur": 3808,
      "ĠMag": 3809,
      "ĠBecause": 3810,
      "irm": 3811,
      "ĠUs": 3812,
      "Ġcharge": 3813,
      "rought": 3814,
      "Ġaccording": 3815,
      "Ġdrum": 3816,
      "Ġmulti": 3817,
      "Ġsumm": 3818,
      "ait": 3819,
      "ging": 3820,
      "tra": 3821,
      "onse": 3822,
      "ĠWind": 3823,
      "Ġdead": 3824,
      "Ġcompared": 3825,
      "rug": 3826,
      "Ġdistrict": 3827,
      "Ġartist": 3828,
      "Ġmatter": 3829,
      "Ġoperations": 3830,
      "Ġinsp": 3831,
      "Ġshows": 3832,
      "ĠProv": 3833,
      "Ġsongs": 3834,
      "stitute": 3835,
      "Ġresponsible": 3836,
      "ĠHawai": 3837,
      "ĠMicrosoft": 3838,
      "OS": 3839,
      "Ġcases": 3840,
      "Ġdaily": 3841,
      "ĠMoon": 3842,
      "ĠWin": 3843,
      "Ġalready": 3844,
      "estival": 3845,
      "Ġ2002": 3846,
      "Ġgrand": 3847,
      "Ġmoving": 3848,
      "ĠParty": 3849,
      "Ġstrength": 3850,
      "Ġphilos": 3851,
      "EC": 3852,
      "You": 3853,
      "cul": 3854,
      "fin": 3855,
      "à¤": 3856,
      "Ġlack": 3857,
      "change": 3858,
      "ĠHen": 3859,
      "ĠUK": 3860,
      "Ġshape": 3861,
      "izza": 3862,
      "Ġ60": 3863,
      "Ġpack": 3864,
      "ĠTime": 3865,
      "Ġlives": 3866,
      "Ġthing": 3867,
      "ĠPay": 3868,
      "aging": 3869,
      "ĠEastern": 3870,
      "ĠJe": 3871,
      "orning": 3872,
      "Ġexpensive": 3873,
      "ĠRev": 3874,
      "Ġalbums": 3875,
      "Ġpurpose": 3876,
      "por": 3877,
      "ĉĊ": 3878,
      "Ġpet": 3879,
      "oul": 3880,
      "ĠCamp": 3881,
      "Ġyellow": 3882,
      "ĠGr": 3883,
      "liest": 3884,
      "Ġult": 3885,
      "Ġsau": 3886,
      "org": 3887,
      "ali": 3888,
      "Ġpaper": 3889,
      "Ġislands": 3890,
      "Ġthus": 3891,
      "ĠCE": 3892,
      "urs": 3893,
      "urance": 3894,
      "Ġang": 3895,
      "Ġuniversity": 3896,
      "Ġagre": 3897,
      "Ġtechniques": 3898,
      "Ġcontroll": 3899,
      "ĠRussia": 3900,
      "Ġlaunched": 3901,
      "rupt": 3902,
      "gorith": 3903,
      "BC": 3904,
      "nes": 3905,
      "where": 3906,
      "Ġ|": 3907,
      "orida": 3908,
      "Ġlake": 3909,
      "use": 3910,
      "ĠGod": 3911,
      "Ġunivers": 3912,
      "igned": 3913,
      "Ġphone": 3914,
      "ĠMarvel": 3915,
      "Ġhelps": 3916,
      "Ġperformed": 3917,
      "Ġlaws": 3918,
      "Ġmanufactur": 3919,
      "Ġrapid": 3920,
      "bre": 3921,
      "pre": 3922,
      "Ġsets": 3923,
      "atoes": 3924,
      "Ġdiet": 3925,
      "ĠMars": 3926,
      "ĠBang": 3927,
      "aint": 3928,
      "Ġrates": 3929,
      "ĠJackson": 3930,
      "ĠKh": 3931,
      "Ġoutd": 3932,
      "ikes": 3933,
      "Ġsubsequ": 3934,
      "Ġstudies": 3935,
      "Ġdepends": 3936,
      "Ġschools": 3937,
      "ĠCarol": 3938,
      "Ġinvestment": 3939,
      "Ġcombination": 3940,
      "Ġmaterials": 3941,
      "Tube": 3942,
      "ingu": 3943,
      "ician": 3944,
      "roy": 3945,
      "room": 3946,
      "raction": 3947,
      "Ġstorage": 3948,
      "ĠLou": 3949,
      "berg": 3950,
      "Ġ1999": 3951,
      "Ġdepending": 3952,
      "Ġreflect": 3953,
      "Ġcritical": 3954,
      "Ġseparated": 3955,
      "Ġensure": 3956,
      "sych": 3957,
      "Americ": 3958,
      "eks": 3959,
      "Ġfoot": 3960,
      "Ġbad": 3961,
      "Ġmiddle": 3962,
      "ĠSong": 3963,
      "Ġvirt": 3964,
      "illing": 3965,
      "Ġdegree": 3966,
      "Ġdegrees": 3967,
      "ĠChristian": 3968,
      "ĠCompany": 3969,
      "wik": 3970,
      "Ġast": 3971,
      "Ġcore": 3972,
      "Ġfant": 3973,
      "Ġmax": 3974,
      "Ġhockey": 3975,
      "ĠCour": 3976,
      "ĠMer": 3977,
      "Ġaspect": 3978,
      "ĠLLM": 3979,
      "Ġheavy": 3980,
      "Ġscore": 3981,
      "Ġ2001": 3982,
      "Ġflat": 3983,
      "Ġsigned": 3984,
      "ĠUSA": 3985,
      "Ġnearly": 3986,
      "Ġannual": 3987,
      "ĠFederer": 3988,
      "Ġnegative": 3989,
      "ĠMartin": 3990,
      "Ġadvantage": 3991,
      "itzerland": 3992,
      "VID": 3993,
      "pes": 3994,
      "Ġill": 3995,
      "Ġtur": 3996,
      "inary": 3997,
      "atur": 3998,
      "aylor": 3999,
      "ĠDist": 4000,
      "ĠRam": 4001,
      "Ġframe": 4002,
      "Ġvoc": 4003,
      "Ġrise": 4004,
      "arts": 4005,
      "Ġintelligence": 4006,
      "Ġimmed": 4007,
      "intend": 4008,
      "Ġpowerful": 4009,
      "Ġdetect": 4010,
      "Ġgrowing": 4011,
      "Ġhealthy": 4012,
      "ĠGeorg": 4013,
      "ĠFlorida": 4014,
      "ĠPortug": 4015,
      "ĠCharles": 4016,
      "26": 4017,
      "ook": 4018,
      "rd": 4019,
      "ror": 4020,
      "Ġox": 4021,
      "Ġcam": 4022,
      "edia": 4023,
      "Ġwealth": 4024,
      "Ġflight": 4025,
      "Ġmatches": 4026,
      "Ġpredict": 4027,
      "Ġdatab": 4028,
      "DP": 4029,
      "Ġut": 4030,
      "ĠĠĊ": 4031,
      "iny": 4032,
      "Ġwins": 4033,
      "Ġfully": 4034,
      "ĠSam": 4035,
      "ĠBh": 4036,
      "Ġalgorith": 4037,
      "ests": 4038,
      "ĠDog": 4039,
      "Ġ1998": 4040,
      "Ġsociety": 4041,
      "Ġprogress": 4042,
      "Ġseparate": 4043,
      "Ġchoose": 4044,
      "Ġreported": 4045,
      "ĠValley": 4046,
      "Ġtools": 4047,
      "75": 4048,
      "Ind": 4049,
      "Éª": 4050,
      "Ġbag": 4051,
      "ĠMountain": 4052,
      "elled": 4053,
      "ĠIntern": 4054,
      "eph": 4055,
      "Ġdoing": 4056,
      "Ġweeks": 4057,
      "Ġ1989": 4058,
      "Ġreceive": 4059,
      "etherlands": 4060,
      "list": 4061,
      "Ġathlet": 4062,
      "level": 4063,
      "ĠSouthern": 4064,
      "Ġnar": 4065,
      "ĠCons": 4066,
      "ĠBank": 4067,
      "ĠPers": 4068,
      "ĠLatin": 4069,
      "iance": 4070,
      "vey": 4071,
      "ĠThomas": 4072,
      "Ġpeak": 4073,
      "Ġlisted": 4074,
      "Ġdistinct": 4075,
      "Ġsingles": 4076,
      "ĠIslands": 4077,
      "Ġeffective": 4078,
      "Ġresponse": 4079,
      "Ġgrass": 4080,
      "Ġhistorical": 4081,
      "Ġissues": 4082,
      "Ġchampionships": 4083,
      "urban": 4084,
      "ĠStreet": 4085,
      "bing": 4086,
      "gers": 4087,
      "oke": 4088,
      "Ġphen": 4089,
      "Ġones": 4090,
      "Ġfranch": 4091,
      "Ġcool": 4092,
      "Ġyourself": 4093,
      "Ġjud": 4094,
      "undred": 4095,
      "Ġregul": 4096,
      "Ġarticle": 4097,
      "Ġobserv": 4098,
      "ĠPrize": 4099,
      "cles": 4100,
      "sen": 4101,
      "Ġmiss": 4102,
      "Ġ(/": 4103,
      "ĠUse": 4104,
      "Ġchicken": 4105,
      "Ġshot": 4106,
      "iano": 4107,
      "ordan": 4108,
      "Ġmetal": 4109,
      "Ġpolicy": 4110,
      "Ġcultural": 4111,
      "Ġappeared": 4112,
      "Ġeasily": 4113,
      "Ġchanged": 4114,
      "Ġconcern": 4115,
      "Ġefficient": 4116,
      "Ġver": 4117,
      "Ġtun": 4118,
      "Ġtalk": 4119,
      "Ġcards": 4120,
      "Ġfat": 4121,
      "ĠBowl": 4122,
      "ighter": 4123,
      "ĠOl": 4124,
      "Ġweap": 4125,
      "ensus": 4126,
      "erman": 4127,
      "Ġsynt": 4128,
      "Ġfinished": 4129,
      "ĠSecond": 4130,
      "Ġcontinue": 4131,
      "Ġreturned": 4132,
      "Ġlayer": 4133,
      "Ġdocument": 4134,
      "ĠCOVID": 4135,
      "Ġmentioned": 4136,
      "65": 4137,
      "99": 4138,
      "mosp": 4139,
      "Ġbran": 4140,
      "hers": 4141,
      "ĠDiv": 4142,
      "ĠLaw": 4143,
      "Ġintended": 4144,
      "Ġju": 4145,
      "Ġ500": 4146,
      "Ġoffers": 4147,
      "Ġearlier": 4148,
      "Ġfounder": 4149,
      "Ġgeneration": 4150,
      "Ġheadqu": 4151,
      "Ġoppon": 4152,
      "Ġofficially": 4153,
      "Ġinitial": 4154,
      "Ġarchitecture": 4155,
      "Ġpieces": 4156,
      "Ġsweet": 4157,
      "'m": 4158,
      "ĠÃ": 4159,
      "onald": 4160,
      "Ġface": 4161,
      "Ġfaster": 4162,
      "ĠServ": 4163,
      "istry": 4164,
      "Ġvot": 4165,
      "Ġrail": 4166,
      "Ġraised": 4167,
      "ario": 4168,
      "Ġ1997": 4169,
      "Ġsupply": 4170,
      "Ġmedical": 4171,
      "ouncil": 4172,
      "Ġbasic": 4173,
      "aska": 4174,
      "ĠOlympics": 4175,
      "Ġvehicles": 4176,
      "Ġregarded": 4177,
      "Ġmathemat": 4178,
      "64": 4179,
      "isc": 4180,
      "olic": 4181,
      "ĠJava": 4182,
      "ulture": 4183,
      "Ġplays": 4184,
      "cohol": 4185,
      "phone": 4186,
      "athon": 4187,
      "ĠArmy": 4188,
      "Ġlongest": 4189,
      "ĠJohnson": 4190,
      "Ġcritic": 4191,
      "fficient": 4192,
      "stein": 4193,
      "rons": 4194,
      "ĠÂ°": 4195,
      "Ġcounter": 4196,
      "Ġdried": 4197,
      "iling": 4198,
      "ĠCivil": 4199,
      "ĠData": 4200,
      "ĠDutch": 4201,
      "ĠLeg": 4202,
      "Ġmob": 4203,
      "alled": 4204,
      "ription": 4205,
      "Ġperfect": 4206,
      "Ġinstruct": 4207,
      "Ġgrav": 4208,
      "Ġdirector": 4209,
      "Ġbelieve": 4210,
      "ATO": 4211,
      "Ġelectronic": 4212,
      "Ġgar": 4213,
      "ĠRome": 4214,
      "ĠNFL": 4215,
      "Ġincorpor": 4216,
      "Ġspeech": 4217,
      "anchester": 4218,
      "Ġbelieved": 4219,
      "Ġbattery": 4220,
      "intendo": 4221,
      "equ": 4222,
      "mark": 4223,
      "over": 4224,
      "rim": 4225,
      "yani": 4226,
      "Ġwife": 4227,
      "ened": 4228,
      "etts": 4229,
      "oles": 4230,
      "ĠMiddle": 4231,
      "ĠBol": 4232,
      "ĠNetherlands": 4233,
      "ĠLuc": 4234,
      "aka": 4235,
      "Ġscreen": 4236,
      "Ġsoon": 4237,
      "Ġinvented": 4238,
      "Ġdriving": 4239,
      "ĠYouTube": 4240,
      "Ġachieve": 4241,
      "\")": 4242,
      "rey": 4243,
      "Ġwear": 4244,
      "Ġgain": 4245,
      "Ġgave": 4246,
      "iders": 4247,
      "imate": 4248,
      "ĠWater": 4249,
      "Ġforward": 4250,
      "ĠDC": 4251,
      "abet": 4252,
      "Ġheav": 4253,
      "rier": 4254,
      "ĠOver": 4255,
      "Ġ2003": 4256,
      "ologies": 4257,
      "Ġcarry": 4258,
      "Ġcarbon": 4259,
      "Ġ80": 4260,
      "Ġwrite": 4261,
      "Ġindependent": 4262,
      "Ġgreater": 4263,
      "Ġretirement": 4264,
      "74": 4265,
      "PT": 4266,
      "pass": 4267,
      "icks": 4268,
      "ĠSal": 4269,
      "Ġsty": 4270,
      "Ġatmosp": 4271,
      "Ġoutput": 4272,
      "Ġspect": 4273,
      "Ġelected": 4274,
      "Ġattention": 4275,
      "Ġwinner": 4276,
      "Ġhardware": 4277,
      "Ġdivided": 4278,
      "Ġranked": 4279,
      "ĠGeneral": 4280,
      "ĠOffice": 4281,
      "Ġfavorite": 4282,
      "Ġapplied": 4283,
      "het": 4284,
      "Ġsell": 4285,
      "Ġmorning": 4286,
      "Ġthreat": 4287,
      "ĠFer": 4288,
      "Ġexact": 4289,
      "range": 4290,
      "Ġwebs": 4291,
      "Ġindic": 4292,
      "Ġhelped": 4293,
      "Ġtrade": 4294,
      "Ġdevices": 4295,
      "Ġdemand": 4296,
      "ĠSummer": 4297,
      "Ġtouch": 4298,
      "gl": 4299,
      "Ġ,": 4300,
      "Ġawards": 4301,
      "Ġocean": 4302,
      "Ġcorn": 4303,
      "Ġdin": 4304,
      "Ġrepe": 4305,
      "ĠMax": 4306,
      "ĠMont": 4307,
      "Ġbeach": 4308,
      "ĠPrem": 4309,
      "Ġconv": 4310,
      "Ġvote": 4311,
      "abilities": 4312,
      "achus": 4313,
      "Ġago": 4314,
      "Ġ1991": 4315,
      "ĠSwift": 4316,
      "Ġeastern": 4317,
      "Ġconstruction": 4318,
      "Ġcustomer": 4319,
      ");": 4320,
      "II": 4321,
      "ipe": 4322,
      "rm": 4323,
      "uff": 4324,
      "onic": 4325,
      "edic": 4326,
      "also": 4327,
      "Ġfiction": 4328,
      "Ġbrain": 4329,
      "Ġpizza": 4330,
      "lec": 4331,
      "ĠPan": 4332,
      "unch": 4333,
      "ĠNorthern": 4334,
      "ĠInst": 4335,
      "Ġspent": 4336,
      "ĠVis": 4337,
      "Ġscored": 4338,
      "ĠSwitzerland": 4339,
      "Ġolder": 4340,
      "Ġemployees": 4341,
      "Ġbehavior": 4342,
      "Ġfifth": 4343,
      "If": 4344,
      "een": 4345,
      "view": 4346,
      "war": 4347,
      "wind": 4348,
      "ati": 4349,
      "Ġwestern": 4350,
      "Ġbed": 4351,
      "Ġgod": 4352,
      "Ġbeg": 4353,
      "ĠFI": 4354,
      "ĠNintendo": 4355,
      "ĠOut": 4356,
      "uster": 4357,
      "Ġindex": 4358,
      "book": 4359,
      "Ġeveryone": 4360,
      "Ġinstruments": 4361,
      "rizona": 4362,
      "28": 4363,
      "right": 4364,
      "ties": 4365,
      "enced": 4366,
      "ora": 4367,
      "Ġbaby": 4368,
      "leg": 4369,
      "ĠMasters": 4370,
      "ĠDen": 4371,
      "ĠJordan": 4372,
      "âĢ¢": 4373,
      "Ġworth": 4374,
      "Ġspring": 4375,
      "oken": 4376,
      "Ġmostly": 4377,
      "rency": 4378,
      "Ġvisual": 4379,
      "Ġconstruct": 4380,
      "Ġlegal": 4381,
      "Ġquestions": 4382,
      "Ġsafety": 4383,
      "Ġsauce": 4384,
      "achusetts": 4385,
      ",\"": 4386,
      "At": 4387,
      "ER": 4388,
      "kes": 4389,
      "water": 4390,
      "Ġ:": 4391,
      "Ġbanks": 4392,
      "Ġmount": 4393,
      "Ġdoll": 4394,
      "omics": 4395,
      "ĠTamil": 4396,
      "iled": 4397,
      "Ġgot": 4398,
      "ĠInt": 4399,
      "ĠMach": 4400,
      "ĠManchester": 4401,
      "ĠBoth": 4402,
      "ĠHot": 4403,
      "emon": 4404,
      "odies": 4405,
      "ĠJust": 4406,
      "ĠJack": 4407,
      "ĠStrat": 4408,
      "Ġscale": 4409,
      "Ġfeed": 4410,
      "Ġoccurs": 4411,
      "Ġforest": 4412,
      "Ġcommunication": 4413,
      "Ġmemory": 4414,
      "ĠQueen": 4415,
      "For": 4416,
      "ffer": 4417,
      "met": 4418,
      "vest": 4419,
      "Ġtru": 4420,
      "eration": 4421,
      "eria": 4422,
      "ening": 4423,
      "Ġbattle": 4424,
      "ompl": 4425,
      "ĠGames": 4426,
      "ĠFour": 4427,
      "ĠFound": 4428,
      "emic": 4429,
      "ĠNad": 4430,
      "rian": 4431,
      "ĠOs": 4432,
      "ishing": 4433,
      "Ġimpl": 4434,
      "ĠAlso": 4435,
      "Ġevidence": 4436,
      "Ġboat": 4437,
      "Ġartificial": 4438,
      "ĠCanadian": 4439,
      "ĠOlympic": 4440,
      "Ġvegetables": 4441,
      "Ġdefinition": 4442,
      "Ġdamage": 4443,
      "ĠMassachusetts": 4444,
      "29": 4445,
      "IS": 4446,
      "cies": 4447,
      "Ġpil": 4448,
      "oura": 4449,
      "Ġaccompl": 4450,
      "Ġsky": 4451,
      "ĠAnother": 4452,
      "Ġdistribution": 4453,
      "Ġprocesses": 4454,
      "Ġdepend": 4455,
      "Ġchoice": 4456,
      "Ġdivision": 4457,
      "Ġprobably": 4458,
      "American": 4459,
      "Ġera": 4460,
      "atives": 4461,
      "Ġgirl": 4462,
      "ĠMiss": 4463,
      "ĠWal": 4464,
      "ĠBur": 4465,
      "Ġstop": 4466,
      "Ġrub": 4467,
      "Ġheight": 4468,
      "Ġcomposed": 4469,
      "Ġscen": 4470,
      "Ġpassed": 4471,
      "Ġ1950": 4472,
      "Ġmachines": 4473,
      "Ġfemale": 4474,
      "Ġliquid": 4475,
      "500": 4476,
      "AS": 4477,
      "orial": 4478,
      "Ġhole": 4479,
      "Ġreb": 4480,
      "ĠCricket": 4481,
      "ĠBell": 4482,
      "ĠJo": 4483,
      "rief": 4484,
      "Ġkit": 4485,
      "ĠArch": 4486,
      "Ġhimself": 4487,
      "ĠSwed": 4488,
      "Ġprograms": 4489,
      "Ġapplication": 4490,
      "Ġcustomers": 4491,
      "Ġsteps": 4492,
      "Ġdetermine": 4493,
      "Ġborder": 4494,
      "Ġsummary": 4495,
      "iers": 4496,
      "rish": 4497,
      "Ġtall": 4498,
      "Ġbra": 4499,
      "asion": 4500,
      "Ġdang": 4501,
      "Ġgrew": 4502,
      "ĠWars": 4503,
      "ady": 4504,
      "ĠFord": 4505,
      "ĠDie": 4506,
      "Ġmoon": 4507,
      "Ġshoot": 4508,
      "ĠViet": 4509,
      "Ġfollows": 4510,
      "Ġdriver": 4511,
      "Ġproviding": 4512,
      "ĠEngine": 4513,
      "Ġobtain": 4514,
      "enez": 4515,
      "Ġoption": 4516,
      "Ġbrown": 4517,
      "ĠMuseum": 4518,
      "Ġturned": 4519,
      "Ġpaint": 4520,
      "Ġcreating": 4521,
      "ĠSeries": 4522,
      "Ġterritory": 4523,
      "Ġdiscovered": 4524,
      "Ġbound": 4525,
      "Ġbrought": 4526,
      "Ġhy": 4527,
      "Ġlink": 4528,
      "osite": 4529,
      "Ġrang": 4530,
      "ession": 4531,
      "Ġspir": 4532,
      "Ġtea": 4533,
      "ĠChurch": 4534,
      "Ġcontext": 4535,
      "Ġclasses": 4536,
      "ributed": 4537,
      "Ġdefeated": 4538,
      "Ġpowers": 4539,
      "Ġbicycle": 4540,
      "'ve": 4541,
      "Sp": 4542,
      "aud": 4543,
      "more": 4544,
      "Ġchess": 4545,
      "Ġban": 4546,
      "Ġpal": 4547,
      "oma": 4548,
      "Ġhar": 4549,
      "umn": 4550,
      "amin": 4551,
      "Ġthous": 4552,
      "ulf": 4553,
      "Ġrat": 4554,
      "arters": 4555,
      "Ġabilities": 4556,
      "Ġdecided": 4557,
      "Ġended": 4558,
      "Ġallowing": 4559,
      "Ġforeign": 4560,
      "This": 4561,
      "Ġdiscovery": 4562,
      "Ġreplaced": 4563,
      "Ġpreviously": 4564,
      "Ġvehicle": 4565,
      "ĠRichard": 4566,
      "iest": 4567,
      "wise": 4568,
      "zz": 4569,
      "Ã¶": 4570,
      "inks": 4571,
      "ĠArizona": 4572,
      "Ġgarden": 4573,
      "ĠIm": 4574,
      "used": 4575,
      "ĠHuman": 4576,
      "ĠLord": 4577,
      "illa": 4578,
      "Ġracing": 4579,
      "Ġ1992": 4580,
      "tainment": 4581,
      "Ġartists": 4582,
      "Ġwriter": 4583,
      "rump": 4584,
      "Ġopening": 4585,
      "ĠGovern": 4586,
      "Ġtrue": 4587,
      "Ġbiggest": 4588,
      "Ġinitially": 4589,
      "ĠTwo": 4590,
      "ĠCourt": 4591,
      "\".<": 4592,
      "34": 4593,
      "reland": 4594,
      "Ġfer": 4595,
      "Ġdrop": 4596,
      "Ġthr": 4597,
      "ĠBase": 4598,
      "ĠFilm": 4599,
      "Ġuniverse": 4600,
      "Ġearliest": 4601,
      "Ġbreed": 4602,
      "Ġnetworks": 4603,
      "Ġestablish": 4604,
      "Ġfeatured": 4605,
      "ĠDemocratic": 4606,
      "ĠLouis": 4607,
      "enezuel": 4608,
      "77": 4609,
      "ih": 4610,
      "iately": 4611,
      "larg": 4612,
      "och": 4613,
      "Ġop": 4614,
      "Ġsense": 4615,
      "ĠTem": 4616,
      "ĠCat": 4617,
      "Ġstars": 4618,
      "ĠHy": 4619,
      "ĠHill": 4620,
      "ĠNATO": 4621,
      "Ġride": 4622,
      "ĠJim": 4623,
      "ĠInstitute": 4624,
      "Ġrare": 4625,
      "Ġ1983": 4626,
      "Ġstarts": 4627,
      "Ġbuildings": 4628,
      "Ġcycle": 4629,
      "ĠHenry": 4630,
      "'ll": 4631,
      "such": 4632,
      "Ġfine": 4633,
      "Ġbreat": 4634,
      "ĠCor": 4635,
      "uth": 4636,
      "ĠGen": 4637,
      "ĠNob": 4638,
      "Ġplaced": 4639,
      "Ġleave": 4640,
      "Ġprint": 4641,
      "ĠSpace": 4642,
      "Ġtransl": 4643,
      "ĠSwiss": 4644,
      "Ġconflic": 4645,
      "Ġcooking": 4646,
      "Ġmotion": 4647,
      "Ġsymb": 4648,
      "Ġswimming": 4649,
      "ĠInternet": 4650,
      "->": 4651,
      "me": 4652,
      "men": 4653,
      "uis": 4654,
      "vis": 4655,
      "ione": 4656,
      "ilies": 4657,
      "umber": 4658,
      "Ġgraph": 4659,
      "Ġyet": 4660,
      "ĠForm": 4661,
      "agon": 4662,
      "ĠLast": 4663,
      "ĠUp": 4664,
      "Ġprec": 4665,
      "Ġ1996": 4666,
      "ĠScott": 4667,
      "Ġequal": 4668,
      "Ġsecret": 4669,
      "Ġoptim": 4670,
      "Ġexisting": 4671,
      "Ġconsumption": 4672,
      "Ġextremely": 4673,
      "lon": 4674,
      "inal": 4675,
      "rec": 4676,
      "isl": 4677,
      "uments": 4678,
      "ĠIce": 4679,
      "raw": 4680,
      "ĠWil": 4681,
      "ĠBet": 4682,
      "ĠHu": 4683,
      "izens": 4684,
      "ously": 4685,
      "Ġpromin": 4686,
      "Ġ35": 4687,
      "Ġlocations": 4688,
      "Ġ1994": 4689,
      "Ġemot": 4690,
      "Ġparam": 4691,
      "ĠRecords": 4692,
      "Ġliterature": 4693,
      "32": 4694,
      "lim": 4695,
      "ying": 4696,
      "Äģ": 4697,
      "Ġ.": 4698,
      "Ġsus": 4699,
      "urt": 4700,
      "oga": 4701,
      "ĠKe": 4702,
      "ĠKenn": 4703,
      "ipedia": 4704,
      "ĠStud": 4705,
      "Ġspl": 4706,
      "ĠVeg": 4707,
      "named": 4708,
      "Ġreplace": 4709,
      "Ġbecomes": 4710,
      "Ġindependence": 4711,
      "Ġbottom": 4712,
      "Ġnecessary": 4713,
      "found": 4714,
      "Ġurban": 4715,
      "Ġsav": 4716,
      "Ġcru": 4717,
      "esh": 4718,
      "Ġtow": 4719,
      "ĠTor": 4720,
      "ĠSand": 4721,
      "Ġnick": 4722,
      "igan": 4723,
      "ĠRoyal": 4724,
      "ĠNet": 4725,
      "Ġchief": 4726,
      "Ġchampion": 4727,
      "Ġunit": 4728,
      "ĠVenezuel": 4729,
      "Ġroll": 4730,
      "ollowing": 4731,
      "Ġstudied": 4732,
      "ropol": 4733,
      "ĠDistrict": 4734,
      "Ġfranchise": 4735,
      "ĠPremier": 4736,
      "FC": 4737,
      "ault": 4738,
      "Ġcris": 4739,
      "Ġinput": 4740,
      "ĠAv": 4741,
      "ĠDi": 4742,
      "Ġrul": 4743,
      "Ġclosed": 4744,
      "Ġpron": 4745,
      "Ġdisp": 4746,
      "oys": 4747,
      "ansion": 4748,
      "Ġcenturies": 4749,
      "Ġ90": 4750,
      "Ġmarried": 4751,
      "Ġesc": 4752,
      "Ġachieved": 4753,
      "Ġtransportation": 4754,
      "Ġmoment": 4755,
      "Ġcandid": 4756,
      "ES": 4757,
      "PS": 4758,
      "VP": 4759,
      "bl": 4760,
      "part": 4761,
      "uge": 4762,
      "Ġmel": 4763,
      "asp": 4764,
      "ĠBul": 4765,
      "ading": 4766,
      "term": 4767,
      "Ġwhom": 4768,
      "ĠRet": 4769,
      "Ġmolec": 4770,
      "ĠUber": 4771,
      "Ġcontrast": 4772,
      "Inc": 4773,
      "Ġsubst": 4774,
      "Ġacid": 4775,
      "Ġowner": 4776,
      "Ġincreases": 4777,
      "Ġhands": 4778,
      "ĠCenter": 4779,
      "Ġholds": 4780,
      "Ġcorrect": 4781,
      "Ġmotor": 4782,
      "ĠGreece": 4783,
      "ĠVirginia": 4784,
      "isphere": 4785,
      "Ġstyles": 4786,
      "38": 4787,
      "Ġnative": 4788,
      "ĠGood": 4789,
      "Ġcomfort": 4790,
      "ĠLand": 4791,
      "Ġchain": 4792,
      "luding": 4793,
      "isms": 4794,
      "Ġparks": 4795,
      "ancy": 4796,
      "Ġowned": 4797,
      "Ġeth": 4798,
      "Ġdraw": 4799,
      "Ġmanufacturing": 4800,
      "Ġunderstanding": 4801,
      "Ġcells": 4802,
      "aught": 4803,
      "Ġroute": 4804,
      "ĠCarolina": 4805,
      "Ġimmediately": 4806,
      "CC": 4807,
      "Un": 4808,
      "liam": 4809,
      "vant": 4810,
      "yond": 4811,
      "Ġaim": 4812,
      "Ġsen": 4813,
      "anut": 4814,
      "Ġbill": 4815,
      "Ġinh": 4816,
      "Ġhum": 4817,
      "Ġhabit": 4818,
      "ĠIreland": 4819,
      "ĠBrown": 4820,
      "ulated": 4821,
      "Ġship": 4822,
      "ĠKar": 4823,
      "Ġroles": 4824,
      "Ġtwice": 4825,
      "Ġextra": 4826,
      "Ġtypical": 4827,
      "Ġpopularity": 4828,
      "Ġbasis": 4829,
      "Ġclassified": 4830,
      "Ġissue": 4831,
      "aughter": 4832,
      "Ġrecommend": 4833,
      "Ġphenomen": 4834,
      "down": 4835,
      "hand": 4836,
      "Ã¨": 4837,
      "aling": 4838,
      "Ġpit": 4839,
      "inger": 4840,
      "Ġharm": 4841,
      "urd": 4842,
      "ĠBattle": 4843,
      "ĠTheir": 4844,
      "ĠFA": 4845,
      "ategy": 4846,
      "aped": 4847,
      "Ġkilled": 4848,
      "Ġspoken": 4849,
      "Ġassist": 4850,
      "Ġgoods": 4851,
      "Ġserving": 4852,
      "Ġsett": 4853,
      "ropri": 4854,
      "Ġclassical": 4855,
      "Ġvalues": 4856,
      "Ġstrategy": 4857,
      "Ġvacation": 4858,
      "Ġfrequently": 4859,
      "Ġeyes": 4860,
      "Ġchemical": 4861,
      "Ġdatabase": 4862,
      "BS": 4863,
      "citation": 4864,
      "lam": 4865,
      "inet": 4866,
      "Ġbrief": 4867,
      "ĠCam": 4868,
      "ĠCouncil": 4869,
      "Ġorange": 4870,
      "ested": 4871,
      "Ġvice": 4872,
      "Ġplastic": 4873,
      "place": 4874,
      "Ġrelatively": 4875,
      "Ġ1995": 4876,
      "Ġcreation": 4877,
      "Ġaddress": 4878,
      "Ġends": 4879,
      "ĠYoung": 4880,
      "ĠColumb": 4881,
      "Ġpurs": 4882,
      ".\"<": 4883,
      "Ġidentify": 4884,
      "ĠJeff": 4885,
      "39": 4886,
      "67": 4887,
      "Pal": 4888,
      "Sh": 4889,
      "band": 4890,
      "ĠTim": 4891,
      "ĠAPI": 4892,
      "ĠBob": 4893,
      "ersey": 4894,
      "adel": 4895,
      "una": 4896,
      "Ġalcohol": 4897,
      "osis": 4898,
      "Ġconsec": 4899,
      "Ġrh": 4900,
      "ears": 4901,
      "Ġgoes": 4902,
      "Ġmuseum": 4903,
      "Ġlargely": 4904,
      "Ġsetting": 4905,
      "Ġ1965": 4906,
      "Ġoccup": 4907,
      "Ġstands": 4908,
      "Ġreduced": 4909,
      "Ġweights": 4910,
      "Ġtrying": 4911,
      "Ġdestroy": 4912,
      "Ġlaunch": 4913,
      "Ġalternative": 4914,
      "ĠGeorgia": 4915,
      "liament": 4916,
      "89": 4917,
      "vement": 4918,
      "well": 4919,
      "Ġhundred": 4920,
      "Ġlic": 4921,
      "ĠMic": 4922,
      "Ġbeans": 4923,
      "Ġsection": 4924,
      "ĠUt": 4925,
      "ĠOld": 4926,
      "Ġdecades": 4927,
      "Ġ1993": 4928,
      "Ġcapac": 4929,
      "ashion": 4930,
      "azz": 4931,
      "box": 4932,
      "Ġmedium": 4933,
      "Ġdoesn": 4934,
      "ĠBritain": 4935,
      "ĠFinals": 4936,
      "Ġmanager": 4937,
      "ĠBook": 4938,
      "ĠCommon": 4939,
      "Ġdemonst": 4940,
      "ĠFederal": 4941,
      "Ġacquired": 4942,
      "ibrary": 4943,
      "ais": 4944,
      "rates": 4945,
      "vation": 4946,
      "Ġtrib": 4947,
      "inations": 4948,
      "orter": 4949,
      "Ġden": 4950,
      "Ġren": 4951,
      "Ġgiving": 4952,
      "Ġcoming": 4953,
      "Ġsuffer": 4954,
      "Ġnote": 4955,
      "Ġneural": 4956,
      "ĠAsian": 4957,
      "rones": 4958,
      "Ġmainly": 4959,
      "Ġadvanced": 4960,
      "Ġfields": 4961,
      "Ġclubs": 4962,
      "Ġrecognition": 4963,
      "ophy": 4964,
      "Ġvictory": 4965,
      "ĠDivision": 4966,
      "Ġmobile": 4967,
      "fish": 4968,
      "Ġtim": 4969,
      "inn": 4970,
      "arks": 4971,
      "Ġpsych": 4972,
      "Ġhour": 4973,
      "ĠTrans": 4974,
      "Ġgained": 4975,
      "ĠWall": 4976,
      "ĠBeng": 4977,
      "unction": 4978,
      "Ġord": 4979,
      "ĠJones": 4980,
      "ĠJoe": 4981,
      "ĠUnder": 4982,
      "earch": 4983,
      "Ġspot": 4984,
      "2019": 4985,
      "hesis": 4986,
      "Ġ1985": 4987,
      "Ġnearby": 4988,
      "Ġinflation": 4989,
      "ĠOrgan": 4990,
      "Ġoccurred": 4991,
      "ĠRoad": 4992,
      "Ġrecognized": 4993,
      "Ġkilometres": 4994,
      "ĠHawaii": 4995,
      "After": 4996,
      "Bl": 4997,
      "iable": 4998,
      "ras": 4999,
      "Ġx": 5000,
      "arry": 5001,
      "Ġbow": 5002,
      "Ġmamm": 5003,
      "iced": 5004,
      "Ġdrug": 5005,
      "ĠTaylor": 5006,
      "ĠSqu": 5007,
      "Ġrent": 5008,
      "imens": 5009,
      "ĠThen": 5010,
      "ĠHel": 5011,
      "ĠHem": 5012,
      "acing": 5013,
      "ĠStep": 5014,
      "Ġspin": 5015,
      "ranean": 5016,
      "Ġuns": 5017,
      "Ġdoor": 5018,
      "Ġarts": 5019,
      "Ġdishes": 5020,
      "Ġagg": 5021,
      "othing": 5022,
      "Ġfamilies": 5023,
      "rows": 5024,
      "Ġstreet": 5025,
      "Ġidentified": 5026,
      "Ġlimit": 5027,
      "Ġcollection": 5028,
      "Ġrequirements": 5029,
      "Ġskiing": 5030,
      "Ġsympt": 5031,
      "Ġexpected": 5032,
      "Ġsandw": 5033,
      "Ġcredit": 5034,
      "ĠAdditionally": 5035,
      "Ġnormal": 5036,
      "Ġappointed": 5037,
      "miss": 5038,
      "Ġwoman": 5039,
      "alle": 5040,
      "Ġhun": 5041,
      "Ġgets": 5042,
      "ĠPet": 5043,
      "ĠPok": 5044,
      "ager": 5045,
      "ĠRob": 5046,
      "Ġteach": 5047,
      "Ġtraffic": 5048,
      "ailed": 5049,
      "ĠâĢĶ": 5050,
      "Ġexplain": 5051,
      "Ġconstant": 5052,
      "Ġinfluential": 5053,
      "Ġconnected": 5054,
      "Ġprojects": 5055,
      "burg": 5056,
      "rophy": 5057,
      "largest": 5058,
      "lines": 5059,
      "Ġovers": 5060,
      "Ġwat": 5061,
      "Ġwick": 5062,
      "ittle": 5063,
      "Ġdish": 5064,
      "Ġdiverse": 5065,
      "entially": 5066,
      "Ġlabor": 5067,
      "stone": 5068,
      "ĠAT": 5069,
      "ctic": 5070,
      "Ġnine": 5071,
      "ĠMot": 5072,
      "ĠMatt": 5073,
      "Ġeating": 5074,
      "Ġstru": 5075,
      "anda": 5076,
      "Ġsuit": 5077,
      "Ġcompris": 5078,
      "Ġunits": 5079,
      "ĠYes": 5080,
      "Ġneut": 5081,
      "Ġrecip": 5082,
      "Ġleadership": 5083,
      "ĠAdams": 5084,
      "Ġparticles": 5085,
      "Ġadvance": 5086,
      "Ġpresidential": 5087,
      "Ġjoin": 5088,
      "Ġbenefit": 5089,
      "Ġwalking": 5090,
      "iterranean": 5091,
      "Ġstraight": 5092,
      "Ġjournal": 5093,
      "37": 5094,
      "jp": 5095,
      "ygen": 5096,
      "edom": 5097,
      "rog": 5098,
      "ĠAz": 5099,
      "ightly": 5100,
      "ĠKn": 5101,
      "Ġfloor": 5102,
      "Ġpoor": 5103,
      "ĠArgent": 5104,
      "Ġ1988": 5105,
      "Ġgrapes": 5106,
      "ĠReal": 5107,
      "Ġcultures": 5108,
      "Ġpromot": 5109,
      "Ġinvolves": 5110,
      "Ġrepresented": 5111,
      "ĠRussian": 5112,
      "ĠSociety": 5113,
      "...": 5114,
      "Ġcollabor": 5115,
      "Ġinnov": 5116,
      "Ġbalance": 5117,
      "LA": 5118,
      "ba": 5119,
      "Ġbud": 5120,
      "ĠSk": 5121,
      "ĠMem": 5122,
      "Ġstress": 5123,
      "ĠPen": 5124,
      "ĠPop": 5125,
      "ĠFar": 5126,
      "ĠRh": 5127,
      "ĠNavy": 5128,
      "aval": 5129,
      "Ġchair": 5130,
      "Ġlett": 5131,
      "ĠKong": 5132,
      "ĠStan": 5133,
      "Ġweb": 5134,
      "Ġpartner": 5135,
      "ega": 5136,
      "Ġflour": 5137,
      "Ġ1940": 5138,
      "Ġwanted": 5139,
      "Ġindustrial": 5140,
      "Ġdiscuss": 5141,
      "ĠMcC": 5142,
      "Ġcosts": 5143,
      "Ġpresented": 5144,
      "Ġpiece": 5145,
      "Ġfantasy": 5146,
      "Ġjuice": 5147,
      "bell": 5148,
      "life": 5149,
      "rative": 5150,
      "upp": 5151,
      "ynam": 5152,
      "zen": 5153,
      "Ġsq": 5154,
      "Ġfly": 5155,
      "Ġmicro": 5156,
      "otic": 5157,
      "Ġgives": 5158,
      "ĠIll": 5159,
      "ador": 5160,
      "ĠGolf": 5161,
      "ĠNight": 5162,
      "Ġpros": 5163,
      "resp": 5164,
      "Ġshown": 5165,
      "Ġappropri": 5166,
      "Ġattended": 5167,
      "Ġearned": 5168,
      "ĠSpark": 5169,
      "Ġ1986": 5170,
      "Ġleaders": 5171,
      "ructure": 5172,
      "ropical": 5173,
      "Ġaircraft": 5174,
      "Ġrespond": 5175,
      "Ġcombined": 5176,
      "borne": 5177,
      "Ġfigure": 5178,
      "Ġpurchase": 5179,
      "Ġexecutive": 5180,
      "Ġrespectively": 5181,
      "Ġepisodes": 5182,
      "Ġderived": 5183,
      "ĠSenate": 5184,
      "ython": 5185,
      "ĠAlexander": 5186,
      "Ġrestaurants": 5187,
      "\"<": 5188,
      "45": 5189,
      "66": 5190,
      "EFA": 5191,
      "MS": 5192,
      "oors": 5193,
      "Ġ?<": 5194,
      "Ġsch": 5195,
      "aled": 5196,
      "Ġbikes": 5197,
      "ĠAge": 5198,
      "ĠCub": 5199,
      "ĠMore": 5200,
      "ĠMVP": 5201,
      "ĠBall": 5202,
      "ĠRog": 5203,
      "ĠEnd": 5204,
      "Ġdeploy": 5205,
      "Ġadvent": 5206,
      "Ġjoint": 5207,
      "Ġcommit": 5208,
      "enses": 5209,
      "ensity": 5210,
      "Ġdisplay": 5211,
      "Ġtransform": 5212,
      "ĠColor": 5213,
      "ĠCoast": 5214,
      "Ġstructures": 5215,
      "Ġstatus": 5216,
      "Ġviews": 5217,
      "Ġcircuit": 5218,
      "opping": 5219,
      "Ġdeclared": 5220,
      "Ġconsecutive": 5221,
      "\":": 5222,
      "100": 5223,
      "And": 5224,
      "col": 5225,
      "chen": 5226,
      "rete": 5227,
      "Ġlat": 5228,
      "Ġlived": 5229,
      "olved": 5230,
      "ĠMel": 5231,
      "ĠMake": 5232,
      "Ġbear": 5233,
      "Ġstated": 5234,
      "ĠFort": 5235,
      "ĠLab": 5236,
      "Ġvo": 5237,
      "Ġcancer": 5238,
      "ection": 5239,
      "order": 5240,
      "ĠAmericans": 5241,
      "195": 5242,
      "Ġwhereas": 5243,
      "Ġcream": 5244,
      "Ġstudent": 5245,
      "Ġfunctions": 5246,
      "ĠBeach": 5247,
      "Ġcontrovers": 5248,
      "ĠIndiana": 5249,
      "ographic": 5250,
      "Ġcalcul": 5251,
      "regon": 5252,
      "Ġappearance": 5253,
      "Ġletter": 5254,
      "ĠBerlin": 5255,
      "Ġsituation": 5256,
      "Ġcouple": 5257,
      "Ġtaste": 5258,
      "ĠRevolution": 5259,
      "):": 5260,
      "31": 5261,
      "oom": 5262,
      "Ġfuel": 5263,
      "ette": 5264,
      "igen": 5265,
      "ĠDu": 5266,
      "ĠJon": 5267,
      "ĠUEFA": 5268,
      "active": 5269,
      "Ġprime": 5270,
      "phia": 5271,
      "weight": 5272,
      "obe": 5273,
      "Ġformal": 5274,
      "Ġflavor": 5275,
      "Ġpoll": 5276,
      "ĠDevelop": 5277,
      "rison": 5278,
      "Ġtechnique": 5279,
      "Ġplanning": 5280,
      "Ġorganizations": 5281,
      "Ġeasier": 5282,
      "Ġmarketing": 5283,
      "Ġrecommended": 5284,
      "Ġneighbor": 5285,
      "Ġbegins": 5286,
      "Ġmountains": 5287,
      "jpg": 5288,
      "CO": 5289,
      "Ġbass": 5290,
      "Ġmental": 5291,
      "Ġdance": 5292,
      "state": 5293,
      "stream": 5294,
      "ĠCorpor": 5295,
      "ĠBre": 5296,
      "ĠPak": 5297,
      "istory": 5298,
      "ĠOregon": 5299,
      "Ġ300": 5300,
      "ĠAlaska": 5301,
      "Ġdespite": 5302,
      "Ġproduces": 5303,
      "Ġdefense": 5304,
      "Ġsolve": 5305,
      "Ġplanets": 5306,
      "Ġcontinuous": 5307,
      "Ġcomputers": 5308,
      "Ġfeeling": 5309,
      "Ġwoodwind": 5310,
      "ĠKorea": 5311,
      "ĠCEO": 5312,
      "Ġoutdoor": 5313,
      "ĠBaseball": 5314,
      "ropolitan": 5315,
      "adelphia": 5316,
      ".âĢĿ": 5317,
      "SO": 5318,
      "cell": 5319,
      "uable": 5320,
      "Ġmac": 5321,
      "ican": 5322,
      "ĠTy": 5323,
      "ĠSub": 5324,
      "ĠCath": 5325,
      "Ġbeyond": 5326,
      "ĠPel": 5327,
      "ulpt": 5328,
      "Ġconvers": 5329,
      "ĠElectric": 5330,
      "Ġchurch": 5331,
      "ĠKen": 5332,
      "ĠVict": 5333,
      "Ġagric": 5334,
      "Ġ45": 5335,
      "Ġflav": 5336,
      "Ġattacks": 5337,
      "Ġpool": 5338,
      "ĠScience": 5339,
      "Ġexperien": 5340,
      "Ġpolitician": 5341,
      "Ġcharacteristics": 5342,
      "former": 5343,
      "Ġzone": 5344,
      "ĠMediterranean": 5345,
      "Ġcovered": 5346,
      "ĠPlayer": 5347,
      "Ġcharged": 5348,
      "Ġterritories": 5349,
      "Ġinstitutions": 5350,
      "Ġreligious": 5351,
      "Ġaspects": 5352,
      "Ġweapons": 5353,
      "Ġsymbol": 5354,
      "27": 5355,
      "vin": 5356,
      "wan": 5357,
      "yer": 5358,
      "ÉĽ": 5359,
      "isher": 5360,
      "Ġdu": 5361,
      "Ġdedic": 5362,
      "ĠSir": 5363,
      "Ġnice": 5364,
      "Ġbeat": 5365,
      "ĠLove": 5366,
      "abeth": 5367,
      "Ġseem": 5368,
      "ĠVol": 5369,
      "ressive": 5370,
      "Ġflag": 5371,
      "rams": 5372,
      "Ġremoved": 5373,
      "Ġminimum": 5374,
      "Ġ70": 5375,
      "Ġtechnologies": 5376,
      "ĠExpl": 5377,
      "ception": 5378,
      "Ġvolume": 5379,
      "Ġaccounts": 5380,
      "chers": 5381,
      "Ġsequence": 5382,
      "CAA": 5383,
      "contin": 5384,
      "ĠVietnam": 5385,
      "49": 5386,
      ":/": 5387,
      "bra": 5388,
      "âĪ": 5389,
      "onia": 5390,
      "atre": 5391,
      "Ġdial": 5392,
      "ĠTar": 5393,
      "Ġreco": 5394,
      "umes": 5395,
      "unning": 5396,
      "aine": 5397,
      "Ġrough": 5398,
      "ĠJes": 5399,
      "Ġchance": 5400,
      "Ġteac": 5401,
      "ibly": 5402,
      "Ġtherefore": 5403,
      "Ġattend": 5404,
      "Ġremained": 5405,
      "Ġ1975": 5406,
      "ĠPlan": 5407,
      "ĠPrime": 5408,
      "Ġamounts": 5409,
      "Ġbiryani": 5410,
      "ĠChampionships": 5411,
      "Ġhoriz": 5412,
      "ĠJoseph": 5413,
      "Ġwebsite": 5414,
      "Ġsplit": 5415,
      "07": 5416,
      "rus": 5417,
      "uer": 5418,
      "Ġbat": 5419,
      "ĠSil": 5420,
      "eline": 5421,
      "Ġnations": 5422,
      "Ġgrown": 5423,
      "Ġsust": 5424,
      "ibb": 5425,
      "Ġcommand": 5426,
      "Ġsubs": 5427,
      "pective": 5428,
      "Ġedition": 5429,
      "Ġprofessor": 5430,
      "Ġreading": 5431,
      "Ġclimbing": 5432,
      "Ġprices": 5433,
      "Ġobserved": 5434,
      "ĠDespite": 5435,
      "Ġmeeting": 5436,
      "Ġhappy": 5437,
      "Ġholiday": 5438,
      "Ġsymptoms": 5439,
      "://": 5440,
      "rich": 5441,
      "rise": 5442,
      "Ġwall": 5443,
      "Ġpair": 5444,
      "Ġhair": 5445,
      "ĠBab": 5446,
      "ĠPublic": 5447,
      "Ġalone": 5448,
      "ĠFore": 5449,
      "ĠEvery": 5450,
      "Ġrich": 5451,
      "ĠJr": 5452,
      "Ġexer": 5453,
      "Ġrecently": 5454,
      "lets": 5455,
      "Ġacadem": 5456,
      "azine": 5457,
      "Ġcompletely": 5458,
      "Ġinternet": 5459,
      "Ġremaining": 5460,
      "ĠDepartment": 5461,
      "Ġaccomplish": 5462,
      "iated": 5463,
      "spe": 5464,
      "Ġaware": 5465,
      "Ġol": 5466,
      "Ġsort": 5467,
      "oration": 5468,
      "ĠMajor": 5469,
      "ĠWay": 5470,
      "Ġ(\"": 5471,
      "oday": 5472,
      "ĠRom": 5473,
      "ĠNep": 5474,
      "ĠOx": 5475,
      "Ġkid": 5476,
      "duct": 5477,
      "ĠThree": 5478,
      "reek": 5479,
      "ologist": 5480,
      "Ġrelax": 5481,
      "Ġexpansion": 5482,
      "Ġstudio": 5483,
      "Ġrecording": 5484,
      "Ġcompete": 5485,
      "iami": 5486,
      "Ġcondition": 5487,
      "Ġready": 5488,
      "Ġbanking": 5489,
      "rapy": 5490,
      "ĠPhiladelphia": 5491,
      "Ġproposed": 5492,
      "Ġmixed": 5493,
      "Ġselected": 5494,
      "rastructure": 5495,
      "Ġepisode": 5496,
      "Ġessential": 5497,
      "ĠPayPal": 5498,
      "ĠStratoc": 5499,
      "Ġcapacity": 5500,
      "68": 5501,
      "fast": 5502,
      "ooth": 5503,
      "pan": 5504,
      "Ġtheore": 5505,
      "onn": 5506,
      "onym": 5507,
      "Ġpict": 5508,
      "Ġpitch": 5509,
      "Ġlatter": 5510,
      "rol": 5511,
      "umin": 5512,
      "raine": 5513,
      "thi": 5514,
      "ĠLong": 5515,
      "Ġtrail": 5516,
      "Ġpeanut": 5517,
      "Ġ185": 5518,
      "Ġworkers": 5519,
      "Ġdrivers": 5520,
      "Ġdeveloping": 5521,
      "Ġload": 5522,
      "Ġcapt": 5523,
      "ĠAnn": 5524,
      "Ġeffort": 5525,
      "azing": 5526,
      "Ġ1969": 5527,
      "Ġmedic": 5528,
      "Ġoriginated": 5529,
      "ĠScot": 5530,
      "Ġstrateg": 5531,
      "Ġsignificantly": 5532,
      "Ġbrands": 5533,
      "ĠModel": 5534,
      "ocolate": 5535,
      "ittee": 5536,
      "Ġcitizens": 5537,
      "ĠFIFA": 5538,
      "47": 5539,
      "east": 5540,
      "uing": 5541,
      "Ġu": 5542,
      "Ġiron": 5543,
      "Ġfict": 5544,
      "Ġbodies": 5545,
      "Ġmission": 5546,
      "rael": 5547,
      "ĠHam": 5548,
      "ĠGh": 5549,
      "ĠDet": 5550,
      "ĠLight": 5551,
      "Ġexhib": 5552,
      "Ġjump": 5553,
      "Ġdifferences": 5554,
      "hens": 5555,
      "Ġfinally": 5556,
      "Ġmetres": 5557,
      "Ġ1981": 5558,
      "Ġ1984": 5559,
      "Ġsimpl": 5560,
      "Ġminer": 5561,
      "Ġ1977": 5562,
      "Ġdetails": 5563,
      "ttps": 5564,
      "Ġrevolution": 5565,
      "Ġbiological": 5566,
      "Ġtemperatures": 5567,
      "mitted": 5568,
      "ĠBelg": 5569,
      "Ġconducted": 5570,
      "Ġmanufacturer": 5571,
      "Ġastron": 5572,
      "Ġschol": 5573,
      "88": 5574,
      "Ġsco": 5575,
      "Ġselling": 5576,
      "Ġcatch": 5577,
      "Ġwa": 5578,
      "orph": 5579,
      "itter": 5580,
      "Ġfans": 5581,
      "Ġmut": 5582,
      "Ġstored": 5583,
      "Ġstores": 5584,
      "agement": 5585,
      "ĠOb": 5586,
      "Ġleaving": 5587,
      "ĠKu": 5588,
      "iana": 5589,
      "ĠVer": 5590,
      "ĠVen": 5591,
      "Ġsculpt": 5592,
      "Ġsoil": 5593,
      "Ġactor": 5594,
      "Ġassets": 5595,
      "fully": 5596,
      "ancing": 5597,
      "Ġstreaming": 5598,
      "gency": 5599,
      "ĠTechn": 5600,
      "Ġzero": 5601,
      "Ġlearned": 5602,
      "Ġoffered": 5603,
      "Ġinternal": 5604,
      "ĠService": 5605,
      "ĠDiego": 5606,
      "Pl": 5607,
      "aug": 5608,
      "cling": 5609,
      "ker": 5610,
      "mission": 5611,
      "Ġtherm": 5612,
      "Ġsides": 5613,
      "itors": 5614,
      "Ġfle": 5615,
      "Ġfirm": 5616,
      "ĠMu": 5617,
      "ĠMur": 5618,
      "utional": 5619,
      "ĠFollowing": 5620,
      "Ġvent": 5621,
      "Ġsuc": 5622,
      "ĠOh": 5623,
      "izabeth": 5624,
      "outheast": 5625,
      "2021": 5626,
      "Ġcarried": 5627,
      "Ġsignal": 5628,
      "Ġstret": 5629,
      "Ġsupported": 5630,
      "Ġbands": 5631,
      "Ġproperties": 5632,
      "Ġdestination": 5633,
      "Ġsentiment": 5634,
      "Ġreaching": 5635,
      "Ġclaimed": 5636,
      "Ġasked": 5637,
      "ĠTurkey": 5638,
      "Ġfixed": 5639,
      "Ġdangerous": 5640,
      "Ġstrugg": 5641,
      "IT": 5642,
      "We": 5643,
      "net": 5644,
      "tun": 5645,
      "Ã£": 5646,
      "ishes": 5647,
      "Ġpaid": 5648,
      "ĠSnow": 5649,
      "elly": 5650,
      "Ġreve": 5651,
      "ĠBal": 5652,
      "ĠPenn": 5653,
      "ĠPeter": 5654,
      "agues": 5655,
      "iller": 5656,
      "Ġseg": 5657,
      "ĠJersey": 5658,
      "Ġplot": 5659,
      "Ġshared": 5660,
      "sole": 5661,
      "ĠThrones": 5662,
      "Ġgenre": 5663,
      "Ġamb": 5664,
      "Ġphr": 5665,
      "Ġnewsp": 5666,
      "Ġpresence": 5667,
      "Ġ1963": 5668,
      "ĠForce": 5669,
      "teen": 5670,
      "enger": 5671,
      "ĠCarl": 5672,
      "Ġopposite": 5673,
      "Ġelement": 5674,
      "idden": 5675,
      "aniel": 5676,
      "Ġresear": 5677,
      "Ġconsisting": 5678,
      "Ġtaxes": 5679,
      "ĠĠĠĠĠĠĠĠ": 5680,
      "Ġaudience": 5681,
      "amilton": 5682,
      "writer": 5683,
      "Ġdomesticated": 5684,
      "Ġchallenges": 5685,
      "Ġdouble": 5686,
      "Ġadjust": 5687,
      "Ġalgorithm": 5688,
      "Increase": 5689,
      "Ġappropriate": 5690,
      "ĠCorporation": 5691,
      "AM": 5692,
      "Ex": 5693,
      "point": 5694,
      "Ġir": 5695,
      "orize": 5696,
      "itage": 5697,
      "Ġfashion": 5698,
      "Ġmort": 5699,
      "rav": 5700,
      "ĠWild": 5701,
      "ĠBern": 5702,
      "irus": 5703,
      "Ġstadium": 5704,
      "ĠNCAA": 5705,
      "ĠEll": 5706,
      "rip": 5707,
      "irect": 5708,
      "Ġparties": 5709,
      "Ġrobot": 5710,
      "2018": 5711,
      "Ġgenerate": 5712,
      "Ġeverything": 5713,
      "ervation": 5714,
      "Ġ1945": 5715,
      "ivalent": 5716,
      "Ġfishing": 5717,
      "Ġfastest": 5718,
      "Ġempire": 5719,
      "ĠLLMs": 5720,
      "ĠNobel": 5721,
      "03": 5722,
      "TV": 5723,
      "selling": 5724,
      "win": 5725,
      "orer": 5726,
      "Ġfair": 5727,
      "Ġinform": 5728,
      "Ġdaughter": 5729,
      "ila": 5730,
      "etary": 5731,
      "igation": 5732,
      "aya": 5733,
      "ĠDNA": 5734,
      "ĠLas": 5735,
      "ĠEver": 5736,
      "ĠUk": 5737,
      "ĠOper": 5738,
      "Ġcovers": 5739,
      "ĠChampions": 5740,
      "Ġimage": 5741,
      "Ġresidents": 5742,
      "Ġupd": 5743,
      "Ġacting": 5744,
      "197": 5745,
      "ĠArts": 5746,
      "Ġ1987": 5747,
      "ĠDev": 5748,
      "Ġentered": 5749,
      "boards": 5750,
      "Ġ1964": 5751,
      "vention": 5752,
      "embly": 5753,
      "reme": 5754,
      "load": 5755,
      "Ġlayers": 5756,
      "Ġcategories": 5757,
      "Ġhonor": 5758,
      "Ġexpanded": 5759,
      "ĠArea": 5760,
      "Ġinstructions": 5761,
      "Be": 5762,
      "bour": 5763,
      "flow": 5764,
      "oir": 5765,
      "oral": 5766,
      "Ġdro": 5767,
      "Ġlose": 5768,
      "ĠSy": 5769,
      "ĠSyd": 5770,
      "ĠAD": 5771,
      "ĠIran": 5772,
      "ĠMa": 5773,
      "ĠBro": 5774,
      "throp": 5775,
      "ĠRos": 5776,
      "ĠLu": 5777,
      "ĠLittle": 5778,
      "resents": 5779,
      "ĠJud": 5780,
      "ĠOtt": 5781,
      "Ġnotable": 5782,
      "perial": 5783,
      "Ġperman": 5784,
      "ĠYour": 5785,
      "awn": 5786,
      "Ġskin": 5787,
      "Ġremember": 5788,
      "Ġ1973": 5789,
      "Ġ1979": 5790,
      "Ġtechnical": 5791,
      "Ġsolo": 5792,
      "Ġoperation": 5793,
      "Ġofficer": 5794,
      "Ġ1930": 5795,
      "ĠBarb": 5796,
      "inois": 5797,
      "Ġencoura": 5798,
      "Ġfailed": 5799,
      "Ġprepared": 5800,
      "Ġadopted": 5801,
      "Ġopportunity": 5802,
      "Ġoxygen": 5803,
      "respond": 5804,
      "QL": 5805,
      "cos": 5806,
      "fit": 5807,
      "fall": 5808,
      "name": 5809,
      "rot": 5810,
      "ses": 5811,
      "uation": 5812,
      "Ġtropical": 5813,
      "indu": 5814,
      "Ġcuis": 5815,
      "encing": 5816,
      "Ġmig": 5817,
      "ĠTake": 5818,
      "lywood": 5819,
      "Ġstick": 5820,
      "ĠHamilton": 5821,
      "ĠGDP": 5822,
      "ĠDec": 5823,
      "ĠRem": 5824,
      "Ġconsole": 5825,
      "Ġrivers": 5826,
      "izard": 5827,
      "Ġimag": 5828,
      "Ġrow": 5829,
      "Ġquite": 5830,
      "Ġproducer": 5831,
      "Ġpoet": 5832,
      "Ġanything": 5833,
      "Ġplane": 5834,
      "Ġresulting": 5835,
      "Ġcommunities": 5836,
      "ĠConference": 5837,
      "clus": 5838,
      "Ġbroken": 5839,
      "ĠFinally": 5840,
      "Ġmanaged": 5841,
      "Ġhousehold": 5842,
      "stitution": 5843,
      "Ġbuying": 5844,
      "Ġnovels": 5845,
      "Ġprobability": 5846,
      "ĠSanta": 5847,
      "Ġinspired": 5848,
      "Ġatmosphere": 5849,
      "Ġconstructed": 5850,
      "Ġthousands": 5851,
      "Ġbudget": 5852,
      "NSA": 5853,
      "Ã§": 5854,
      "Ã¼": 5855,
      "ano": 5856,
      "arate": 5857,
      "Ġmap": 5858,
      "Ġmaster": 5859,
      "Ġhope": 5860,
      "Ġisol": 5861,
      "enth": 5862,
      "ĠSpe": 5863,
      "ĠSaint": 5864,
      "Ġreality": 5865,
      "ĠCast": 5866,
      "ĠWales": 5867,
      "uration": 5868,
      "adi": 5869,
      "ĠLy": 5870,
      "ĠLakers": 5871,
      "Ġvan": 5872,
      "ĠStone": 5873,
      "rics": 5874,
      "Ġadvert": 5875,
      "ĠAltern": 5876,
      "Ġregional": 5877,
      "Ġcentre": 5878,
      "Ġmuscle": 5879,
      "Ġextended": 5880,
      "Ġemail": 5881,
      "Ġ1974": 5882,
      "Ġmarked": 5883,
      "annel": 5884,
      "Ġinvestors": 5885,
      "Ġpainting": 5886,
      "Ġelse": 5887,
      "ĠBillboard": 5888,
      "Ġeye": 5889,
      "iplom": 5890,
      "ĠWindows": 5891,
      "Ġincorporated": 5892,
      "ĠIllinois": 5893,
      "gon": 5894,
      "mond": 5895,
      "vard": 5896,
      "with": 5897,
      "inter": 5898,
      "Ġfought": 5899,
      "Ġbath": 5900,
      "Ġbowl": 5901,
      "oto": 5902,
      "ĠTreat": 5903,
      "ĠToy": 5904,
      "Ġretain": 5905,
      "Ġgear": 5906,
      "ĠMiami": 5907,
      "Ġhero": 5908,
      "ighth": 5909,
      "Ġsevent": 5910,
      "ĠChris": 5911,
      "ront": 5912,
      "Ġminute": 5913,
      "Ġorganized": 5914,
      "Ġcontinues": 5915,
      "Ġlegisl": 5916,
      "Ġinterests": 5917,
      "Ġvideos": 5918,
      "ĠIII": 5919,
      "Ġdraft": 5920,
      "ĠResearch": 5921,
      "marize": 5922,
      "Ġfluid": 5923,
      "Ġpopulous": 5924,
      "Ġbirds": 5925,
      "Ġbranch": 5926,
      "ĠFormula": 5927,
      "Ġprominent": 5928,
      "âĪĴ": 5929,
      "New": 5930,
      "When": 5931,
      "bor": 5932,
      "dam": 5933,
      "rn": 5934,
      "ua": 5935,
      "Ġaer": 5936,
      "Ġcash": 5937,
      "Ġfestival": 5938,
      "Ġbridge": 5939,
      "Ġhiking": 5940,
      "amily": 5941,
      "Ġnort": 5942,
      "ĠBudd": 5943,
      "Ġstorm": 5944,
      "ulate": 5945,
      "isters": 5946,
      "istical": 5947,
      "ĠNow": 5948,
      "ĠLin": 5949,
      "Ġplans": 5950,
      "apes": 5951,
      "Ġexchange": 5952,
      "duc": 5953,
      "Ġsched": 5954,
      "ĠAlb": 5955,
      "Ġactions": 5956,
      "Ġworkout": 5957,
      "Ġdecisions": 5958,
      "Ġcapabilities": 5959,
      "Ġpositions": 5960,
      "Ġdistingu": 5961,
      "Ġentity": 5962,
      "Ġminor": 5963,
      "ĠIsrael": 5964,
      "Ġ1968": 5965,
      "including": 5966,
      "Ġfactor": 5967,
      "Ġcultiv": 5968,
      "Ġappears": 5969,
      "class": 5970,
      "Ġswitch": 5971,
      "Ġengineer": 5972,
      "ĠFinland": 5973,
      "boarding": 5974,
      "Ġbelief": 5975,
      "Ġmeasured": 5976,
      "Ġscientists": 5977,
      "Ġquantum": 5978,
      "listen": 5979,
      "48": 5980,
      "pool": 5981,
      "ters": 5982,
      "inces": 5983,
      "eries": 5984,
      "arp": 5985,
      "Ġbomb": 5986,
      "Ġhomes": 5987,
      "Ġgal": 5988,
      "ĠCy": 5989,
      "ĠCamb": 5990,
      "raq": 5991,
      "ĠMen": 5992,
      "Ġorig": 5993,
      "estyle": 5994,
      "Ġplate": 5995,
      "ells": 5996,
      "ograp": 5997,
      "Ġjack": 5998,
      "Ġpepper": 5999,
      "Ġsyn": 6000,
      "Ġpoem": 6001,
      "onder": 6002,
      "Ġretired": 6003,
      "Ġresulted": 6004,
      "ĠAustria": 6005,
      "Ġcontinent": 6006,
      "Ġapproaches": 6007,
      "Ġtrust": 6008,
      "Ġcert": 6009,
      "Ġspecifically": 6010,
      "Ġmeasures": 6011,
      "Ġcorrespond": 6012,
      "ĠModern": 6013,
      "ĠSmith": 6014,
      "Ġextreme": 6015,
      "Ġcorporate": 6016,
      "Ġsurrounding": 6017,
      "Ġadministration": 6018,
      "ĠArgentina": 6019,
      "GA": 6020,
      "face": 6021,
      "erate": 6022,
      "Ġwire": 6023,
      "amous": 6024,
      "ĠPython": 6025,
      "ĠHome": 6026,
      "ĠGand": 6027,
      "ĠFre": 6028,
      "ĠLink": 6029,
      "Ġvs": 6030,
      "Ġseeds": 6031,
      "ĠJer": 6032,
      "ĠJew": 6033,
      "Ġsufficient": 6034,
      "riend": 6035,
      "Ġchocolate": 6036,
      "aked": 6037,
      "Ġspending": 6038,
      "Ġarm": 6039,
      "ansas": 6040,
      "Ġdram": 6041,
      "Ġcapture": 6042,
      "Ġ65": 6043,
      "Ġskill": 6044,
      "Ġremove": 6045,
      "Ġsettle": 6046,
      "ĠBeat": 6047,
      "prise": 6048,
      "Ġinsurance": 6049,
      "Ġcompetitive": 6050,
      "Ġstrings": 6051,
      "Ġ1947": 6052,
      "ĠElizabeth": 6053,
      "ylv": 6054,
      "Ġweekend": 6055,
      "Ġcreative": 6056,
      "Ġfundam": 6057,
      "Ġsounds": 6058,
      "ĠEnter": 6059,
      "Ġcomponent": 6060,
      "Ġclosely": 6061,
      "Ġsemi": 6062,
      "porary": 6063,
      "Ġultimately": 6064,
      "Ġgravity": 6065,
      "ĠSweden": 6066,
      "ĠVenezuela": 6067,
      "ĠStephen": 6068,
      "ĠColorado": 6069,
      "ĠCatholic": 6070,
      "ĠJesus": 6071,
      "90": 6072,
      "crib": 6073,
      "iro": 6074,
      "oen": 6075,
      "hew": 6076,
      "inem": 6077,
      "Ġcab": 6078,
      "ellect": 6079,
      "Ġreform": 6080,
      "Ġgun": 6081,
      "Ġgross": 6082,
      "ivals": 6083,
      "ĠBon": 6084,
      "uted": 6085,
      "ĠNext": 6086,
      "ĠLion": 6087,
      "Ġseat": 6088,
      "ĠUC": 6089,
      "Ġarms": 6090,
      "Ġ1982": 6091,
      "Ġkept": 6092,
      "Ġexplore": 6093,
      "Ġinteresting": 6094,
      "puter": 6095,
      "ĠCommission": 6096,
      "Ġtesting": 6097,
      "Ġpremier": 6098,
      "ĠBasketball": 6099,
      "Ġnarrow": 6100,
      "Ġopponent": 6101,
      "ĠSydney": 6102,
      "Co": 6103,
      "ST": 6104,
      "Sc": 6105,
      "ja": 6106,
      "yo": 6107,
      "Éĳ": 6108,
      "Ġic": 6109,
      "Ġbot": 6110,
      "ĠCro": 6111,
      "Ġstim": 6112,
      "osure": 6113,
      "anta": 6114,
      "rie": 6115,
      "ource": 6116,
      "ultural": 6117,
      "Ġ36": 6118,
      "Ġscoring": 6119,
      "Ġgenerated": 6120,
      "Ġrepresents": 6121,
      "Ġdistributed": 6122,
      "ĠâĢĺ": 6123,
      "Ġslightly": 6124,
      "Ġphysics": 6125,
      "Ġvisiting": 6126,
      "Ġfocused": 6127,
      "ĠMinister": 6128,
      "Ġprinciple": 6129,
      "Ġmechanical": 6130,
      "unicip": 6131,
      "Ġmaximum": 6132,
      "ĠPakistan": 6133,
      "ĠScotland": 6134,
      "86": 6135,
      "bar": 6136,
      "elect": 6137,
      "Åį": 6138,
      "Ġ+": 6139,
      "Ġur": 6140,
      "Ġtort": 6141,
      "Ġtick": 6142,
      "Ġfile": 6143,
      "Ġflex": 6144,
      "ouston": 6145,
      "illy": 6146,
      "Ġliber": 6147,
      "Ġrein": 6148,
      "Ġrevers": 6149,
      "ĠCre": 6150,
      "ĠWhe": 6151,
      "Ġstories": 6152,
      "Ġstaff": 6153,
      "ĠRaj": 6154,
      "osaur": 6155,
      "Ġconcer": 6156,
      "Ġconference": 6157,
      "aven": 6158,
      "occo": 6159,
      "rix": 6160,
      "Ġchart": 6161,
      "Ġshoes": 6162,
      "Ġships": 6163,
      "Ġwheel": 6164,
      "oking": 6165,
      "ĠIndust": 6166,
      "Ġdecade": 6167,
      "Ġinstall": 6168,
      "Ġadding": 6169,
      "Ġcurrency": 6170,
      "Ġinfrastructure": 6171,
      "Ġsolution": 6172,
      "Ġdidn": 6173,
      "Ġplanned": 6174,
      "Ġtourist": 6175,
      "Ġ1939": 6176,
      "Ġpractices": 6177,
      "Ġthinking": 6178,
      "Ġproteins": 6179,
      "burgh": 6180,
      "Ġsubsequently": 6181,
      "ĠPortugal": 6182,
      "Ġopin": 6183,
      "Ġexercis": 6184,
      "thiop": 6185,
      "96": 6186,
      "Or": 6187,
      "PA": 6188,
      "Pro": 6189,
      "bow": 6190,
      "rome": 6191,
      "Ġtrou": 6192,
      "Ġsou": 6193,
      "Ġcra": 6194,
      "Ġpull": 6195,
      "Ġhop": 6196,
      "ĠTop": 6197,
      "etime": 6198,
      "ĠMov": 6199,
      "Ġforced": 6200,
      "ĠBull": 6201,
      "ĠHindu": 6202,
      "Ġorbit": 6203,
      "ĠRing": 6204,
      "ĠRow": 6205,
      "ĠNev": 6206,
      "ĠEp": 6207,
      "ĠEs": 6208,
      "Ġrival": 6209,
      "Ġkick": 6210,
      "aks": 6211,
      "Ġ32": 6212,
      "ĠHealth": 6213,
      "Ġactress": 6214,
      "Ġelectrons": 6215,
      "insula": 6216,
      "iox": 6217,
      "Ġbreeds": 6218,
      "uese": 6219,
      "Ġairport": 6220,
      "Ġcompetitions": 6221,
      "rade": 6222,
      "Ġinterested": 6223,
      "scape": 6224,
      "Ġinfluenced": 6225,
      "Ġmagnetic": 6226,
      "Ġenvironmental": 6227,
      "Ġexcell": 6228,
      "Ġanti": 6229,
      "Ġadults": 6230,
      "Ġpatterns": 6231,
      "Ġheavily": 6232,
      "ĠOsborne": 6233,
      "Ġneighborhood": 6234,
      "ĠVictor": 6235,
      "Ġupper": 6236,
      "Ã£o": 6237,
      ")]": 6238,
      "36": 6239,
      "AI": 6240,
      "PL": 6241,
      "ded": 6242,
      "lers": 6243,
      "nic": 6244,
      "pread": 6245,
      "uctor": 6246,
      "Ġ#": 6247,
      "instein": 6248,
      "Ġfear": 6249,
      "Ġreaction": 6250,
      "roke": 6251,
      "ĠGi": 6252,
      "ĠFame": 6253,
      "ĠDark": 6254,
      "ĠDrag": 6255,
      "ĠRod": 6256,
      "ĠElect": 6257,
      "ĠUN": 6258,
      "ella": 6259,
      "berries": 6260,
      "Ġkg": 6261,
      "peror": 6262,
      "Ġintellect": 6263,
      "velt": 6264,
      "angle": 6265,
      "Ġtrav": 6266,
      "ĠThrough": 6267,
      "indi": 6268,
      "cket": 6269,
      "Ġapply": 6270,
      "Ġacts": 6271,
      "Ġfinish": 6272,
      "Ġassum": 6273,
      "Ġcapable": 6274,
      "Ġserves": 6275,
      "Ġ1972": 6276,
      "Ġperforming": 6277,
      "Ġexplo": 6278,
      "Ġlawyer": 6279,
      "idespread": 6280,
      "Ġsecs": 6281,
      "Ġreducing": 6282,
      "Ġconnection": 6283,
      "ĠTeam": 6284,
      "Ġspecialized": 6285,
      "ĠPoland": 6286,
      "which": 6287,
      "Ġpurchased": 6288,
      "ĠBCE": 6289,
      "Ġcrypt": 6290,
      "ĠSteve": 6291,
      "Ġprincipal": 6292,
      "senal": 6293,
      "Ġheadquarters": 6294,
      "Ġrenew": 6295,
      "Ġfictional": 6296,
      "Ġorigins": 6297,
      "97": 6298,
      "Des": 6299,
      "ET": 6300,
      "eed": 6301,
      "iel": 6302,
      "vised": 6303,
      "ĠËĪ": 6304,
      "Ġwave": 6305,
      "Ġbact": 6306,
      "Ġpine": 6307,
      "Ġpiano": 6308,
      "Ġtooth": 6309,
      "leball": 6310,
      "ĠSpec": 6311,
      "ownt": 6312,
      "ĠMess": 6313,
      "ĠWeb": 6314,
      "ĠBir": 6315,
      "ĠPoint": 6316,
      "ĠFace": 6317,
      "ĠRol": 6318,
      "ĠNA": 6319,
      "osm": 6320,
      "Ġvul": 6321,
      "ĠChief": 6322,
      "under": 6323,
      "ilding": 6324,
      "Ġthemes": 6325,
      "Ġ180": 6326,
      "Ġcounty": 6327,
      "lete": 6328,
      "Ġactual": 6329,
      "Ġcaptain": 6330,
      "Ġowners": 6331,
      "Ġ1971": 6332,
      "afka": 6333,
      "ĠColomb": 6334,
      "Ġ1955": 6335,
      "Ġ1948": 6336,
      "Ġopposed": 6337,
      "ĠPrince": 6338,
      "shot": 6339,
      "Ġflowers": 6340,
      "Ġassociation": 6341,
      "ipped": 6342,
      "Ġregularly": 6343,
      "Ġfluor": 6344,
      "ĠUsing": 6345,
      "ĠKennedy": 6346,
      "ylvania": 6347,
      "'d": 6348,
      "During": 6349,
      "cia": 6350,
      "nce": 6351,
      "pres": 6352,
      "oni": 6353,
      "Ġsail": 6354,
      "Ġwidespread": 6355,
      "Ġhits": 6356,
      "Ġlosing": 6357,
      "Ġgro": 6358,
      "ĠCost": 6359,
      "Ġbeer": 6360,
      "Ġbeef": 6361,
      "ĠHong": 6362,
      "ĠHouston": 6363,
      "ĠFrid": 6364,
      "ĠRail": 6365,
      "Ġenab": 6366,
      "coin": 6367,
      "ĠYellow": 6368,
      "phas": 6369,
      "inton": 6370,
      "osevelt": 6371,
      "Ġgene": 6372,
      "Ġvariet": 6373,
      "ledon": 6374,
      "Ġrequest": 6375,
      "ounce": 6376,
      "Ġperiods": 6377,
      "Ġcausing": 6378,
      "ĠOrigin": 6379,
      "ĠMcD": 6380,
      "Ġconcent": 6381,
      "Ġmotiv": 6382,
      "Ġvacc": 6383,
      "Ġdefeat": 6384,
      "ĠApache": 6385,
      "Ġbonds": 6386,
      "Ġhouses": 6387,
      "ĠProvide": 6388,
      "Ġagreement": 6389,
      "Ġdinner": 6390,
      "ĠNadal": 6391,
      "Ġconflict": 6392,
      "Ġsandwich": 6393,
      "ĠOxford": 6394,
      "FT": 6395,
      "John": 6396,
      "cious": 6397,
      "va": 6398,
      "ye": 6399,
      "enge": 6400,
      "orrow": 6401,
      "Ġdiam": 6402,
      "Ġdynam": 6403,
      "Ġhyp": 6404,
      "ĠMes": 6405,
      "uts": 6406,
      "ĠPower": 6407,
      "ĠPrad": 6408,
      "oda": 6409,
      "ĠRay": 6410,
      "ĠNations": 6411,
      "opher": 6412,
      "Ġconver": 6413,
      "anted": 6414,
      "Ġunl": 6415,
      "Ġdoctor": 6416,
      "Ġpeace": 6417,
      "obal": 6418,
      "ĠSpring": 6419,
      "Ġshel": 6420,
      "Ġ1966": 6421,
      "Ġmarkets": 6422,
      "Ġtraditionally": 6423,
      "ĠSeparate": 6424,
      "Ġvisitors": 6425,
      "Ġrepresenting": 6426,
      "ĠMichigan": 6427,
      "ĠPhilipp": 6428,
      "Ġfigures": 6429,
      "ĠCharl": 6430,
      "Ġcontrolled": 6431,
      "Ġletters": 6432,
      "ĠStratocaster": 6433,
      "Ġsucceed": 6434,
      "55": 6435,
      "pur": 6436,
      "Ġsave": 6437,
      "atically": 6438,
      "isa": 6439,
      "Ġcas": 6440,
      "Ġfav": 6441,
      "Ġfelt": 6442,
      "Ġben": 6443,
      "Ġdiplom": 6444,
      "ĠTown": 6445,
      "ĠTrump": 6446,
      "Ġgrid": 6447,
      "Ġyes": 6448,
      "Ġwithd": 6449,
      "Ġran": 6450,
      "ĠKent": 6451,
      "upiter": 6452,
      "Ġadapt": 6453,
      "ĠVan": 6454,
      "Ġdiss": 6455,
      "Ġapple": 6456,
      "Ġproducing": 6457,
      "Ġaccur": 6458,
      "Ġmanage": 6459,
      "Ġdecline": 6460,
      "Ġinterview": 6461,
      "Ġexpress": 6462,
      "Ġmovements": 6463,
      "Ġmyth": 6464,
      "ĠWarri": 6465,
      "Ġdesignated": 6466,
      "Ġexperim": 6467,
      "Ġvalid": 6468,
      "Ġoperated": 6469,
      "ynast": 6470,
      "Ġmagnet": 6471,
      "Ġrelationships": 6472,
      "ĠCaptain": 6473,
      "Ġtreatment": 6474,
      "Ġcryst": 6475,
      "imbledon": 6476,
      "Ġrapidly": 6477,
      "Ġvirtual": 6478,
      "ĠColumbia": 6479,
      "Ġvoice": 6480,
      "From": 6481,
      "hatt": 6482,
      "lades": 6483,
      "oa": 6484,
      "Ã±": 6485,
      "ĠÂ": 6486,
      "Ġmis": 6487,
      "Ġmouth": 6488,
      "asman": 6489,
      "ĠTok": 6490,
      "ĠTiger": 6491,
      "ĠSri": 6492,
      "eters": 6493,
      "ĠCir": 6494,
      "ĠIraq": 6495,
      "idency": 6496,
      "ĠML": 6497,
      "ĠMid": 6498,
      "ĠMand": 6499,
      "Ġstap": 6500,
      "ĠPre": 6501,
      "ĠHung": 6502,
      "unc": 6503,
      "ĠFe": 6504,
      "ĠLike": 6505,
      "ĠEld": 6506,
      "ĠEven": 6507,
      "ĠEconom": 6508,
      "Ġcompar": 6509,
      "ghan": 6510,
      "Ġteen": 6511,
      "rance": 6512,
      "phabet": 6513,
      "Ġconsult": 6514,
      "tenance": 6515,
      "Ġsmart": 6516,
      "Ġpolic": 6517,
      "Ġmedal": 6518,
      "ĠConst": 6519,
      "Ġlegs": 6520,
      "ĠProt": 6521,
      "Ġoffering": 6522,
      "Ġholes": 6523,
      "Ġcategory": 6524,
      "Ġpurposes": 6525,
      "Ġstrike": 6526,
      "Ġprepare": 6527,
      "Ġrestaurant": 6528,
      "ĠSecurity": 6529,
      "Ġmessage": 6530,
      "Ġutil": 6531,
      "ĠPersian": 6532,
      "Ġspectrum": 6533,
      "Ġacademic": 6534,
      "All": 6535,
      "By": 6536,
      "Cl": 6537,
      "One": 6538,
      "bec": 6539,
      "gu": 6540,
      "iency": 6541,
      "sylvania": 6542,
      "atar": 6543,
      "Ġfaced": 6544,
      "Ġple": 6545,
      "Ġpione": 6546,
      "icit": 6547,
      "Ġdating": 6548,
      "Ġhuge": 6549,
      "ĠSat": 6550,
      "Ġthick": 6551,
      "ĠBos": 6552,
      "ĠLie": 6553,
      "ĠLiber": 6554,
      "Ġvast": 6555,
      "ĠJul": 6556,
      "ĠOsc": 6557,
      "Ġcompos": 6558,
      "ĠStand": 6559,
      "ups": 6560,
      "Ġmeal": 6561,
      "Ġclothing": 6562,
      "Ġneither": 6563,
      "Ġprepar": 6564,
      "oyd": 6565,
      "Ġamazing": 6566,
      "ribute": 6567,
      "ĠArm": 6568,
      "Ġextensive": 6569,
      "Ġentry": 6570,
      "Ġ1976": 6571,
      "Ġdepict": 6572,
      "Ġexpert": 6573,
      "Ġprofession": 6574,
      "Ġdescribes": 6575,
      "Ġpotatoes": 6576,
      "Ġpromoted": 6577,
      "Ġcharacterized": 6578,
      "Ġguid": 6579,
      "Ġguitarist": 6580,
      "Ġtournaments": 6581,
      "Ġexistence": 6582,
      "Ġcommunicate": 6583,
      "ĠDelhi": 6584,
      "ĠSolar": 6585,
      "wiki": 6586,
      "wikipedia": 6587,
      "ĠFoundation": 6588,
      "Ġspirit": 6589,
      "Ġdedicated": 6590,
      "RO": 6591,
      "She": 6592,
      "yan": 6593,
      "ĠTre": 6594,
      "ĠTyp": 6595,
      "Ġlots": 6596,
      "ĠSund": 6597,
      "ĠAud": 6598,
      "oln": 6599,
      "ationally": 6600,
      "ĠBad": 6601,
      "ĠGre": 6602,
      "ĠGram": 6603,
      "ĠDan": 6604,
      "ĠRad": 6605,
      "oper": 6606,
      "ĠLater": 6607,
      "ĠLee": 6608,
      "Ġconsequ": 6609,
      "ĠEthiop": 6610,
      "Ġseed": 6611,
      "Ġshares": 6612,
      "Ġnotes": 6613,
      "Ġresident": 6614,
      "oven": 6615,
      "Ġcolle": 6616,
      "inson": 6617,
      "Ġrelative": 6618,
      "Ġnews": 6619,
      "ĠSports": 6620,
      "Ġinteract": 6621,
      "axy": 6622,
      "Ġgrape": 6623,
      "Ġleads": 6624,
      "Ġseconds": 6625,
      "Ġbackground": 6626,
      "Ġ1961": 6627,
      "incoln": 6628,
      "Ġvaluable": 6629,
      "Ġtradition": 6630,
      "Ġmarathon": 6631,
      "Ġcombat": 6632,
      "ĠBoard": 6633,
      "Ġhotel": 6634,
      "ĠRoosevelt": 6635,
      "Ġversions": 6636,
      "ospital": 6637,
      "ĠRepublican": 6638,
      "Ġdatas": 6639,
      "Ġhorse": 6640,
      "ĠNorway": 6641,
      "Ġarrived": 6642,
      "Ġdoub": 6643,
      "aturally": 6644,
      "Ġcamera": 6645,
      "Ġorders": 6646,
      "allel": 6647,
      "ibbean": 6648,
      "ĠPennsylvania": 6649,
      "ladesh": 6650,
      "Gen": 6651,
      "How": 6652,
      "den": 6653,
      "fess": 6654,
      "ias": 6655,
      "ns": 6656,
      "hent": 6657,
      "Ġcensus": 6658,
      "Ġwet": 6659,
      "itro": 6660,
      "Ġble": 6661,
      "Ġbull": 6662,
      "Ġmart": 6663,
      "Ġhom": 6664,
      "ĠIv": 6665,
      "ĠMr": 6666,
      "Ġyield": 6667,
      "oding": 6668,
      "ĠNic": 6669,
      "ĠLife": 6670,
      "ĠLamb": 6671,
      "pping": 6672,
      "Ġspan": 6673,
      "Ġarran": 6674,
      "Ġrecre": 6675,
      "ĠIndepend": 6676,
      "Ġformation": 6677,
      "athlon": 6678,
      "Ġdrama": 6679,
      "ronic": 6680,
      "ĠDead": 6681,
      "Ġremote": 6682,
      "Ġownership": 6683,
      "Ġ1958": 6684,
      "Ġideal": 6685,
      "Ġtraveling": 6686,
      "istered": 6687,
      "ficial": 6688,
      "Ġcampus": 6689,
      "Ġissued": 6690,
      "Ġfunds": 6691,
      "ĠDelta": 6692,
      "ĠPeru": 6693,
      "Ġcredited": 6694,
      "Ġfighting": 6695,
      "Ġmillenn": 6696,
      "Ġhappened": 6697,
      "Ġuniversities": 6698,
      "Ġhundreds": 6699,
      "ĠUtah": 6700,
      "ĠTreaty": 6701,
      "Ġschedul": 6702,
      "AR": 6703,
      "come": 6704,
      "ds": 6705,
      "from": 6706,
      "pop": 6707,
      "ship": 6708,
      "ÊĬ": 6709,
      "Ġtables": 6710,
      "ito": 6711,
      "Ġboy": 6712,
      "Ġpush": 6713,
      "Ġmic": 6714,
      "Ġnaturally": 6715,
      "ĠMarg": 6716,
      "ĠWork": 6717,
      "ĠWalk": 6718,
      "ĠFall": 6719,
      "ĠFive": 6720,
      "ĠLank": 6721,
      "earl": 6722,
      "ĠStadium": 6723,
      "Ġnoted": 6724,
      "Ġnothing": 6725,
      "Ġnotably": 6726,
      "Ġresistance": 6727,
      "Ġelectro": 6728,
      "Ġfeat": 6729,
      "Ġphase": 6730,
      "Ġdecide": 6731,
      "Ġassess": 6732,
      "Ġwinners": 6733,
      "Ġpassing": 6734,
      "Ġexped": 6735,
      "iously": 6736,
      "Ġ1962": 6737,
      "Ġvisited": 6738,
      "Ġautism": 6739,
      "Ġapart": 6740,
      "Ġairpl": 6741,
      "Ġexperiences": 6742,
      "Ġedge": 6743,
      "Ġ1949": 6744,
      "ĠCaribbean": 6745,
      "comp": 6746,
      "Ġbusinesses": 6747,
      "Ġcontrols": 6748,
      "ĠParliament": 6749,
      "Ġchanging": 6750,
      "ĠCountry": 6751,
      "Ġelimin": 6752,
      "ĠSoft": 6753,
      "Ġhappens": 6754,
      "Ġattempts": 6755,
      "Ġintegration": 6756,
      "Ġcopies": 6757,
      "Ġjourney": 6758,
      "ĠDevelopment": 6759,
      "62": 6760,
      "AC": 6761,
      "iat": 6762,
      "mas": 6763,
      "no": 6764,
      "ĠÐ": 6765,
      "Ġoven": 6766,
      "Ġfell": 6767,
      "Ġpul": 6768,
      "Ġpand": 6769,
      "Ġdough": 6770,
      "Ġhall": 6771,
      "ĠAS": 6772,
      "ĠAst": 6773,
      "Ġgases": 6774,
      "ĠCold": 6775,
      "ceived": 6776,
      "ĠMun": 6777,
      "ĠWomen": 6778,
      "ĠWimbledon": 6779,
      "Ġbears": 6780,
      "ĠBat": 6781,
      "ĠPink": 6782,
      "ĠDub": 6783,
      "ĠNap": 6784,
      "Ġriding": 6785,
      "ogy": 6786,
      "ĠKafka": 6787,
      "ĠStra": 6788,
      "Ġenh": 6789,
      "Ġrocks": 6790,
      "oves": 6791,
      "Ġ49": 6792,
      "Ġnewly": 6793,
      "ĠArsenal": 6794,
      "Ġanyone": 6795,
      "Ġcrew": 6796,
      "Ġreports": 6797,
      "Ġmeters": 6798,
      "ĠShiv": 6799,
      "ernal": 6800,
      "ĠDef": 6801,
      "ucks": 6802,
      "ĠAtt": 6803,
      "Ġclassic": 6804,
      "ĠProject": 6805,
      "Ġequivalent": 6806,
      "Ġinvolve": 6807,
      "Ġprotection": 6808,
      "ĠSocial": 6809,
      "ĠMadrid": 6810,
      "Ġbroadcast": 6811,
      "forcement": 6812,
      "Ġopportunities": 6813,
      "Ġphilosophy": 6814,
      "Main": 6815,
      "care": 6816,
      "tical": 6817,
      "anj": 6818,
      "arat": 6819,
      "arant": 6820,
      "Ġlibrary": 6821,
      "ĠMat": 6822,
      "igs": 6823,
      "ĠBry": 6824,
      "uty": 6825,
      "Ġstations": 6826,
      "ĠPost": 6827,
      "ĠNiger": 6828,
      "Ġvaries": 6829,
      "ordin": 6830,
      "Ġresorts": 6831,
      "Ġweak": 6832,
      "Ġrais": 6833,
      "Ġraise": 6834,
      "2017": 6835,
      "Ġlock": 6836,
      "Ġmanner": 6837,
      "Ġcreates": 6838,
      "ĠShow": 6839,
      "Ġpoly": 6840,
      "Ġshell": 6841,
      "ĠĠĠ": 6842,
      "Ġ1959": 6843,
      "Ġcomputing": 6844,
      "Ġsupporting": 6845,
      "apping": 6846,
      "Ġinvestig": 6847,
      "Ġfocuses": 6848,
      "Ġcharges": 6849,
      "Ġhousing": 6850,
      "ĠBangladesh": 6851,
      "Ġathletes": 6852,
      "ĠLucas": 6853,
      "Ġkitchen": 6854,
      "Ġroughly": 6855,
      "Ġpermanent": 6856,
      "ĠBeatles": 6857,
      "ĠFriday": 6858,
      "ĠPradesh": 6859,
      "hattan": 6860,
      "Ġpolicies": 6861,
      ".)": 6862,
      "33": 6863,
      "42": 6864,
      "BO": 6865,
      "HL": 6866,
      "Se": 6867,
      "aik": 6868,
      "gian": 6869,
      "haps": 6870,
      "person": 6871,
      "pris": 6872,
      "rin": 6873,
      "rant": 6874,
      "Ġsac": 6875,
      "Ġsister": 6876,
      "anes": 6877,
      "Ġburn": 6878,
      "Ġinaug": 6879,
      "omy": 6880,
      "oming": 6881,
      "endar": 6882,
      "ĠTower": 6883,
      "Ġly": 6884,
      "ĠSet": 6885,
      "ĠSega": 6886,
      "rozen": 6887,
      "Ġthin": 6888,
      "ĠMagn": 6889,
      "iga": 6890,
      "ĠBird": 6891,
      "ĠBrad": 6892,
      "ĠHur": 6893,
      "vere": 6894,
      "ĠDou": 6895,
      "osen": 6896,
      "ĠLincoln": 6897,
      "ocated": 6898,
      "abad": 6899,
      "Ġsector": 6900,
      "Ġplenty": 6901,
      "appe": 6902,
      "Ġcomposition": 6903,
      "ĠStart": 6904,
      "Ġmeant": 6905,
      "Ġ34": 6906,
      "Ġdesired": 6907,
      "Ġtheme": 6908,
      "Ġgenes": 6909,
      "Ġfounding": 6910,
      "Ġminister": 6911,
      "romagn": 6912,
      "Ġinfect": 6913,
      "Ġtopic": 6914,
      "Ġsixth": 6915,
      "Ġfreedom": 6916,
      "umbai": 6917,
      "artered": 6918,
      "ercury": 6919,
      "Ġpayment": 6920,
      "ĠFranklin": 6921,
      "nesota": 6922,
      "Ġsubsequent": 6923,
      "ĠTemple": 6924,
      "hentic": 6925,
      "85": 6926,
      "De": 6927,
      "Mar": 6928,
      "So": 6929,
      "Sw": 6930,
      "bury": 6931,
      "brid": 6932,
      "https": 6933,
      "vements": 6934,
      "ndom": 6935,
      "Ġsed": 6936,
      "Ġce": 6937,
      "Ġcro": 6938,
      "Ġcock": 6939,
      "Ġwars": 6940,
      "Ġmale": 6941,
      "icious": 6942,
      "ĠTest": 6943,
      "ĠToday": 6944,
      "Ġlakes": 6945,
      "ĠSever": 6946,
      "ami": 6947,
      "amber": 6948,
      "ĠCop": 6949,
      "oli": 6950,
      "ĠWalt": 6951,
      "Ġonto": 6952,
      "ĠBus": 6953,
      "ĠPick": 6954,
      "ĠFred": 6955,
      "ĠFestival": 6956,
      "thur": 6957,
      "ĠNick": 6958,
      "ĠLes": 6959,
      "ardo": 6960,
      "ĠStory": 6961,
      "Ġpartners": 6962,
      "phant": 6963,
      "Ġrandom": 6964,
      "ĠIndones": 6965,
      "Ġnoise": 6966,
      "iveness": 6967,
      "Ġskate": 6968,
      "Ġbrew": 6969,
      "Ġengineers": 6970,
      "ĠCommun": 6971,
      "Ġafford": 6972,
      "Ġcooked": 6973,
      "Ġhistoric": 6974,
      "idae": 6975,
      "Ġhosted": 6976,
      "Ġclaims": 6977,
      "While": 6978,
      "Ġreviews": 6979,
      "Ġabsor": 6980,
      "Ġbatting": 6981,
      "Ġagreed": 6982,
      "Ġvocal": 6983,
      "Ġexactly": 6984,
      "Ġsusp": 6985,
      "Ġcandidate": 6986,
      "ĠRoger": 6987,
      "ĠBuddh": 6988,
      "Ġvulner": 6989,
      "Ġvarieties": 6990,
      "Ge": 6991,
      "bes": 6992,
      "fire": 6993,
      "iary": 6994,
      "kins": 6995,
      "rating": 6996,
      "Ġaf": 6997,
      "Ġtherapy": 6998,
      "Ġcm": 6999,
      "Ġcart": 7000,
      "orge": 7001,
      "Ġmist": 7002,
      "asure": 7003,
      "Ġtold": 7004,
      "Ġdownt": 7005,
      "Ġlift": 7006,
      "racy": 7007,
      "Ġbeaches": 7008,
      "Ġalt": 7009,
      "ĠFood": 7010,
      "ĠRel": 7011,
      "Ġconqu": 7012,
      "ĠEv": 7013,
      "Ġproced": 7014,
      "Ġhem": 7015,
      "ĠJean": 7016,
      "ĠUniverse": 7017,
      "Ġroot": 7018,
      "away": 7019,
      "Ġattached": 7020,
      "Ġtransactions": 7021,
      "anguage": 7022,
      "Ġmoves": 7023,
      "Ġ1978": 7024,
      "Ġretail": 7025,
      "nament": 7026,
      "ĠExp": 7027,
      "ĠAustin": 7028,
      "Ġ1957": 7029,
      "Ġstanding": 7030,
      "Ġalongside": 7031,
      "Ġobjective": 7032,
      "Ġstatistical": 7033,
      "Ġcrime": 7034,
      "Ġyounger": 7035,
      "Ġgradually": 7036,
      "Ġsuggested": 7037,
      "related": 7038,
      "Ġcrisis": 7039,
      "Ġexperienced": 7040,
      "Ġnewspaper": 7041,
      "Ġfundamental": 7042,
      "NT": 7043,
      "PU": 7044,
      "bi": 7045,
      "ding": 7046,
      "feld": 7047,
      "mouth": 7048,
      "night": 7049,
      "wo": 7050,
      "Ġtal": 7051,
      "Ġtail": 7052,
      "Ġwal": 7053,
      "Ġfoss": 7054,
      "Ġfilled": 7055,
      "Ġtoward": 7056,
      "ĠTel": 7057,
      "ĠTasman": 7058,
      "ĠImp": 7059,
      "ĠBru": 7060,
      "erse": 7061,
      "ĠFant": 7062,
      "Ġitem": 7063,
      "ĠLine": 7064,
      "ĠEduc": 7065,
      "keep": 7066,
      "Ġusage": 7067,
      "Ġshut": 7068,
      "Ġshall": 7069,
      "ĠIns": 7070,
      "Ġinches": 7071,
      "Ġabst": 7072,
      "Ġresort": 7073,
      "Ġweigh": 7074,
      "inding": 7075,
      "Ġscene": 7076,
      "wegian": 7077,
      "Ġdisorder": 7078,
      "Ġ48": 7079,
      "Ġloan": 7080,
      "ĠLeb": 7081,
      "ĠLeon": 7082,
      "Ġefforts": 7083,
      "Ġmedals": 7084,
      "ĠExamples": 7085,
      "Ġfinding": 7086,
      "Ġpolitics": 7087,
      "2008": 7088,
      "ographical": 7089,
      "Ġindustries": 7090,
      "Ġwindows": 7091,
      "Ġmagnitude": 7092,
      "affe": 7093,
      "Ġfrequency": 7094,
      "ĠMorocco": 7095,
      "Ġreligion": 7096,
      "ĠCurrent": 7097,
      "ĠMagic": 7098,
      "ĠWinter": 7099,
      "ĠPortuguese": 7100,
      "Ġinhabit": 7101,
      "ĠJefferson": 7102,
      "Ġmammals": 7103,
      "ĠHemisphere": 7104,
      "Ġphrase": 7105,
      "Ġcuisine": 7106,
      "ĠEntertainment": 7107,
      "lt": 7108,
      "oons": 7109,
      "Ġtube": 7110,
      "Ġax": 7111,
      "hedu": 7112,
      "Ġcake": 7113,
      "arth": 7114,
      "Ġped": 7115,
      "Ġpets": 7116,
      "Ġplease": 7117,
      "Ġmal": 7118,
      "ĠTri": 7119,
      "Ġlies": 7120,
      "Ġnor": 7121,
      "ĠBridge": 7122,
      "ĠPass": 7123,
      "ĠGet": 7124,
      "ĠLet": 7125,
      "ĠLim": 7126,
      "Ġyouth": 7127,
      "ĠEst": 7128,
      "ĠEag": 7129,
      "ĠEaster": 7130,
      "ĠEinstein": 7131,
      "Ġrom": 7132,
      "Ġseems": 7133,
      "ĠJupiter": 7134,
      "Ġexclus": 7135,
      "Ġspons": 7136,
      "ĠCho": 7137,
      "ultane": 7138,
      "Ġcluster": 7139,
      "Ġotherwise": 7140,
      "Ġroads": 7141,
      "Ġgenome": 7142,
      "Ġages": 7143,
      "Ġ400": 7144,
      "Ġaccel": 7145,
      "Ġinvent": 7146,
      "Ġunderlying": 7147,
      "Ġtransistor": 7148,
      "Ġmaintenance": 7149,
      "Ġgovernments": 7150,
      "Ġsunlight": 7151,
      "Ġbright": 7152,
      "Ġcircle": 7153,
      "Ġdebt": 7154,
      "ĠManhattan": 7155,
      "ucky": 7156,
      "ĠMinnesota": 7157,
      "Ġdiagn": 7158,
      "sterdam": 7159,
      "Ġfailure": 7160,
      "ĠGlobal": 7161,
      "Ġentirely": 7162,
      "Ġbehavi": 7163,
      "Ġimmig": 7164,
      "Ġprompting": 7165,
      "Ġchallenging": 7166,
      "Ġtower": 7167,
      "Ġsubstant": 7168,
      "Ġcomfortable": 7169,
      "Ġpandemic": 7170,
      "hedule": 7171,
      "91": 7172,
      "DI": 7173,
      "des": 7174,
      "fare": 7175,
      "kar": 7176,
      "run": 7177,
      "uan": 7178,
      "inch": 7179,
      "Ġmunicip": 7180,
      "Ġham": 7181,
      "ĠSide": 7182,
      "ĠCreek": 7183,
      "urrent": 7184,
      "ĠBack": 7185,
      "ĠHistor": 7186,
      "Ġyoga": 7187,
      "ĠGib": 7188,
      "ĠDoes": 7189,
      "osh": 7190,
      "ĠLi": 7191,
      "Ġvine": 7192,
      "ĠJiang": 7193,
      "Ġchampions": 7194,
      "ogue": 7195,
      "Ġshif": 7196,
      "Ġshorter": 7197,
      "akh": 7198,
      "ĠStat": 7199,
      "ĠChile": 7200,
      "Ġadap": 7201,
      "Ġimages": 7202,
      "Ġarmy": 7203,
      "Ġrose": 7204,
      "Ġeval": 7205,
      "ova": 7206,
      "Ġgenres": 7207,
      "Ġindoor": 7208,
      "Ġearn": 7209,
      "Ġinteraction": 7210,
      "Ġfinance": 7211,
      "Ġfoundation": 7212,
      "Ġvariations": 7213,
      "enna": 7214,
      "Ġ1967": 7215,
      "Ġsolutions": 7216,
      "ĠPhoen": 7217,
      "ĠHarvard": 7218,
      "Ġimproved": 7219,
      "Ġdebate": 7220,
      "Ġtrend": 7221,
      "Ġvolcan": 7222,
      "Ġmixture": 7223,
      "Ġdetermined": 7224,
      "Ġgraduated": 7225,
      "Ġcloser": 7226,
      "ĠAnton": 7227,
      "Ġintegrated": 7228,
      "Ġpercentage": 7229,
      "Ġdominant": 7230,
      "ĠKorean": 7231,
      "Ġprinciples": 7232,
      "Ġtuning": 7233,
      "Ġcorner": 7234,
      "Ġpilot": 7235,
      "Ġobtained": 7236,
      "ĠGovernment": 7237,
      "ĠVegas": 7238,
      "Ġresearchers": 7239,
      "Ġseventh": 7240,
      "ĠGandhi": 7241,
      "ĠWarriors": 7242,
      "ynasty": 7243,
      "'.": 7244,
      "Born": 7245,
      "DA": 7246,
      "bal": 7247,
      "cers": 7248,
      "friend": 7249,
      "hall": 7250,
      "lies": 7251,
      "heastern": 7252,
      "inot": 7253,
      "anas": 7254,
      "Ġfab": 7255,
      "Ġhoney": 7256,
      "Ġthrow": 7257,
      "ĠChen": 7258,
      "ĠCross": 7259,
      "ĠIron": 7260,
      "ushed": 7261,
      "ĠHor": 7262,
      "ĠHun": 7263,
      "Ġanx": 7264,
      "ĠFurther": 7265,
      "ĠDam": 7266,
      "ĠDig": 7267,
      "ĠLiver": 7268,
      "Ġvit": 7269,
      "ocation": 7270,
      "abil": 7271,
      "Ġleagues": 7272,
      "oodle": 7273,
      "Ġjazz": 7274,
      "Ġroast": 7275,
      "Ġspeak": 7276,
      "Ġdefensive": 7277,
      "Ġemb": 7278,
      "Ġparallel": 7279,
      "Ġvision": 7280,
      "Ġlights": 7281,
      "Ġfacts": 7282,
      "orps": 7283,
      "ĠAllen": 7284,
      "Ġtrig": 7285,
      "Ġterrain": 7286,
      "ĠSupreme": 7287,
      "Ġcircum": 7288,
      "Ġbreakfast": 7289,
      "ĠMalays": 7290,
      "Ġsuccessfully": 7291,
      "Ġfigs": 7292,
      "Ġsituations": 7293,
      "Ġfriendly": 7294,
      "Ġdelivery": 7295,
      "Ġbirthday": 7296,
      "Ġadministrative": 7297,
      "Ġmathematics": 7298,
      "ĠMachine": 7299,
      "Ġscholars": 7300,
      "ĠCambridge": 7301,
      "Ġintellectual": 7302,
      "ĠColombia": 7303,
      "unciation": 7304,
      "41": 7305,
      "46": 7306,
      "ML": 7307,
      "Ð°": 7308,
      "Ġcrow": 7309,
      "Ġmile": 7310,
      "Ġdream": 7311,
      "ĠSau": 7312,
      "Ġrear": 7313,
      "Ġreact": 7314,
      "Ġrenamed": 7315,
      "Ġgiant": 7316,
      "ĠIrish": 7317,
      "urg": 7318,
      "ĠBorn": 7319,
      "ĠHockey": 7320,
      "Ġalle": 7321,
      "ĠNatural": 7322,
      "opol": 7323,
      "Ġdeck": 7324,
      "antly": 7325,
      "Ġchosen": 7326,
      "ĠOd": 7327,
      "Ġcompl": 7328,
      "Ġteeth": 7329,
      "rane": 7330,
      "inder": 7331,
      "ruit": 7332,
      "Ġraces": 7333,
      "Ġapples": 7334,
      "2020": 7335,
      "Ġboot": 7336,
      "Ġsubsc": 7337,
      "ronze": 7338,
      "Ġsurpass": 7339,
      "ĠSeven": 7340,
      "Ġ99": 7341,
      "Ġbases": 7342,
      "cery": 7343,
      "Ġ1941": 7344,
      "Ġcompletion": 7345,
      "Ġpractical": 7346,
      "Ġsteel": 7347,
      "Ġfalls": 7348,
      "ĠWilliams": 7349,
      "Ġmaintained": 7350,
      "Ġresource": 7351,
      "Ġbeauty": 7352,
      "Ã¡n": 7353,
      "Ġslowly": 7354,
      "ĠPatri": 7355,
      "Ġperspective": 7356,
      "Ġmagazine": 7357,
      "ĠArabic": 7358,
      "ĠWoods": 7359,
      "Ġholidays": 7360,
      "Ġsustain": 7361,
      "tuning": 7362,
      "Ġexercises": 7363,
      ".:": 7364,
      "aver": 7365,
      "dr": 7366,
      "hard": 7367,
      "uum": 7368,
      "ãĥ": 7369,
      "Ġ*": 7370,
      "Ġaid": 7371,
      "inity": 7372,
      "Ġsays": 7373,
      "Ġware": 7374,
      "Ġpra": 7375,
      "Ġpairs": 7376,
      "Ġisn": 7377,
      "ĠSn": 7378,
      "eless": 7379,
      "ĠAC": 7380,
      "ĠCelt": 7381,
      "iden": 7382,
      "idation": 7383,
      "idge": 7384,
      "ĠPict": 7385,
      "ĠLew": 7386,
      "Ġseats": 7387,
      "sey": 7388,
      "Ġleaf": 7389,
      "Ġunion": 7390,
      "luded": 7391,
      "Ġneur": 7392,
      "Ġknew": 7393,
      "Ġcommission": 7394,
      "Ġampl": 7395,
      "issions": 7396,
      "ugg": 7397,
      "Ġsmooth": 7398,
      "Ġasset": 7399,
      "Ġdepart": 7400,
      "ĠPhys": 7401,
      "Ġstream": 7402,
      "ĠPrinc": 7403,
      "Ġpromote": 7404,
      "Ġlowest": 7405,
      "Ġsites": 7406,
      "ĠEdward": 7407,
      "Ġemployed": 7408,
      "Ġholding": 7409,
      "Ġtests": 7410,
      "ĠSlam": 7411,
      "ĠPrix": 7412,
      "Ġcharging": 7413,
      "Ġborders": 7414,
      "Ġjobs": 7415,
      "Ġcopper": 7416,
      "Ġdelivered": 7417,
      "Ġcontributions": 7418,
      "Ġaffected": 7419,
      "ĠSecret": 7420,
      "Ġtomato": 7421,
      "ĠBengal": 7422,
      "Ġteacher": 7423,
      "ĠBelgium": 7424,
      "ÉĳËĲ": 7425,
      "Ġsoup": 7426,
      "95": 7427,
      "fol": 7428,
      "father": 7429,
      "ho": 7430,
      "long": 7431,
      "rame": 7432,
      "rants": 7433,
      "ÉĶ": 7434,
      "Ø§": 7435,
      "Ġtub": 7436,
      "Ġinequ": 7437,
      "Ġdress": 7438,
      "otam": 7439,
      "ilit": 7440,
      "Ġlin": 7441,
      "stood": 7442,
      "Ġreign": 7443,
      "Ġstages": 7444,
      "ĠPo": 7445,
      "ĠHal": 7446,
      "unior": 7447,
      "ifies": 7448,
      "ĠField": 7449,
      "ĠDun": 7450,
      "ĠNa": 7451,
      "ĠNar": 7452,
      "opotam": 7453,
      "ĠLear": 7454,
      "ĠKer": 7455,
      "ipel": 7456,
      "ĠStock": 7457,
      "rypt": 7458,
      "anyon": 7459,
      "ricted": 7460,
      "Ġunknown": 7461,
      "ffect": 7462,
      "Ġtrains": 7463,
      "ildren": 7464,
      "oving": 7465,
      "Ġactors": 7466,
      "hips": 7467,
      "Ġaccomp": 7468,
      "Ġlists": 7469,
      "Ġdecor": 7470,
      "iolet": 7471,
      "Ġemphas": 7472,
      "ĠShan": 7473,
      "Ġ150": 7474,
      "Ġreceiving": 7475,
      "Ġfewer": 7476,
      "Ġprotocol": 7477,
      "ĠMusk": 7478,
      "Ġavailability": 7479,
      "Ġviewed": 7480,
      "Ġradiation": 7481,
      "Ġfunctional": 7482,
      "Ġranking": 7483,
      "Ġvegetable": 7484,
      "Ġcoastal": 7485,
      "Ġcontributed": 7486,
      "Ġangle": 7487,
      "Ġrailway": 7488,
      "ĠPelÃ©": 7489,
      "Ġhorizon": 7490,
      "ĠNepal": 7491,
      "Ġminerals": 7492,
      "ĠUkraine": 7493,
      "ĠLinux": 7494,
      "ĠNevada": 7495,
      "Ġexcellent": 7496,
      "\"),": 7497,
      "63": 7498,
      "92": 7499,
      "TO": 7500,
      "cest": 7501,
      "chest": 7502,
      "da": 7503,
      "iot": 7504,
      "ji": 7505,
      "kin": 7506,
      "nel": 7507,
      "rig": 7508,
      "zing": 7509,
      "Ġign": 7510,
      "Ġsan": 7511,
      "Ġfa": 7512,
      "Ġmit": 7513,
      "icing": 7514,
      "Ġlas": 7515,
      "roid": 7516,
      "ĠCle": 7517,
      "tered": 7518,
      "ĠGirl": 7519,
      "Ġ1920": 7520,
      "Ġheard": 7521,
      "ĠJess": 7522,
      "Ġexam": 7523,
      "ĠOak": 7524,
      "ogan": 7525,
      "ĠKings": 7526,
      "ĠKey": 7527,
      "oker": 7528,
      "ĠThus": 7529,
      "Ġreserv": 7530,
      "Ġdismiss": 7531,
      "Ġevolved": 7532,
      "2010": 7533,
      "2023": 7534,
      "Ġgenetic": 7535,
      "Ġdecre": 7536,
      "Ġdecay": 7537,
      "Ġpresidency": 7538,
      "Ġexternal": 7539,
      "Ġtransaction": 7540,
      "Ġdevelopers": 7541,
      "ancer": 7542,
      "Ġvisible": 7543,
      "onto": 7544,
      "Ġengaged": 7545,
      "Ġexperiment": 7546,
      "Ġlands": 7547,
      "ĠAfghan": 7548,
      "Ġseek": 7549,
      "anna": 7550,
      "ĠEarly": 7551,
      "Ġ1933": 7552,
      "ĠMuslim": 7553,
      "ĠFinancial": 7554,
      "Ġkeeping": 7555,
      "zech": 7556,
      "Ġformerly": 7557,
      "Ġstatement": 7558,
      "Ġsteam": 7559,
      "Ġsteak": 7560,
      "Ġportion": 7561,
      "ĠRomania": 7562,
      "Ġcardi": 7563,
      "Ġregarding": 7564,
      "opped": 7565,
      "Ġsaying": 7566,
      "Ġparticipate": 7567,
      "Ġpopulations": 7568,
      "ĠContin": 7569,
      "Ġsatell": 7570,
      "Ġkingdom": 7571,
      "Ġsilver": 7572,
      "Ġtransferred": 7573,
      "Ġinjury": 7574,
      "Ġmillions": 7575,
      "Ġconcerns": 7576,
      "Ġmathematical": 7577,
      "Ġpronunciation": 7578,
      "Ġnortheast": 7579,
      "ioxide": 7580,
      "Ġmartial": 7581,
      "%.": 7582,
      "43": 7583,
      "Famous": 7584,
      "Man": 7585,
      "hop": 7586,
      "pher": 7587,
      "uce": 7588,
      "world": 7589,
      "western": 7590,
      "erg": 7591,
      "onna": 7592,
      "Ġcraft": 7593,
      "Ġpupp": 7594,
      "Ġmarg": 7595,
      "ĠTun": 7596,
      "ĠTai": 7597,
      "ĠCall": 7598,
      "ĠCard": 7599,
      "ĠCanyon": 7600,
      "ĠWell": 7601,
      "ersion": 7602,
      "ĠPC": 7603,
      "iffer": 7604,
      "ĠGran": 7605,
      "emble": 7606,
      "ĠDj": 7607,
      "ĠDall": 7608,
      "ĠDaniel": 7609,
      "ĠNik": 7610,
      "ĠLo": 7611,
      "Ġhear": 7612,
      "ĠJenn": 7613,
      "Ġexcess": 7614,
      "eller": 7615,
      "Ġshop": 7616,
      "Ġshift": 7617,
      "Ġspr": 7618,
      "Ġdoors": 7619,
      "Ġschedule": 7620,
      "Ġformally": 7621,
      "Ġdriven": 7622,
      "Ġsimultane": 7623,
      "ĠSciences": 7624,
      "ĠBefore": 7625,
      "ĠAmsterdam": 7626,
      "Ġphysic": 7627,
      "Ġguide": 7628,
      "Ġreduces": 7629,
      "ĠRussell": 7630,
      "ĠAirlines": 7631,
      "ĠSoccer": 7632,
      "Ġwrong": 7633,
      "Ġsituated": 7634,
      "Ġmerged": 7635,
      "Ġmagic": 7636,
      "Ġadvantages": 7637,
      "ĠMountains": 7638,
      "ĠMoore": 7639,
      "Ġbrothers": 7640,
      "ĠKhan": 7641,
      "Ġvocals": 7642,
      "Ġheadquartered": 7643,
      "ĠPanama": 7644,
      "ĠWalter": 7645,
      "Ġranging": 7646,
      "audi": 7647,
      "Ġsenior": 7648,
      "ĠSquare": 7649,
      "ĠMemorial": 7650,
      "ĠToyota": 7651,
      "Ġtorto": 7652,
      "ĠOscar": 7653,
      "76": 7654,
      "RA": 7655,
      "Some": 7656,
      "With": 7657,
      "cop": 7658,
      "cons": 7659,
      "eing": 7660,
      "power": 7661,
      "vo": 7662,
      "wa": 7663,
      "Ġtro": 7664,
      "Ġcrop": 7665,
      "encies": 7666,
      "Ġfur": 7667,
      "Ġmild": 7668,
      "Ġhal": 7669,
      "ĠSatur": 7670,
      "elve": 7671,
      "rooms": 7672,
      "ĠMercury": 7673,
      "Ġstone": 7674,
      "adow": 7675,
      "ĠHard": 7676,
      "iform": 7677,
      "ĠFox": 7678,
      "aga": 7679,
      "ĠDh": 7680,
      "ĠDar": 7681,
      "ĠDomin": 7682,
      "ĠRonald": 7683,
      "Ġcomedy": 7684,
      "Ġframes": 7685,
      "ĠLarry": 7686,
      "Ġven": 7687,
      "oca": 7688,
      "Ġrib": 7689,
      "inea": 7690,
      "ĠInvest": 7691,
      "izz": 7692,
      "aret": 7693,
      "Ġspices": 7694,
      "Ġcontem": 7695,
      "Ġtrails": 7696,
      "Ġarc": 7697,
      "ampa": 7698,
      "Ġrowing": 7699,
      "Ġsovere": 7700,
      "obile": 7701,
      "Ġdesk": 7702,
      "2014": 7703,
      "Ġ55": 7704,
      "Ġoffensive": 7705,
      "ĠArthur": 7706,
      "Ġprovince": 7707,
      "Ġcapita": 7708,
      "Ġgrains": 7709,
      "Ġexposure": 7710,
      "ĠComputer": 7711,
      "Ġdepos": 7712,
      "Ġmusician": 7713,
      "comm": 7714,
      "Ġstatistics": 7715,
      "Ġmembership": 7716,
      "Ġhistorically": 7717,
      "Ġsentence": 7718,
      "Ġkinds": 7719,
      "Ġsemic": 7720,
      "Ġnutrit": 7721,
      "flix": 7722,
      "Ġdrinking": 7723,
      "Ġaccepted": 7724,
      "7435": 7725,
      "Ġpaintings": 7726,
      "ĠWilson": 7727,
      "Ġparameters": 7728,
      "Ġneutral": 7729,
      "igenous": 7730,
      "Ġstretch": 7731,
      "ĠFacebook": 7732,
      "ĠTokyo": 7733,
      "Ġinhabitants": 7734,
      "ĠLiverpool": 7735,
      "Am": 7736,
      "Acc": 7737,
      "car": 7738,
      "fers": 7739,
      "han": 7740,
      "mi": 7741,
      "Ġtips": 7742,
      "erb": 7743,
      "rell": 7744,
      "Ġsex": 7745,
      "ori": 7746,
      "alty": 7747,
      "Ġfellow": 7748,
      "Ġbiking": 7749,
      "Ġpod": 7750,
      "Ġpace": 7751,
      "Ġinner": 7752,
      "Ġdiver": 7753,
      "Ġdioxide": 7754,
      "Ġhip": 7755,
      "ĠTimes": 7756,
      "ĠSa": 7757,
      "ĠSony": 7758,
      "Ġreject": 7759,
      "Ġgall": 7760,
      "ivia": 7761,
      "ayer": 7762,
      "ĠGro": 7763,
      "Ġconven": 7764,
      "acon": 7765,
      "bernet": 7766,
      "ĠKir": 7767,
      "ishop": 7768,
      "Ġcoined": 7769,
      "Ġroy": 7770,
      "Ġpreced": 7771,
      "ailand": 7772,
      "overs": 7773,
      "Ġelections": 7774,
      "ĠArk": 7775,
      "ĠArctic": 7776,
      "ĠMaria": 7777,
      "Ġmuscles": 7778,
      "ocked": 7779,
      "ĠAncient": 7780,
      "ĠTherefore": 7781,
      "ĠIslam": 7782,
      "Ġsmallest": 7783,
      "Ġauthentic": 7784,
      "certain": 7785,
      "Ġhandle": 7786,
      "Ġshowed": 7787,
      "Ġpublicly": 7788,
      "Ġ1956": 7789,
      "ĠConstitution": 7790,
      "Ġpossess": 7791,
      "Ġmonthly": 7792,
      "Ġflows": 7793,
      "Ġturns": 7794,
      "Ġstronger": 7795,
      "ĠMinistry": 7796,
      "Ġyoungest": 7797,
      "Ġdestinations": 7798,
      "Ġaudio": 7799,
      "restling": 7800,
      "Ġcategor": 7801,
      "Ġdiseases": 7802,
      "Ġqualifying": 7803,
      "Ġcelebrated": 7804,
      "Ġsatis": 7805,
      "Ġearthqu": 7806,
      "Ġinjuries": 7807,
      "Ġmanufacturers": 7808,
      "Ġopponents": 7809,
      "Ġlinked": 7810,
      "Ġphenomena": 7811,
      "Ġagriculture": 7812,
      "uerto": 7813,
      "ĠMesopotam": 7814,
      "Ġbench": 7815,
      "ĠEthiopia": 7816,
      "Ġraisins": 7817,
      "ĠEducation": 7818,
      "ĠAfghanistan": 7819,
      "BI": 7820,
      "Day": 7821,
      "SP": 7822,
      "Vs": 7823,
      "bage": 7824,
      "called": 7825,
      "ype": 7826,
      "zo": 7827,
      "eron": 7828,
      "real": 7829,
      "Ġodd": 7830,
      "Ġwaves": 7831,
      "Ġfill": 7832,
      "Ġpun": 7833,
      "Ġment": 7834,
      "Ġmur": 7835,
      "Ġhang": 7836,
      "ĠTan": 7837,
      "ĠTitan": 7838,
      "ĠSound": 7839,
      "Ġgym": 7840,
      "olt": 7841,
      "olph": 7842,
      "ĠMario": 7843,
      "urning": 7844,
      "ĠFal": 7845,
      "osa": 7846,
      "Ġvon": 7847,
      "achel": 7848,
      "Ġproof": 7849,
      "ateur": 7850,
      "Ġincred": 7851,
      "Ġouter": 7852,
      "ĠAlbert": 7853,
      "Ġsynd": 7854,
      "Ġ42": 7855,
      "onda": 7856,
      "Ġpreserved": 7857,
      "Ġtransition": 7858,
      "Ġmetric": 7859,
      "Ġending": 7860,
      "ĠAnne": 7861,
      "Ġpersonality": 7862,
      "Ġsecondary": 7863,
      "Ġdepth": 7864,
      "Ġclassification": 7865,
      "Ġeconomics": 7866,
      "Ġopposing": 7867,
      "ĠManagement": 7868,
      "Ġbigger": 7869,
      "Ġconsistent": 7870,
      "Ġvegan": 7871,
      "ĠDavis": 7872,
      "ĠChristmas": 7873,
      "ĠAirport": 7874,
      "ĠSerb": 7875,
      "Ġmaintaining": 7876,
      "Ġfacing": 7877,
      "Ġconcepts": 7878,
      "Ġlifestyle": 7879,
      "Ġemerged": 7880,
      "Ġstraw": 7881,
      "Ġnuts": 7882,
      "Ġnutri": 7883,
      "ijing": 7884,
      "ĠNorwegian": 7885,
      "Ġfitness": 7886,
      "ĠSimilar": 7887,
      "Ã³n": 7888,
      "ĠFerr": 7889,
      "Ġbreath": 7890,
      "Ġassistant": 7891,
      "Ġscores": 7892,
      "presso": 7893,
      "ĠLanka": 7894,
      "ĠIndonesia": 7895,
      "87": 7896,
      "IA": 7897,
      "MA": 7898,
      "Par": 7899,
      "To": 7900,
      "bee": 7901,
      "cu": 7902,
      "rity": 7903,
      "tion": 7904,
      "Ġsizes": 7905,
      "Ġwake": 7906,
      "itled": 7907,
      "alog": 7908,
      "Ġfolk": 7909,
      "Ġbought": 7910,
      "Ġinse": 7911,
      "Ġhike": 7912,
      "sters": 7913,
      "ĠSky": 7914,
      "ĠSQL": 7915,
      "aman": 7916,
      "Ġnav": 7917,
      "ĠCru": 7918,
      "ĠBoy": 7919,
      "ĠBah": 7920,
      "uten": 7921,
      "aded": 7922,
      "ĠHand": 7923,
      "herry": 7924,
      "unar": 7925,
      "ĠGall": 7926,
      "ĠLive": 7927,
      "ĠLabor": 7928,
      "Ġmoist": 7929,
      "apol": 7930,
      "ĠKal": 7931,
      "aren": 7932,
      "Ġjur": 7933,
      "Ġdispl": 7934,
      "Ġquot": 7935,
      "rence": 7936,
      "Ġinstance": 7937,
      "ĠAnth": 7938,
      "Ġhelping": 7939,
      "Ġauth": 7940,
      "engers": 7941,
      "Ġsevere": 7942,
      "Ġdescription": 7943,
      "Ġvalued": 7944,
      "Ġrestrict": 7945,
      "ĠConf": 7946,
      "ĠConnect": 7947,
      "ĠAndrew": 7948,
      "ĠOrder": 7949,
      "Ġlimits": 7950,
      "ĠReserve": 7951,
      "Ġpopulated": 7952,
      "ĠTournament": 7953,
      "ythm": 7954,
      "celona": 7955,
      "Ġsurvive": 7956,
      "Ġturning": 7957,
      "abetes": 7958,
      "Ġrepeated": 7959,
      "Ġdependent": 7960,
      "Ġsavings": 7961,
      "Ġbillions": 7962,
      "Ġpitcher": 7963,
      "ĠPhoenix": 7964,
      "ĠSaturday": 7965,
      "Car": 7966,
      "IN": 7967,
      "cut": 7968,
      "pret": 7969,
      "rations": 7970,
      "yram": 7971,
      "inction": 7972,
      "Ġcul": 7973,
      "Ġwider": 7974,
      "ĠSix": 7975,
      "cts": 7976,
      "Ġnob": 7977,
      "ĠCA": 7978,
      "ĠCab": 7979,
      "ĠCateg": 7980,
      "chang": 7981,
      "ĠMumbai": 7982,
      "ĠBand": 7983,
      "ĠBud": 7984,
      "utation": 7985,
      "ĠPad": 7986,
      "Ġwaste": 7987,
      "ĠDat": 7988,
      "ĠDown": 7989,
      "ĠLady": 7990,
      "abits": 7991,
      "ĠJane": 7992,
      "izer": 7993,
      "Ġmeals": 7994,
      "Ġclock": 7995,
      "Ġresolution": 7996,
      "ensed": 7997,
      "Ġrecipe": 7998,
      "ĠIndex": 7999,
      "Ġmode": 8000,
      "amese": 8001,
      "Ġfinals": 8002,
      "ĠNewton": 8003,
      "Ġcalls": 8004,
      "forest": 8005,
      "Ġmetropolitan": 8006,
      "ĠAny": 8007,
      "Ġexpression": 8008,
      "enness": 8009,
      "afe": 8010,
      "Ġ75": 8011,
      "pected": 8012,
      "Ġengines": 8013,
      "Ġeveryday": 8014,
      "Ġtrading": 8015,
      "Ġadvis": 8016,
      "Ġeffectively": 8017,
      "Ġespresso": 8018,
      "Ġdiscip": 8019,
      "Ġstructural": 8020,
      "Ġidentity": 8021,
      "ĠFloyd": 8022,
      "Ġpresentation": 8023,
      "Ġhitting": 8024,
      "Ġpredomin": 8025,
      "Ġofficials": 8026,
      "going": 8027,
      "Ġcontaining": 8028,
      "Ġasking": 8029,
      "ĠCapit": 8030,
      "ĠCapital": 8031,
      "Ġsuggests": 8032,
      "Ġchallenge": 8033,
      "Ġefficiency": 8034,
      "Ġmerch": 8035,
      "Ġdocuments": 8036,
      "Ġplatforms": 8037,
      "ĠTerrier": 8038,
      "Ġnominated": 8039,
      "hetic": 8040,
      "Ġratio": 8041,
      "Ġmolecules": 8042,
      "imensional": 8043,
      "Ġsuitable": 8044,
      "Ġchairman": 8045,
      "ĠDuke": 8046,
      "ĠTechnology": 8047,
      "cosystem": 8048,
      "Ġfeaturing": 8049,
      "Ġdowntown": 8050,
      "ĠCeltics": 8051,
      "Ad": 8052,
      "Japan": 8053,
      "US": 8054,
      "gal": 8055,
      "hill": 8056,
      "rong": 8057,
      "organ": 8058,
      "Ġfan": 8059,
      "Ġfil": 8060,
      "Ġinduct": 8061,
      "Ġmand": 8062,
      "Ġhus": 8063,
      "Ġhur": 8064,
      "Ġlap": 8065,
      "ela": 8066,
      "Ġgol": 8067,
      "Ġgather": 8068,
      "rays": 8069,
      "imize": 8070,
      "ĠMike": 8071,
      "ĠBan": 8072,
      "iration": 8073,
      "ĠPier": 8074,
      "Ġ($": 8075,
      "ĠGor": 8076,
      "ĠGord": 8077,
      "ĠNorm": 8078,
      "Ġvirus": 8079,
      "ocracy": 8080,
      "ĠJam": 8081,
      "ĠJoh": 8082,
      "ardens": 8083,
      "berry": 8084,
      "mented": 8085,
      "rice": 8086,
      "Ġenem": 8087,
      "pty": 8088,
      "Ġunable": 8089,
      "Ġimperial": 8090,
      "Ġscript": 8091,
      "Ġtwenty": 8092,
      "cknow": 8093,
      "Ġformula": 8094,
      "Ġamber": 8095,
      "ologists": 8096,
      "ika": 8097,
      "Ġunderstood": 8098,
      "Ġprovinces": 8099,
      "ĠMarc": 8100,
      "Ġ64": 8101,
      "Ġvariation": 8102,
      "Ġvariants": 8103,
      "Ġskating": 8104,
      "ĠColl": 8105,
      "ĠAdam": 8106,
      "Ġestate": 8107,
      "Ġ1954": 8108,
      "ĠOnly": 8109,
      "Ġsecure": 8110,
      "Ġpossibly": 8111,
      "laim": 8112,
      "Ġconnections": 8113,
      "Ġfeelings": 8114,
      "ipping": 8115,
      "Ġintroduction": 8116,
      "Ġexisted": 8117,
      "Step": 8118,
      "Ġprize": 8119,
      "Ġ1929": 8120,
      "Ġargue": 8121,
      "Ġselection": 8122,
      "Ġwatching": 8123,
      "Ġattractions": 8124,
      "Ġlabel": 8125,
      "Ġalgorithms": 8126,
      "ĠDogs": 8127,
      "Ġvoting": 8128,
      "Ġbanana": 8129,
      "Ġolive": 8130,
      "Ġcrack": 8131,
      "ĠSpecial": 8132,
      "Ġgrocery": 8133,
      "ĠPhilippines": 8134,
      "itrogen": 8135,
      "ĠIndependence": 8136,
      "ĠBusiness": 8137,
      "ĠAntonio": 8138,
      "folio": 8139,
      "bernetes": 8140,
      "El": 8141,
      "Le": 8142,
      "MO": 8143,
      "Russ": 8144,
      "aired": 8145,
      "gram": 8146,
      "hu": 8147,
      "mers": 8148,
      "rub": 8149,
      "É¾": 8150,
      "aters": 8151,
      "Ġcogn": 8152,
      "Ġcinem": 8153,
      "Ġwait": 8154,
      "Ġfir": 8155,
      "Ġfurn": 8156,
      "aro": 8157,
      "Ġmang": 8158,
      "endment": 8159,
      "Ġhob": 8160,
      "Ġhidden": 8161,
      "ĠSab": 8162,
      "rock": 8163,
      "etch": 8164,
      "ĠCa": 8165,
      "ushing": 8166,
      "ĠWW": 8167,
      "Ġeighth": 8168,
      "ĠBroad": 8169,
      "ĠTheatre": 8170,
      "ĠPand": 8171,
      "ĠHerm": 8172,
      "ĠHistory": 8173,
      "ĠDue": 8174,
      "ĠRain": 8175,
      "ĠEU": 8176,
      "acc": 8177,
      "riage": 8178,
      "Ġwheat": 8179,
      "iece": 8180,
      "ĠThink": 8181,
      "Ġalliance": 8182,
      "Ġ33": 8183,
      "Ġrooms": 8184,
      "Ġpret": 8185,
      "Ġcolumn": 8186,
      "Ġinvasion": 8187,
      "Ġinteractions": 8188,
      "Ġdrinks": 8189,
      "Ġpasses": 8190,
      "Ġdepartment": 8191
    },
    "merges": [
      [
        "Ġ",
        "t"
      ],
      [
        "Ġ",
        "a"
      ],
      [
        "h",
        "e"
      ],
      [
        "i",
        "n"
      ],
      [
        "e",
        "r"
      ],
      [
        "n",
        "d"
      ],
      [
        "Ġt",
        "he"
      ],
      [
        "o",
        "n"
      ],
      [
        "r",
        "e"
      ],
      [
        "Ġ",
        "o"
      ],
      [
        "Ġ",
        "s"
      ],
      [
        "a",
        "t"
      ],
      [
        "a",
        "n"
      ],
      [
        "i",
        "s"
      ],
      [
        "Ġ",
        "c"
      ],
      [
        "Ġ",
        "w"
      ],
      [
        "e",
        "s"
      ],
      [
        "e",
        "n"
      ],
      [
        "o",
        "r"
      ],
      [
        "e",
        "d"
      ],
      [
        "i",
        "t"
      ],
      [
        "a",
        "l"
      ],
      [
        "Ġ",
        "f"
      ],
      [
        "a",
        "r"
      ],
      [
        "Ġ",
        "b"
      ],
      [
        "Ġ",
        "p"
      ],
      [
        "Ġ",
        "in"
      ],
      [
        "Ġo",
        "f"
      ],
      [
        "in",
        "g"
      ],
      [
        "Ġa",
        "nd"
      ],
      [
        "Ġ",
        "m"
      ],
      [
        "i",
        "c"
      ],
      [
        "o",
        "u"
      ],
      [
        "a",
        "s"
      ],
      [
        "Ġt",
        "o"
      ],
      [
        "Ġ",
        "d"
      ],
      [
        "i",
        "on"
      ],
      [
        "l",
        "e"
      ],
      [
        "o",
        "m"
      ],
      [
        "e",
        "x"
      ],
      [
        "e",
        "nd"
      ],
      [
        "Ġ",
        "h"
      ],
      [
        "o",
        "t"
      ],
      [
        "ex",
        "t"
      ],
      [
        "Ġ",
        "is"
      ],
      [
        "en",
        "t"
      ],
      [
        "Ġ",
        "T"
      ],
      [
        "i",
        "l"
      ],
      [
        "O",
        "f"
      ],
      [
        "Ġ",
        "l"
      ],
      [
        "T",
        "ext"
      ],
      [
        "end",
        "Of"
      ],
      [
        "endOf",
        "Text"
      ],
      [
        "s",
        "t"
      ],
      [
        "Ġ",
        "S"
      ],
      [
        "e",
        "l"
      ],
      [
        "Ġ",
        "re"
      ],
      [
        "r",
        "o"
      ],
      [
        "u",
        "m"
      ],
      [
        "Ġ",
        "A"
      ],
      [
        "a",
        "m"
      ],
      [
        "c",
        "t"
      ],
      [
        "e",
        "t"
      ],
      [
        "Ġt",
        "h"
      ],
      [
        "Ġ",
        "n"
      ],
      [
        "Ġ",
        "g"
      ],
      [
        "Ġ",
        "C"
      ],
      [
        "o",
        "l"
      ],
      [
        "i",
        "v"
      ],
      [
        "Ġ",
        "I"
      ],
      [
        "r",
        "a"
      ],
      [
        "c",
        "h"
      ],
      [
        "l",
        "y"
      ],
      [
        "i",
        "d"
      ],
      [
        "o",
        "w"
      ],
      [
        "u",
        "s"
      ],
      [
        "i",
        "m"
      ],
      [
        "Ġ",
        "1"
      ],
      [
        "c",
        "e"
      ],
      [
        "Ġ",
        "M"
      ],
      [
        "Ġ",
        "W"
      ],
      [
        "Ġf",
        "or"
      ],
      [
        "Ġ",
        "on"
      ],
      [
        "i",
        "g"
      ],
      [
        "u",
        "r"
      ],
      [
        "at",
        "ion"
      ],
      [
        "Ġb",
        "e"
      ],
      [
        "Ġ",
        "e"
      ],
      [
        "a",
        "y"
      ],
      [
        "Ġ",
        "B"
      ],
      [
        "u",
        "t"
      ],
      [
        "Ġa",
        "s"
      ],
      [
        "er",
        "s"
      ],
      [
        "i",
        "r"
      ],
      [
        "ĠT",
        "he"
      ],
      [
        "um",
        "an"
      ],
      [
        "Ġs",
        "t"
      ],
      [
        "a",
        "d"
      ],
      [
        "Ġa",
        "re"
      ],
      [
        "Ġ",
        "P"
      ],
      [
        "u",
        "l"
      ],
      [
        "b",
        "ot"
      ],
      [
        ".",
        "<"
      ],
      [
        "h",
        "uman"
      ],
      [
        "Ġ",
        "H"
      ],
      [
        "Ġ",
        "y"
      ],
      [
        "it",
        "h"
      ],
      [
        "Ġ",
        "("
      ],
      [
        "t",
        "er"
      ],
      [
        "Ġw",
        "h"
      ],
      [
        "he",
        "r"
      ],
      [
        "Ġw",
        "ith"
      ],
      [
        "u",
        "n"
      ],
      [
        "i",
        "f"
      ],
      [
        "Ġw",
        "as"
      ],
      [
        "Ġo",
        "r"
      ],
      [
        "Ġa",
        "n"
      ],
      [
        "Ġa",
        "l"
      ],
      [
        "Ġ",
        "G"
      ],
      [
        "Ġ",
        "2"
      ],
      [
        "es",
        "t"
      ],
      [
        "v",
        "er"
      ],
      [
        "Ġ",
        "F"
      ],
      [
        "Ġth",
        "at"
      ],
      [
        "a",
        "g"
      ],
      [
        "e",
        "m"
      ],
      [
        "is",
        "t"
      ],
      [
        "Ġ",
        "D"
      ],
      [
        "o",
        "d"
      ],
      [
        "t",
        "h"
      ],
      [
        "Ġ",
        "it"
      ],
      [
        "Ġ",
        "R"
      ],
      [
        "Ġ",
        "N"
      ],
      [
        "Ġb",
        "y"
      ],
      [
        "Ġc",
        "om"
      ],
      [
        "o",
        "s"
      ],
      [
        "o",
        "p"
      ],
      [
        "Ġf",
        "r"
      ],
      [
        "Ġ",
        "L"
      ],
      [
        "Ġc",
        "on"
      ],
      [
        "a",
        "v"
      ],
      [
        "i",
        "es"
      ],
      [
        "Ġy",
        "ou"
      ],
      [
        "a",
        "nd"
      ],
      [
        "Ġ",
        "E"
      ],
      [
        "Ġ",
        "v"
      ],
      [
        "l",
        "d"
      ],
      [
        "a",
        "c"
      ],
      [
        "Ġp",
        "ro"
      ],
      [
        "'",
        "s"
      ],
      [
        "k",
        "e"
      ],
      [
        "Ġd",
        "e"
      ],
      [
        "o",
        "c"
      ],
      [
        "il",
        "l"
      ],
      [
        "at",
        "e"
      ],
      [
        "Ġm",
        "o"
      ],
      [
        "al",
        "l"
      ],
      [
        "a",
        "b"
      ],
      [
        "Ġ1",
        "9"
      ],
      [
        "it",
        "y"
      ],
      [
        "Ġa",
        "t"
      ],
      [
        "re",
        "s"
      ],
      [
        "a",
        "in"
      ],
      [
        "Ġ",
        "r"
      ],
      [
        "Ġ",
        "he"
      ],
      [
        "iv",
        "e"
      ],
      [
        "Ġ2",
        "0"
      ],
      [
        "Ġfr",
        "om"
      ],
      [
        "q",
        "u"
      ],
      [
        "p",
        "e"
      ],
      [
        "ic",
        "h"
      ],
      [
        "ig",
        "h"
      ],
      [
        "es",
        "s"
      ],
      [
        "Ġs",
        "e"
      ],
      [
        "Ġ",
        "J"
      ],
      [
        "Ġs",
        "u"
      ],
      [
        "an",
        "t"
      ],
      [
        "ĠW",
        "h"
      ],
      [
        "or",
        "t"
      ],
      [
        "Ġp",
        "l"
      ],
      [
        "s",
        "e"
      ],
      [
        "ar",
        "t"
      ],
      [
        "Ġ",
        "U"
      ],
      [
        "i",
        "a"
      ],
      [
        "n",
        "t"
      ],
      [
        "ar",
        "d"
      ],
      [
        "r",
        "i"
      ],
      [
        "u",
        "d"
      ],
      [
        "Ġc",
        "h"
      ],
      [
        "a",
        "p"
      ],
      [
        "Ġ",
        "us"
      ],
      [
        "Ġ",
        "ex"
      ],
      [
        "al",
        "ly"
      ],
      [
        "Ġc",
        "an"
      ],
      [
        "â",
        "Ģ"
      ],
      [
        "Ġ",
        "O"
      ],
      [
        "om",
        "e"
      ],
      [
        "ou",
        "r"
      ],
      [
        "Ġ",
        "le"
      ],
      [
        "el",
        "l"
      ],
      [
        "as",
        "t"
      ],
      [
        "Ġ",
        "\""
      ],
      [
        "?",
        "<"
      ],
      [
        "g",
        "e"
      ],
      [
        "Ġwh",
        "ich"
      ],
      [
        "at",
        "ed"
      ],
      [
        "b",
        "er"
      ],
      [
        "o",
        "g"
      ],
      [
        "av",
        "e"
      ],
      [
        "p",
        "p"
      ],
      [
        "Ġcom",
        "p"
      ],
      [
        "am",
        "e"
      ],
      [
        "Ġs",
        "h"
      ],
      [
        "igh",
        "t"
      ],
      [
        "m",
        "ent"
      ],
      [
        "Ġw",
        "or"
      ],
      [
        "Ġ",
        "k"
      ],
      [
        "e",
        "w"
      ],
      [
        "Ġ",
        "K"
      ],
      [
        "u",
        "re"
      ],
      [
        "i",
        "an"
      ],
      [
        "a",
        "k"
      ],
      [
        "e",
        "ar"
      ],
      [
        "ion",
        "s"
      ],
      [
        "i",
        "p"
      ],
      [
        "r",
        "ou"
      ],
      [
        "ĠS",
        "t"
      ],
      [
        "in",
        "e"
      ],
      [
        "i",
        "al"
      ],
      [
        "on",
        "g"
      ],
      [
        "0",
        "0"
      ],
      [
        "ĠI",
        "n"
      ],
      [
        "s",
        "o"
      ],
      [
        "u",
        "st"
      ],
      [
        "Ġw",
        "he"
      ],
      [
        "Ġh",
        "ave"
      ],
      [
        "o",
        "re"
      ],
      [
        "t",
        "her"
      ],
      [
        "Ġin",
        "c"
      ],
      [
        "m",
        "er"
      ],
      [
        "g",
        "h"
      ],
      [
        "u",
        "p"
      ],
      [
        "as",
        "s"
      ],
      [
        "e",
        "ct"
      ],
      [
        "r",
        "y"
      ],
      [
        "f",
        "er"
      ],
      [
        "i",
        "z"
      ],
      [
        "an",
        "y"
      ],
      [
        "Ġh",
        "as"
      ],
      [
        "a",
        "re"
      ],
      [
        "id",
        "e"
      ],
      [
        "i",
        "re"
      ],
      [
        "ĠI",
        "t"
      ],
      [
        "ou",
        "t"
      ],
      [
        "e",
        "p"
      ],
      [
        "r",
        "ic"
      ],
      [
        "ou",
        "ld"
      ],
      [
        "ag",
        "e"
      ],
      [
        "Ġn",
        "ot"
      ],
      [
        "ĠWh",
        "at"
      ],
      [
        "ou",
        "nt"
      ],
      [
        "Ġh",
        "is"
      ],
      [
        "a",
        "ch"
      ],
      [
        "ar",
        "y"
      ],
      [
        "Ġa",
        "b"
      ],
      [
        "Ġs",
        "p"
      ],
      [
        "u",
        "b"
      ],
      [
        "u",
        "e"
      ],
      [
        "k",
        "s"
      ],
      [
        "is",
        "h"
      ],
      [
        "ou",
        "s"
      ],
      [
        "Ġt",
        "e"
      ],
      [
        "r",
        "an"
      ],
      [
        "Ġm",
        "e"
      ],
      [
        "o",
        "od"
      ],
      [
        "l",
        "ow"
      ],
      [
        "a",
        "ct"
      ],
      [
        "im",
        "e"
      ],
      [
        "Ġal",
        "so"
      ],
      [
        "Ġc",
        "o"
      ],
      [
        "d",
        "u"
      ],
      [
        "Ġ",
        "en"
      ],
      [
        "ir",
        "st"
      ],
      [
        "p",
        "er"
      ],
      [
        "ĠC",
        "h"
      ],
      [
        "ic",
        "al"
      ],
      [
        "en",
        "ce"
      ],
      [
        "ul",
        "t"
      ],
      [
        "Ġc",
        "l"
      ],
      [
        "Ġin",
        "t"
      ],
      [
        "p",
        "l"
      ],
      [
        "c",
        "c"
      ],
      [
        "v",
        "el"
      ],
      [
        "at",
        "es"
      ],
      [
        "or",
        "d"
      ],
      [
        "p",
        "t"
      ],
      [
        "Ġthe",
        "ir"
      ],
      [
        "T",
        "he"
      ],
      [
        "i",
        "e"
      ],
      [
        "at",
        "er"
      ],
      [
        "Ġcon",
        "t"
      ],
      [
        "Ġ",
        "un"
      ],
      [
        "er",
        "e"
      ],
      [
        "ac",
        "k"
      ],
      [
        "Ġon",
        "e"
      ],
      [
        "ow",
        "n"
      ],
      [
        "f",
        "f"
      ],
      [
        "Ġa",
        "d"
      ],
      [
        "Ġf",
        "irst"
      ],
      [
        "v",
        "e"
      ],
      [
        "Ġ",
        "V"
      ],
      [
        "an",
        "g"
      ],
      [
        "o",
        "k"
      ],
      [
        "Ġyou",
        "r"
      ],
      [
        "ĠU",
        "n"
      ],
      [
        "r",
        "it"
      ],
      [
        "a",
        "ke"
      ],
      [
        "Ġpl",
        "ay"
      ],
      [
        "Ġt",
        "ra"
      ],
      [
        "le",
        "ct"
      ],
      [
        "Ġth",
        "is"
      ],
      [
        "ic",
        "e"
      ],
      [
        "on",
        "e"
      ],
      [
        "ĠT",
        "h"
      ],
      [
        "Ġp",
        "er"
      ],
      [
        "Ġd",
        "o"
      ],
      [
        "Ġmo",
        "st"
      ],
      [
        ")",
        ","
      ],
      [
        "Ġo",
        "ther"
      ],
      [
        "Ġp",
        "r"
      ],
      [
        "ation",
        "s"
      ],
      [
        "l",
        "ud"
      ],
      [
        "Ġal",
        "l"
      ],
      [
        "Ġ",
        "im"
      ],
      [
        "Ġit",
        "s"
      ],
      [
        "Ġre",
        "s"
      ],
      [
        "or",
        "m"
      ],
      [
        "ou",
        "nd"
      ],
      [
        "Ġa",
        "r"
      ],
      [
        "c",
        "o"
      ],
      [
        "Ġ",
        "Y"
      ],
      [
        "Ġw",
        "e"
      ],
      [
        "Ġb",
        "ut"
      ],
      [
        "Ġw",
        "ere"
      ],
      [
        "Ġ20",
        "1"
      ],
      [
        "Ġ",
        "j"
      ],
      [
        "l",
        "es"
      ],
      [
        "el",
        "y"
      ],
      [
        "in",
        "d"
      ],
      [
        "re",
        "e"
      ],
      [
        "i",
        "le"
      ],
      [
        "Ġn",
        "e"
      ],
      [
        "ig",
        "n"
      ],
      [
        "it",
        "ion"
      ],
      [
        "Ġthe",
        "y"
      ],
      [
        "Ġinc",
        "lud"
      ],
      [
        "Ġbe",
        "c"
      ],
      [
        "Ġp",
        "art"
      ],
      [
        "i",
        "b"
      ],
      [
        "Ġmo",
        "re"
      ],
      [
        "Ġy",
        "ear"
      ],
      [
        "ar",
        "k"
      ],
      [
        "am",
        "p"
      ],
      [
        "as",
        "e"
      ],
      [
        "ab",
        "le"
      ],
      [
        "Ġ",
        "3"
      ],
      [
        "Ġs",
        "ome"
      ],
      [
        "or",
        "y"
      ],
      [
        "Ġs",
        "er"
      ],
      [
        "a",
        "ce"
      ],
      [
        "it",
        "ed"
      ],
      [
        "p",
        "h"
      ],
      [
        "Ġk",
        "n"
      ],
      [
        "r",
        "u"
      ],
      [
        "u",
        "nd"
      ],
      [
        "Ġs",
        "c"
      ],
      [
        "ĠH",
        "e"
      ],
      [
        "Ġt",
        "ime"
      ],
      [
        "Ġwh",
        "o"
      ],
      [
        "Ġ",
        "ro"
      ],
      [
        "ter",
        "n"
      ],
      [
        "Ġp",
        "e"
      ],
      [
        "Ġcom",
        "m"
      ],
      [
        "en",
        "s"
      ],
      [
        "or",
        "s"
      ],
      [
        "Ġt",
        "w"
      ],
      [
        "Ġ",
        "ra"
      ],
      [
        "Ġo",
        "ut"
      ],
      [
        "w",
        "e"
      ],
      [
        "Ġre",
        "c"
      ],
      [
        "re",
        "at"
      ],
      [
        "ent",
        "s"
      ],
      [
        "Ġcon",
        "s"
      ],
      [
        "mer",
        "ic"
      ],
      [
        "an",
        "ce"
      ],
      [
        "Ġs",
        "pe"
      ],
      [
        "o",
        "st"
      ],
      [
        "ation",
        "al"
      ],
      [
        "âĢ",
        "ĵ"
      ],
      [
        "er",
        "m"
      ],
      [
        "i",
        "ke"
      ],
      [
        "as",
        "ed"
      ],
      [
        "l",
        "and"
      ],
      [
        "Ġd",
        "is"
      ],
      [
        "Ġo",
        "ver"
      ],
      [
        "n",
        "g"
      ],
      [
        "Ġg",
        "o"
      ],
      [
        "Ġ",
        "-"
      ],
      [
        "or",
        "n"
      ],
      [
        "Ġs",
        "o"
      ],
      [
        "ĠA",
        "l"
      ],
      [
        "Ġm",
        "any"
      ],
      [
        "Ġp",
        "re"
      ],
      [
        "c",
        "es"
      ],
      [
        "f",
        "ter"
      ],
      [
        "Ġwhe",
        "n"
      ],
      [
        "al",
        "s"
      ],
      [
        "Ġab",
        "out"
      ],
      [
        "ul",
        "ar"
      ],
      [
        "ĠA",
        "meric"
      ],
      [
        "il",
        "d"
      ],
      [
        "Â",
        "ł"
      ],
      [
        "Ġ",
        "Ċ"
      ],
      [
        "Ġb",
        "et"
      ],
      [
        "in",
        "t"
      ],
      [
        "Ġsu",
        "ch"
      ],
      [
        "Ġw",
        "ill"
      ],
      [
        "on",
        "s"
      ],
      [
        "ol",
        "d"
      ],
      [
        "ing",
        "s"
      ],
      [
        "a",
        "us"
      ],
      [
        "Ġ",
        "qu"
      ],
      [
        "Ġs",
        "y"
      ],
      [
        "he",
        "d"
      ],
      [
        "os",
        "e"
      ],
      [
        "Ġ",
        "up"
      ],
      [
        "Ġd",
        "if"
      ],
      [
        "ct",
        "ion"
      ],
      [
        "Ġint",
        "o"
      ],
      [
        "f",
        "orm"
      ],
      [
        "ver",
        "y"
      ],
      [
        "ar",
        "g"
      ],
      [
        "op",
        "le"
      ],
      [
        "o",
        "b"
      ],
      [
        "ĠI",
        "nd"
      ],
      [
        "c",
        "k"
      ],
      [
        "it",
        "e"
      ],
      [
        "Ġe",
        "v"
      ],
      [
        "a",
        "w"
      ],
      [
        "res",
        "s"
      ],
      [
        "Ġtw",
        "o"
      ],
      [
        "a",
        "il"
      ],
      [
        "Ġim",
        "p"
      ],
      [
        "o",
        "y"
      ],
      [
        "ic",
        "k"
      ],
      [
        "Ġd",
        "es"
      ],
      [
        "c",
        "ed"
      ],
      [
        "ur",
        "ing"
      ],
      [
        "Ġp",
        "op"
      ],
      [
        "o",
        "v"
      ],
      [
        "if",
        "ic"
      ],
      [
        "Ġus",
        "ed"
      ],
      [
        "n",
        "ing"
      ],
      [
        "l",
        "ic"
      ],
      [
        "Ġthe",
        "m"
      ],
      [
        "Ġa",
        "pp"
      ],
      [
        "2",
        "0"
      ],
      [
        "Ġwor",
        "ld"
      ],
      [
        "ol",
        "low"
      ],
      [
        "Ġbe",
        "en"
      ],
      [
        "Ġ20",
        "0"
      ],
      [
        "Ġg",
        "en"
      ],
      [
        "ou",
        "gh"
      ],
      [
        "ay",
        "s"
      ],
      [
        "Ġ1",
        "8"
      ],
      [
        "Ġb",
        "o"
      ],
      [
        "Ġte",
        "am"
      ],
      [
        "it",
        "ies"
      ],
      [
        "n",
        "e"
      ],
      [
        "Ġpro",
        "du"
      ],
      [
        "Ġc",
        "ount"
      ],
      [
        "re",
        "d"
      ],
      [
        "le",
        "t"
      ],
      [
        ")",
        "."
      ],
      [
        "Ġth",
        "an"
      ],
      [
        "Ġa",
        "g"
      ],
      [
        "f",
        "t"
      ],
      [
        "ĠUn",
        "ited"
      ],
      [
        "w",
        "n"
      ],
      [
        "Ġpe",
        "ople"
      ],
      [
        "Ġin",
        "d"
      ],
      [
        "Ġh",
        "ad"
      ],
      [
        "Ġ",
        "4"
      ],
      [
        "Ġfor",
        "m"
      ],
      [
        "ic",
        "s"
      ],
      [
        "Ġf",
        "ollow"
      ],
      [
        "rou",
        "gh"
      ],
      [
        "Ġa",
        "ct"
      ],
      [
        "Ġdif",
        "fer"
      ],
      [
        "b",
        "all"
      ],
      [
        "Ġe",
        "lect"
      ],
      [
        "Ġw",
        "ould"
      ],
      [
        "Ġwor",
        "k"
      ],
      [
        "we",
        "en"
      ],
      [
        "1",
        "9"
      ],
      [
        "rou",
        "nd"
      ],
      [
        "Ġc",
        "ol"
      ],
      [
        "ar",
        "i"
      ],
      [
        "iv",
        "ers"
      ],
      [
        "w",
        "ard"
      ],
      [
        "he",
        "s"
      ],
      [
        "an",
        "s"
      ],
      [
        "Ġ",
        "5"
      ],
      [
        "st",
        "em"
      ],
      [
        "i",
        "ed"
      ],
      [
        "at",
        "a"
      ],
      [
        "Ġus",
        "e"
      ],
      [
        "ot",
        "h"
      ],
      [
        "ad",
        "e"
      ],
      [
        "Ġm",
        "od"
      ],
      [
        "Ġa",
        "m"
      ],
      [
        "Ġre",
        "g"
      ],
      [
        "t",
        "en"
      ],
      [
        "ol",
        "og"
      ],
      [
        "Ġt",
        "y"
      ],
      [
        "Ġf",
        "e"
      ],
      [
        "Ġof",
        "f"
      ],
      [
        "Ġbet",
        "ween"
      ],
      [
        "Ġkn",
        "own"
      ],
      [
        "ĠA",
        "s"
      ],
      [
        "v",
        "ed"
      ],
      [
        "Ġwhe",
        "re"
      ],
      [
        "Ġl",
        "oc"
      ],
      [
        "ar",
        "s"
      ],
      [
        "e",
        "g"
      ],
      [
        "at",
        "ing"
      ],
      [
        "Ġa",
        "fter"
      ],
      [
        "ĠTh",
        "is"
      ],
      [
        "Ġb",
        "u"
      ],
      [
        "Ġthe",
        "re"
      ],
      [
        "h",
        "ip"
      ],
      [
        "ĠH",
        "ow"
      ],
      [
        "ra",
        "ct"
      ],
      [
        "ri",
        "b"
      ],
      [
        "y",
        "s"
      ],
      [
        "Ġwh",
        "at"
      ],
      [
        "am",
        "es"
      ],
      [
        "Ġf",
        "l"
      ],
      [
        "Ġat",
        "t"
      ],
      [
        "ow",
        "er"
      ],
      [
        "Ġl",
        "ike"
      ],
      [
        "is",
        "e"
      ],
      [
        "Ġp",
        "h"
      ],
      [
        "Ġspe",
        "c"
      ],
      [
        "re",
        "n"
      ],
      [
        "Ġa",
        "cc"
      ],
      [
        "g",
        "an"
      ],
      [
        "at",
        "h"
      ],
      [
        "Ġin",
        "v"
      ],
      [
        "Ġ",
        "her"
      ],
      [
        "it",
        "s"
      ],
      [
        "i",
[...]
