{
  "version": "1.0",
  "truncation": null,
  "padding": null,
  "added_tokens": [
    {
      "id": 0,
      "content": "<unk>",
      "single_word": false,
      "lstrip": false,
      "rstrip": false,
      "normalized": false,
      "special": true
    }
  ],
  "normalizer": null,
  "pre_tokenizer": {
    "type": "ByteLevel",
    "add_prefix_space": false,
    "trim_offsets": true,
    "use_regex": true
  },
  "post_processor": null,
  "decoder": {
    "type": "ByteLevel",
    "add_prefix_space": true,
    "trim_offsets": true,
    "use_regex": true
  },
  "model": {
    "type": "BPE",
    "dropout": null,
    "unk_token": "<unk>",
    "continuing_subword_prefix": null,
    "end_of_word_suffix": null,
    "fuse_unk": false,
    "byte_fallback": false,
    "ignore_merges": false,
    "vocab": {
      "<unk>": 0,
      "!": 1,
      "\"": 2,
      "#": 3,
      "$": 4,
      "%": 5,
      "&": 6,
      "'": 7,
      "(": 8,
      ")": 9,
      "*": 10,
      "+": 11,
      ",": 12,
      "-": 13,
      ".": 14,
      "/": 15,
      "0": 16,
      "1": 17,
      "2": 18,
      "3": 19,
      "4": 20,
      "5": 21,
      "6": 22,
      "7": 23,
      "8": 24,
      "9": 25,
      ":": 26,
      ";": 27,
      "<": 28,
      "=": 29,
      ">": 30,
      "?": 31,
      "@": 32,
      "A": 33,
      "B": 34,
      "C": 35,
      "D": 36,
      "E": 37,
      "F": 38,
      "G": 39,
      "H": 40,
      "I": 41,
      "J": 42,
      "K": 43,
      "L": 44,
      "M": 45,
      "N": 46,
      "O": 47,
      "P": 48,
      "Q": 49,
      "R": 50,
      "S": 51,
      "T": 52,
      "U": 53,
      "V": 54,
      "W": 55,
      "X": 56,
      "Y": 57,
      "Z": 58,
      "[": 59,
      "\\": 60,
      "]": 61,
      "^": 62,
      "_": 63,
      "`": 64,
      "a": 65,
      "b": 66,
      "c": 67,
      "d": 68,
      "e": 69,
      "f": 70,
      "g": 71,
      "h": 72,
      "i": 73,
      "j": 74,
      "k": 75,
      "l": 76,
      "m": 77,
      "n": 78,
      "o": 79,
      "p": 80,
      "q": 81,
      "r": 82,
      "s": 83,
      "t": 84,
      "u": 85,
      "v": 86,
      "w": 87,
      "x": 88,
      "y": 89,
      "z": 90,
      "{": 91,
      "|": 92,
      "}": 93,
      "~": 94,
      "¡": 95,
      "¢": 96,
      "£": 97,
      "¤": 98,
      "¥": 99,
      "¦": 100,
      "§": 101,
      "¨": 102,
      "©": 103,
      "ª": 104,
      "«": 105,
      "¬": 106,
      "®": 107,
      "¯": 108,
      "°": 109,
      "±": 110,
      "²": 111,
      "³": 112,
      "´": 113,
      "µ": 114,
      "¶": 115,
      "·": 116,
      "¸": 117,
      "¹": 118,
      "º": 119,
      "»": 120,
      "¼": 121,
      "½": 122,
      "¾": 123,
      "¿": 124,
      "Â": 125,
      "Ã": 126,
      "Ä": 127,
      "Å": 128,
      "Æ": 129,
      "Ç": 130,
      "È": 131,
      "É": 132,
      "Ê": 133,
      "Ë": 134,
      "Ì": 135,
      "Í": 136,
      "Î": 137,
      "Ï": 138,
      "Ð": 139,
      "Ñ": 140,
      "×": 141,
      "Ø": 142,
      "Ù": 143,
      "Ú": 144,
      "Û": 145,
      "à": 146,
      "á": 147,
      "â": 148,
      "ã": 149,
      "ä": 150,
      "å": 151,
      "æ": 152,
      "ç": 153,
      "è": 154,
      "é": 155,
      "ê": 156,
      "ë": 157,
      "ì": 158,
      "í": 159,
      "ï": 160,
      "ð": 161,
      "ĉ": 162,
      "Ċ": 163,
      "Ġ": 164,
      "Ģ": 165,
      "ģ": 166,
      "Ĥ": 167,
      "ĥ": 168,
      "Ħ": 169,
      "ħ": 170,
      "Ĩ": 171,
      "ĩ": 172,
      "Ī": 173,
      "ī": 174,
      "Ĭ": 175,
      "ĭ": 176,
      "Į": 177,
      "į": 178,
      "İ": 179,
      "ı": 180,
      "Ĳ": 181,
      "ĳ": 182,
      "Ĵ": 183,
      "ĵ": 184,
      "Ķ": 185,
      "ķ": 186,
      "ĸ": 187,
      "Ĺ": 188,
      "ĺ": 189,
      "Ļ": 190,
      "ļ": 191,
      "Ľ": 192,
      "ľ": 193,
      "Ŀ": 194,
      "ŀ": 195,
      "Ł": 196,
      "ł": 197,
      "Ń": 198,
      "Ġt": 199,
      "Ġa": 200,
      "he": 201,
      "in": 202,
      "er": 203,
      "nd": 204,
      "Ġthe": 205,
      "on": 206,
      "re": 207,
      "Ġo": 208,
      "Ġs": 209,
      "at": 210,
      "an": 211,
      "is": 212,
      "Ġc": 213,
      "Ġw": 214,
      "es": 215,
      "en": 216,
      "or": 217,
      "ed": 218,
      "it": 219,
      "al": 220,
      "Ġf": 221,
      "ar": 222,
      "Ġb": 223,
      "Ġp": 224,
      "Ġin": 225,
      "Ġof": 226,
      "ing": 227,
      "Ġand": 228,
      "Ġm": 229,
      "ic": 230,
      "ou": 231,
      "as": 232,
      "Ġto": 233,
      "Ġd": 234,
      "ion": 235,
      "le": 236,
      "om": 237,
      "ex": 238,
      "end": 239,
      "Ġh": 240,
      "ot": 241,
      "ext": 242,
      "Ġis": 243,
      "ent": 244,
      "ĠT": 245,
      "il": 246,
      "Of": 247,
      "Ġl": 248,
      "Text": 249,
      "endOf": 250,
      "endOfText": 251,
      "st": 252,
      "ĠS": 253,
      "el": 254,
      "Ġre": 255,
      "ro": 256,
      "um": 257,
      "ĠA": 258,
      "am": 259,
      "ct": 260,
      "et": 261,
      "Ġth": 262,
      "Ġn": 263,
      "Ġg": 264,
      "ĠC": 265,
      "ol": 266,
      "iv": 267,
      "ĠI": 268,
      "ra": 269,
      "ch": 270,
      "ly": 271,
      "id": 272,
      "ow": 273,
      "us": 274,
      "im": 275,
      "Ġ1": 276,
      "ce": 277,
      "ĠM": 278,
      "ĠW": 279,
      "Ġfor": 280,
      "Ġon": 281,
      "ig": 282,
      "ur": 283,
      "ation": 284,
      "Ġbe": 285,
      "Ġe": 286,
      "ay": 287,
      "ĠB": 288,
      "ut": 289,
      "Ġas": 290,
      "ers": 291,
      "ir": 292,
      "ĠThe": 293,
      "uman": 294,
      "Ġst": 295,
      "ad": 296,
      "Ġare": 297,
      "ĠP": 298,
      "ul": 299,
      "bot": 300,
      ".<": 301,
      "human": 302,
      "ĠH": 303,
      "Ġy": 304,
      "ith": 305,
      "Ġ(": 306,
      "ter": 307,
      "Ġwh": 308,
      "her": 309,
      "Ġwith": 310,
      "un": 311,
      "if": 312,
      "Ġwas": 313,
      "Ġor": 314,
      "Ġan": 315,
      "Ġal": 316,
      "ĠG": 317,
      "Ġ2": 318,
      "est": 319,
      "ver": 320,
      "ĠF": 321,
      "Ġthat": 322,
      "ag": 323,
      "em": 324,
      "ist": 325,
      "ĠD": 326,
      "od": 327,
      "th": 328,
      "Ġit": 329,
      "ĠR": 330,
      "ĠN": 331,
      "Ġby": 332,
      "Ġcom": 333,
      "os": 334,
      "op": 335,
      "Ġfr": 336,
      "ĠL": 337,
      "Ġcon": 338,
      "av": 339,
      "ies": 340,
      "Ġyou": 341,
      "and": 342,
      "ĠE": 343,
      "Ġv": 344,
      "ld": 345,
      "ac": 346,
      "Ġpro": 347,
      "'s": 348,
      "ke": 349,
      "Ġde": 350,
      "oc": 351,
      "ill": 352,
      "ate": 353,
      "Ġmo": 354,
      "all": 355,
      "ab": 356,
      "Ġ19": 357,
      "ity": 358,
      "Ġat": 359,
      "res": 360,
      "ain": 361,
      "Ġr": 362,
      "Ġhe": 363,
      "ive": 364,
      "Ġ20": 365,
      "Ġfrom": 366,
      "qu": 367,
      "pe": 368,
      "ich": 369,
      "igh": 370,
      "ess": 371,
      "Ġse": 372,
      "ĠJ": 373,
      "Ġsu": 374,
      "ant": 375,
      "ĠWh": 376,
      "ort": 377,
      "Ġpl": 378,
      "se": 379,
      "art": 380,
      "ĠU": 381,
      "ia": 382,
      "nt": 383,
      "ard": 384,
      "ri": 385,
      "ud": 386,
      "Ġch": 387,
      "ap": 388,
      "Ġus": 389,
      "Ġex": 390,
      "ally": 391,
      "Ġcan": 392,
      "âĢ": 393,
      "ĠO": 394,
      "ome": 395,
      "our": 396,
      "Ġle": 397,
      "ell": 398,
      "ast": 399,
      "Ġ\"": 400,
      "?<": 401,
      "ge": 402,
      "Ġwhich": 403,
      "ated": 404,
      "ber": 405,
      "og": 406,
      "ave": 407,
      "pp": 408,
      "Ġcomp": 409,
      "ame": 410,
      "Ġsh": 411,
      "ight": 412,
      "ment": 413,
      "Ġwor": 414,
      "Ġk": 415,
      "ew": 416,
      "ĠK": 417,
      "ure": 418,
      "ian": 419,
      "ak": 420,
      "ear": 421,
      "ions": 422,
      "ip": 423,
      "rou": 424,
      "ĠSt": 425,
      "ine": 426,
      "ial": 427,
      "ong": 428,
      "00": 429,
      "ĠIn": 430,
      "so": 431,
      "ust": 432,
      "Ġwhe": 433,
      "Ġhave": 434,
      "ore": 435,
      "ther": 436,
      "Ġinc": 437,
      "mer": 438,
      "gh": 439,
      "up": 440,
      "ass": 441,
      "ect": 442,
      "ry": 443,
      "fer": 444,
      "iz": 445,
      "any": 446,
      "Ġhas": 447,
      "are": 448,
      "ide": 449,
      "ire": 450,
      "ĠIt": 451,
      "out": 452,
      "ep": 453,
      "ric": 454,
      "ould": 455,
      "age": 456,
      "Ġnot": 457,
      "ĠWhat": 458,
      "ount": 459,
      "Ġhis": 460,
      "ach": 461,
      "ary": 462,
      "Ġab": 463,
      "Ġsp": 464,
      "ub": 465,
      "ue": 466,
      "ks": 467,
      "ish": 468,
      "ous": 469,
      "Ġte": 470,
      "ran": 471,
      "Ġme": 472,
      "ood": 473,
      "low": 474,
      "act": 475,
      "ime": 476,
      "Ġalso": 477,
      "Ġco": 478,
      "du": 479,
      "Ġen": 480,
      "irst": 481,
      "per": 482,
      "ĠCh": 483,
      "ical": 484,
      "ence": 485,
      "ult": 486,
      "Ġcl": 487,
      "Ġint": 488,
      "pl": 489,
      "cc": 490,
      "vel": 491,
      "ates": 492,
      "ord": 493,
      "pt": 494,
      "Ġtheir": 495,
      "The": 496,
      "ie": 497,
      "ater": 498,
      "Ġcont": 499,
      "Ġun": 500,
      "ere": 501,
      "ack": 502,
      "Ġone": 503,
      "own": 504,
      "ff": 505,
      "Ġad": 506,
      "Ġfirst": 507,
      "ve": 508,
      "ĠV": 509,
      "ang": 510,
      "ok": 511,
      "Ġyour": 512,
      "ĠUn": 513,
      "rit": 514,
      "ake": 515,
      "Ġplay": 516,
      "Ġtra": 517,
      "lect": 518,
      "Ġthis": 519,
      "ice": 520,
      "one": 521,
      "ĠTh": 522,
      "Ġper": 523,
      "Ġdo": 524,
      "Ġmost": 525,
      "),": 526,
      "Ġother": 527,
      "Ġpr": 528,
      "ations": 529,
      "lud": 530,
      "Ġall": 531,
      "Ġim": 532,
      "Ġits": 533,
      "Ġres": 534,
      "orm": 535,
      "ound": 536,
      "Ġar": 537,
      "co": 538,
      "ĠY": 539,
      "Ġwe": 540,
      "Ġbut": 541,
      "Ġwere": 542,
      "Ġ201": 543,
      "Ġj": 544,
      "les": 545,
      "ely": 546,
      "ind": 547,
      "ree": 548,
      "ile": 549,
      "Ġne": 550,
      "ign": 551,
      "ition": 552,
      "Ġthey": 553,
      "Ġinclud": 554,
      "Ġbec": 555,
      "Ġpart": 556,
      "ib": 557,
      "Ġmore": 558,
      "Ġyear": 559,
      "ark": 560,
      "amp": 561,
      "ase": 562,
      "able": 563,
      "Ġ3": 564,
      "Ġsome": 565,
      "ory": 566,
      "Ġser": 567,
      "ace": 568,
      "ited": 569,
      "ph": 570,
      "Ġkn": 571,
      "ru": 572,
      "und": 573,
      "Ġsc": 574,
      "ĠHe": 575,
      "Ġtime": 576,
      "Ġwho": 577,
      "Ġro": 578,
      "tern": 579,
      "Ġpe": 580,
      "Ġcomm": 581,
      "ens": 582,
      "ors": 583,
      "Ġtw": 584,
      "Ġra": 585,
      "Ġout": 586,
      "we": 587,
      "Ġrec": 588,
      "reat": 589,
      "ents": 590,
      "Ġcons": 591,
      "meric": 592,
      "ance": 593,
      "Ġspe": 594,
      "ost": 595,
      "ational": 596,
      "âĢĵ": 597,
      "erm": 598,
      "ike": 599,
      "ased": 600,
      "land": 601,
      "Ġdis": 602,
      "Ġover": 603,
      "ng": 604,
      "Ġgo": 605,
      "Ġ-": 606,
      "orn": 607,
      "Ġso": 608,
      "ĠAl": 609,
      "Ġmany": 610,
      "Ġpre": 611,
      "ces": 612,
      "fter": 613,
      "Ġwhen": 614,
      "als": 615,
      "Ġabout": 616,
      "ular": 617,
      "ĠAmeric": 618,
      "ild": 619,
      "Âł": 620,
      "ĠĊ": 621,
      "Ġbet": 622,
      "int": 623,
      "Ġsuch": 624,
      "Ġwill": 625,
      "ons": 626,
      "old": 627,
      "ings": 628,
      "aus": 629,
      "Ġqu": 630,
      "Ġsy": 631,
      "hed": 632,
      "ose": 633,
      "Ġup": 634,
      "Ġdif": 635,
      "ction": 636,
      "Ġinto": 637,
      "form": 638,
      "very": 639,
      "arg": 640,
      "ople": 641,
      "ob": 642,
      "ĠInd": 643,
      "ck": 644,
      "ite": 645,
      "Ġev": 646,
      "aw": 647,
      "ress": 648,
      "Ġtwo": 649,
      "ail": 650,
      "Ġimp": 651,
      "oy": 652,
      "ick": 653,
      "Ġdes": 654,
      "ced": 655,
      "uring": 656,
      "Ġpop": 657,
      "ov": 658,
      "ific": 659,
      "Ġused": 660,
      "ning": 661,
      "lic": 662,
      "Ġthem": 663,
      "Ġapp": 664,
      "20": 665,
      "Ġworld": 666,
      "ollow": 667,
      "Ġbeen": 668,
      "Ġ200": 669,
      "Ġgen": 670,
      "ough": 671,
      "ays": 672,
      "Ġ18": 673,
      "Ġbo": 674,
      "Ġteam": 675,
      "ities": 676,
      "ne": 677,
      "Ġprodu": 678,
      "Ġcount": 679,
      "red": 680,
      "let": 681,
      ").": 682,
      "Ġthan": 683,
      "Ġag": 684,
      "ft": 685,
      "ĠUnited": 686,
      "wn": 687,
      "Ġpeople": 688,
      "Ġind": 689,
      "Ġhad": 690,
      "Ġ4": 691,
      "Ġform": 692,
      "ics": 693,
      "Ġfollow": 694,
      "rough": 695,
      "Ġact": 696,
      "Ġdiffer": 697,
      "ball": 698,
      "Ġelect": 699,
      "Ġwould": 700,
      "Ġwork": 701,
      "ween": 702,
      "19": 703,
      "round": 704,
      "Ġcol": 705,
      "ari": 706,
      "ivers": 707,
      "ward": 708,
      "hes": 709,
      "ans": 710,
      "Ġ5": 711,
      "stem": 712,
      "ied": 713,
      "ata": 714,
      "Ġuse": 715,
      "oth": 716,
      "ade": 717,
      "Ġmod": 718,
      "Ġam": 719,
      "Ġreg": 720,
      "ten": 721,
      "olog": 722,
      "Ġty": 723,
      "Ġfe": 724,
      "Ġoff": 725,
      "Ġbetween": 726,
      "Ġknown": 727,
      "ĠAs": 728,
      "ved": 729,
      "Ġwhere": 730,
      "Ġloc": 731,
      "ars": 732,
      "eg": 733,
      "ating": 734,
      "Ġafter": 735,
      "ĠThis": 736,
      "Ġbu": 737,
      "Ġthere": 738,
      "hip": 739,
      "ĠHow": 740,
      "ract": 741,
      "rib": 742,
      "ys": 743,
      "Ġwhat": 744,
      "ames": 745,
      "Ġfl": 746,
      "Ġatt": 747,
      "ower": 748,
      "Ġlike": 749,
      "ise": 750,
      "Ġph": 751,
      "Ġspec": 752,
      "ren": 753,
      "Ġacc": 754,
      "gan": 755,
      "ath": 756,
      "Ġinv": 757,
      "Ġher": 758,
      "its": 759,
      "ik": 760,
      "Ġlist": 761,
      "Ġthese": 762,
      "Ġund": 763,
      "ily": 764,
      "ins": 765,
      "Ġcent": 766,
      "ĠStates": 767,
      "Ġnum": 768,
      "Ġman": 769,
      "Ġpo": 770,
      "hen": 771,
      "rans": 772,
      "Ġear": 773,
      "ident": 774,
      "ix": 775,
      "ember": 776,
      "cess": 777,
      "Ġthrough": 778,
      "Ġyears": 779,
      "Ġbest": 780,
      "illion": 781,
      "ause": 782,
      "ĠAmerican": 783,
      "Ġmay": 784,
      "Ġeach": 785,
      "Ġrel": 786,
      "Ġnew": 787,
      "ond": 788,
      "iss": 789,
      "Ġdec": 790,
      "ĠAr": 791,
      "Ġsystem": 792,
      "ines": 793,
      "velop": 794,
      "Ġinst": 795,
      "Ġ199": 796,
      "ug": 797,
      "Ġonly": 798,
      "ject": 799,
      "ĠSp": 800,
      "Ġinter": 801,
      "Ġunder": 802,
      "Ġbl": 803,
      "ec": 804,
      "Ġdr": 805,
      "Ġfam": 806,
      "Ġprov": 807,
      "ual": 808,
      "Ġhow": 809,
      "Ġwell": 810,
      "Ġfin": 811,
      "Ġcar": 812,
      "ool": 813,
      "ify": 814,
      "ĠNew": 815,
      "Ġfound": 816,
      "ĠMar": 817,
      "Ġno": 818,
      "ets": 819,
      "ider": 820,
      "erson": 821,
      "Ġwater": 822,
      "ict": 823,
      "In": 824,
      "Ġpres": 825,
      "eld": 826,
      "Ġ202": 827,
      "Ġdifferent": 828,
      "ring": 829,
      "aj": 830,
      "ason": 831,
      "Ġsub": 832,
      "Ġneed": 833,
      "Ġsm": 834,
      "Ġcall": 835,
      "Ġdef": 836,
      "Ġass": 837,
      "Ġmus": 838,
      "ral": 839,
      "ife": 840,
      "ron": 841,
      "ros": 842,
      "Ġduring": 843,
      "outh": 844,
      "ful": 845,
      "Ġac": 846,
      "tain": 847,
      "ures": 848,
      "ee": 849,
      "Ġext": 850,
      "Ġgener": 851,
      "pen": 852,
      "Ġany": 853,
      "row": 854,
      "ork": 855,
      "ically": 856,
      "Ġif": 857,
      "io": 858,
      "Ġtrans": 859,
      "âĢĻ": 860,
      "Ġdevelop": 861,
      "att": 862,
      "oot": 863,
      "Ġdata": 864,
      "ll": 865,
      "ince": 866,
      "Ġfollowing": 867,
      "Ġcre": 868,
      "Ġrep": 869,
      "iven": 870,
      "urn": 871,
      "ock": 872,
      "Ġem": 873,
      "Ġlo": 874,
      "Ġhigh": 875,
      "fore": 876,
      "ink": 877,
      "ank": 878,
      "ĠCl": 879,
      "Ġlong": 880,
      "raph": 881,
      "cond": 882,
      "Ġmet": 883,
      "ient": 884,
      "ram": 885,
      "ts": 886,
      "Ġcap": 887,
      "ural": 888,
      "Ġ198": 889,
      "ism": 890,
      "orld": 891,
      "Ġ6": 892,
      "Ġadd": 893,
      "Ġmain": 894,
      "ever": 895,
      "Ġvari": 896,
      "Ġmade": 897,
      "other": 898,
      "ĠSh": 899,
      "Ġbeing": 900,
      "Ġthen": 901,
      "Ġpos": 902,
      "ah": 903,
      "ern": 904,
      "Ġpar": 905,
      "Ġpol": 906,
      "Ġhel": 907,
      "angu": 908,
      "Ġsk": 909,
      "anc": 910,
      "orth": 911,
      "Ġthree": 912,
      "Ġstart": 913,
      "oh": 914,
      "ative": 915,
      "Ġend": 916,
      "ublic": 917,
      "con": 918,
      "ash": 919,
      "ually": 920,
      "ĠAn": 921,
      "ĠDe": 922,
      "ĠLe": 923,
      "ting": 924,
      "iver": 925,
      "ax": 926,
      "Ġwhile": 927,
      "ized": 928,
      "Ġtyp": 929,
      "Ġdist": 930,
      "ven": 931,
      "Ġgame": 932,
      "uc": 933,
      "Ġmake": 934,
      "ĠEng": 935,
      "Ġob": 936,
      "Ġke": 937,
      "aking": 938,
      "uss": 939,
      "ature": 940,
      "ather": 941,
      "ield": 942,
      "ility": 943,
      "ilm": 944,
      "ouse": 945,
      "chool": 946,
      "ĠWorld": 947,
      "Ġshe": 948,
      "Ġrem": 949,
      "arge": 950,
      "ible": 951,
      "Ġsur": 952,
      "Ġrun": 953,
      "Ġget": 954,
      "ries": 955,
      "Ġlangu": 956,
      "ange": 957,
      "Ġcur": 958,
      "Ġinclude": 959,
      "ined": 960,
      "Ġwin": 961,
      "Ġwon": 962,
      "Ġeff": 963,
      "Ġpass": 964,
      "ury": 965,
      "Ġpopular": 966,
      "Ġhelp": 967,
      "Ġgra": 968,
      "ĠYou": 969,
      "Ġnumber": 970,
      "Ġlarg": 971,
      "ier": 972,
      "Ġexp": 973,
      "Ġart": 974,
      "Ġcommon": 975,
      "Ġent": 976,
      "Ġlead": 977,
      "Ġsim": 978,
      "Ġshould": 979,
      "ional": 980,
      "Ġhist": 981,
      "ants": 982,
      "man": 983,
      "au": 984,
      "iet": 985,
      "Ġcould": 986,
      "ĠThere": 987,
      "Ġcalled": 988,
      "Ġmov": 989,
      "Ġincluding": 990,
      "Ġconsider": 991,
      "ote": 992,
      "az": 993,
      "Ġgood": 994,
      "000": 995,
      "imes": 996,
      "ĠFran": 997,
      "chn": 998,
      "Ġmin": 999,
      "enn": 1000,
      "ished": 1001,
      "Ġstud": 1002,
      "uro": 1003,
      "Ġcity": 1004,
      "ĠCom": 1005,
      "Ġfour": 1006,
      "ement": 1007,
      "Ġserv": 1008,
      "Ġperson": 1009,
      "roup": 1010,
      "bo": 1011,
      "ĠĠ": 1012,
      "Ġboth": 1013,
      "Ġaround": 1014,
      "Ġset": 1015,
      "els": 1016,
      "cy": 1017,
      "ton": 1018,
      "gy": 1019,
      "Ġsecond": 1020,
      "rom": 1021,
      "Ġprocess": 1022,
      "Ġrefer": 1023,
      "Ġoften": 1024,
      "ious": 1025,
      "Ġmy": 1026,
      "ĠSe": 1027,
      "ments": 1028,
      "air": 1029,
      "Ġbel": 1030,
      "Ġinf": 1031,
      "uch": 1032,
      "Ġhuman": 1033,
      "Ġbre": 1034,
      "Ġgreat": 1035,
      "Ġrecord": 1036,
      "Ġown": 1037,
      "Ġsing": 1038,
      "Ġback": 1039,
      "ience": 1040,
      "ĠIs": 1041,
      "der": 1042,
      "ruct": 1043,
      "Ġstate": 1044,
      "ina": 1045,
      "Ġday": 1046,
      "Ġbecause": 1047,
      "omet": 1048,
      "Ġsoc": 1049,
      "igin": 1050,
      "Ġ196": 1051,
      "Ġ197": 1052,
      "Ġbased": 1053,
      "Ġsupp": 1054,
      "Ġsmall": 1055,
      "uit": 1056,
      "Ġret": 1057,
      "Ġmon": 1058,
      "ĠThey": 1059,
      "Ġmed": 1060,
      "rent": 1061,
      "Ġmillion": 1062,
      "Ġvis": 1063,
      "ross": 1064,
      "Ġsign": 1065,
      "af": 1066,
      "Ġmil": 1067,
      "orts": 1068,
      "Ġ7": 1069,
      "Ġname": 1070,
      "ists": 1071,
      "Ġche": 1072,
      "ajor": 1073,
      "Ġbefore": 1074,
      "ner": 1075,
      "ĠFor": 1076,
      "led": 1077,
      "ital": 1078,
      "te": 1079,
      "pect": 1080,
      "Ġrequ": 1081,
      "ices": 1082,
      "Ġdire": 1083,
      "Ġrele": 1084,
      "ird": 1085,
      "ution": 1086,
      "Ġseason": 1087,
      "ium": 1088,
      "ket": 1089,
      "ĠZ": 1090,
      "Ġdep": 1091,
      "ially": 1092,
      "Ġbecame": 1093,
      "elf": 1094,
      "alth": 1095,
      "ize": 1096,
      "Ġmat": 1097,
      "Ġfilm": 1098,
      "Ġvery": 1099,
      "Ġcountry": 1100,
      "Ġagain": 1101,
      "ble": 1102,
      "oun": 1103,
      "Ġcompany": 1104,
      "Ġpoint": 1105,
      "lish": 1106,
      "Ġpower": 1107,
      "ĠEuro": 1108,
      "Ġ8": 1109,
      "Ġwrit": 1110,
      "Ġtop": 1111,
      "ology": 1112,
      "Ġelectric": 1113,
      "Ġlife": 1114,
      "ale": 1115,
      "ĠWar": 1116,
      "ont": 1117,
      "Ġaut": 1118,
      "Ġtext": 1119,
      "ris": 1120,
      "Ġseries": 1121,
      "ining": 1122,
      "vern": 1123,
      "nam": 1124,
      "Ġmark": 1125,
      "ĠIndia": 1126,
      "Ġchar": 1127,
      "Ġtechn": 1128,
      "iversity": 1129,
      "ĠEx": 1130,
      "ague": 1131,
      "ages": 1132,
      "ision": 1133,
      "ats": 1134,
      "ene": 1135,
      "Ġ9": 1136,
      "Ġ10": 1137,
      "eng": 1138,
      "rop": 1139,
      "cept": 1140,
      "ired": 1141,
      "Ġincre": 1142,
      "Ġfood": 1143,
      "ull": 1144,
      "ĠâĢĵ": 1145,
      "Ġsol": 1146,
      "Ġap": 1147,
      "Ġhim": 1148,
      "ĠBl": 1149,
      "ĠUS": 1150,
      "Ġdoes": 1151,
      "ĠIf": 1152,
      "\",": 1153,
      "Ġlarge": 1154,
      "Ġorigin": 1155,
      "akes": 1156,
      "iving": 1157,
      "way": 1158,
      "ĠCan": 1159,
      "Ġlanguage": 1160,
      "vent": 1161,
      "ĠCol": 1162,
      "ĠEurope": 1163,
      "ootball": 1164,
      "Ġterm": 1165,
      "ĠPl": 1166,
      "Ġdid": 1167,
      "Ġeng": 1168,
      "rum": 1169,
      "'t": 1170,
      "ted": 1171,
      "Ġway": 1172,
      "Ġbas": 1173,
      "Ġsame": 1174,
      "Ġmajor": 1175,
      "ĠSc": 1176,
      "ĠAd": 1177,
      "Ġplan": 1178,
      "ai": 1179,
      "Ġarea": 1180,
      "iqu": 1181,
      "ulation": 1182,
      "arm": 1183,
      "Ġusing": 1184,
      "ues": 1185,
      "ives": 1186,
      "Ġprog": 1187,
      "Ġgroup": 1188,
      "Ġgl": 1189,
      "ĠAt": 1190,
      "Ġevery": 1191,
      "Ġimport": 1192,
      "cer": 1193,
      "ling": 1194,
      "ohn": 1195,
      "ty": 1196,
      "Ġcare": 1197,
      "Ġlater": 1198,
      "ided": 1199,
      "Ġest": 1200,
      "Ġsever": 1201,
      "Ġchild": 1202,
      "ĠWho": 1203,
      "Ġdesign": 1204,
      "Ġclass": 1205,
      "Ġmusic": 1206,
      "til": 1207,
      "ived": 1208,
      "Ġfun": 1209,
      "Ġlear": 1210,
      "Ġhome": 1211,
      "Ġresult": 1212,
      "Ġperform": 1213,
      "ampions": 1214,
      "inc": 1215,
      "Ġsince": 1216,
      "Ġair": 1217,
      "iew": 1218,
      "iness": 1219,
      "Ġcharact": 1220,
      "Ġearly": 1221,
      "ĠRe": 1222,
      "Ġav": 1223,
      "Ġpartic": 1224,
      "Ġdesc": 1225,
      "Ġexper": 1226,
      "emb": 1227,
      "reen": 1228,
      "ody": 1229,
      "conom": 1230,
      "Ġtake": 1231,
      "Ġbuild": 1232,
      "Ġdown": 1233,
      "ĠBe": 1234,
      "Ġbus": 1235,
      "here": 1236,
      "Ġval": 1237,
      "Ġfamily": 1238,
      "Ġ17": 1239,
      "Ġallow": 1240,
      "pr": 1241,
      "Ġdirect": 1242,
      "Ġmult": 1243,
      "ccess": 1244,
      "ĠShe": 1245,
      "ĠAust": 1246,
      "Ġcontro": 1247,
      "ared": 1248,
      "Ġuntil": 1249,
      "gg": 1250,
      "Ġtrad": 1251,
      "ample": 1252,
      "Ġtour": 1253,
      "Ġoper": 1254,
      "Ġorgan": 1255,
      "erv": 1256,
      "ley": 1257,
      "Ġplayed": 1258,
      "ĠGerm": 1259,
      "Ġprof": 1260,
      "Ġcontin": 1261,
      "ware": 1262,
      "Ġpur": 1263,
      "ains": 1264,
      "Ġhand": 1265,
      "hest": 1266,
      "ĠWhich": 1267,
      "Ġlargest": 1268,
      "arch": 1269,
      "ĠPh": 1270,
      "Ġschool": 1271,
      "ĠNational": 1272,
      "ĠSouth": 1273,
      "lished": 1274,
      "Ġimportant": 1275,
      "rid": 1276,
      "Ġins": 1277,
      "rand": 1278,
      "Ã©": 1279,
      "Ġlast": 1280,
      "ends": 1281,
      "Ġed": 1282,
      "Ġstre": 1283,
      "ĠJohn": 1284,
      "mp": 1285,
      "Ġopen": 1286,
      "Ġlight": 1287,
      "Ġcountries": 1288,
      "Ġcompet": 1289,
      "ness": 1290,
      "Ġshow": 1291,
      "Ġpublic": 1292,
      "ĠSw": 1293,
      "une": 1294,
      "Ġhig": 1295,
      "Ġmuch": 1296,
      "Ġadv": 1297,
      "Ġdet": 1298,
      "Ġseveral": 1299,
      "ither": 1300,
      "ĠIndian": 1301,
      "Ġcurrent": 1302,
      "Ġeffect": 1303,
      "Ġfive": 1304,
      "Ġ'": 1305,
      "alk": 1306,
      "iam": 1307,
      "ĠâĢ": 1308,
      "ĠPro": 1309,
      "ober": 1310,
      "Ġstr": 1311,
      "amed": 1312,
      "Ġexpl": 1313,
      "Ġdog": 1314,
      "Ġ195": 1315,
      "Ġgovern": 1316,
      "Ġplace": 1317,
      "Ġcomput": 1318,
      "ĠWhen": 1319,
      "Ġhistory": 1320,
      "\".": 1321,
      "Ġsum": 1322,
      "ĠCal": 1323,
      "Ġexample": 1324,
      "Ġ15": 1325,
      "Ġeconom": 1326,
      "Ġproduct": 1327,
      "ese": 1328,
      "Ġlaw": 1329,
      "Ġequ": 1330,
      "ively": 1331,
      "ĠBrit": 1332,
      "ĠOn": 1333,
      "aving": 1334,
      "Ġcentury": 1335,
      "Ġcommun": 1336,
      "day": 1337,
      "Ġold": 1338,
      "ĠQ": 1339,
      "apan": 1340,
      "ple": 1341,
      "Ġsuccess": 1342,
      "Ġfact": 1343,
      "Ġrece": 1344,
      "oci": 1345,
      "Ġword": 1346,
      "ately": 1347,
      "Ġ194": 1348,
      "ĠUniversity": 1349,
      "orp": 1350,
      "Ġland": 1351,
      "ĠNorth": 1352,
      "vers": 1353,
      "Ġcult": 1354,
      "ĠAf": 1355,
      "cle": 1356,
      "ides": 1357,
      "itions": 1358,
      "Ġeven": 1359,
      "ality": 1360,
      "Ġright": 1361,
      "omin": 1362,
      "Ġrest": 1363,
      "ified": 1364,
      "Ġanim": 1365,
      "gen": 1366,
      "ute": 1367,
      "ases": 1368,
      "Ġgrow": 1369,
      "Ġocc": 1370,
      "Ġfew": 1371,
      "Ġsee": 1372,
      "Ġfield": 1373,
      "ĠAll": 1374,
      "osed": 1375,
      "wards": 1376,
      "Ġcond": 1377,
      "Ġstand": 1378,
      "ization": 1379,
      "ĠCar": 1380,
      "Ġconsidered": 1381,
      "Ġappe": 1382,
      "Ġappro": 1383,
      "ĠHar": 1384,
      "ĠKing": 1385,
      "Ġeas": 1386,
      "Ġprogram": 1387,
      "ĠCon": 1388,
      "Ġhead": 1389,
      "Ġactiv": 1390,
      "Ġref": 1391,
      "eb": 1392,
      "Ġsal": 1393,
      "atic": 1394,
      "Ġsec": 1395,
      "Ġball": 1396,
      "Ġopp": 1397,
      "Ġjust": 1398,
      "ves": 1399,
      "ised": 1400,
      "lex": 1401,
      "to": 1402,
      "Ġperc": 1403,
      "ampionship": 1404,
      "bum": 1405,
      "Ġ16": 1406,
      "eder": 1407,
      "Ġlevel": 1408,
      "ternational": 1409,
      "Ġagainst": 1410,
      "the": 1411,
      "aster": 1412,
      "ĠWhy": 1413,
      "cl": 1414,
      "son": 1415,
      "ger": 1416,
      "Ġopt": 1417,
      "Ġnear": 1418,
      "ĠAmerica": 1419,
      "ĠEnglish": 1420,
      "ĠAm": 1421,
      "ĠHowever": 1422,
      "Ġknow": 1423,
      "iod": 1424,
      "Ġfind": 1425,
      "Ġmodel": 1426,
      "Ġtit": 1427,
      "atural": 1428,
      "oss": 1429,
      "18": 1430,
      "Ġsw": 1431,
      "Ġnet": 1432,
      "Ġconst": 1433,
      "ĠJapan": 1434,
      "tle": 1435,
      "Ġwant": 1436,
      "agn": 1437,
      "ĠGiven": 1438,
      "ences": 1439,
      "Ġteams": 1440,
      "Ġann": 1441,
      "Ġdue": 1442,
      "Ġshort": 1443,
      "Ġinfl": 1444,
      "formation": 1445,
      "Ġnamed": 1446,
      "com": 1447,
      "ĠThese": 1448,
      ".\"": 1449,
      "Ġevent": 1450,
      "Ġmarket": 1451,
      "par": 1452,
      "Ġplayer": 1453,
      "Ġ$": 1454,
      "Ġgames": 1455,
      "Ġener": 1456,
      "Ġbusiness": 1457,
      "read": 1458,
      "Ġbro": 1459,
      "ane": 1460,
      "oman": 1461,
      "yd": 1462,
      "Ġprofess": 1463,
      "10": 1464,
      "aid": 1465,
      "Ġplayers": 1466,
      "Ġsl": 1467,
      "Ġsomet": 1468,
      "Ġdescrib": 1469,
      "ann": 1470,
      "Ġfootball": 1471,
      "ots": 1472,
      "Ġless": 1473,
      "Ġthose": 1474,
      "ove": 1475,
      "Ġsour": 1476,
      "Ġresp": 1477,
      "ĠGe": 1478,
      "Ġpolit": 1479,
      "ended": 1480,
      "Ġalbum": 1481,
      "Ġoffic": 1482,
      "ĠAnd": 1483,
      "Ġ12": 1484,
      "Ġeither": 1485,
      "Ġsingle": 1486,
      "ards": 1487,
      "line": 1488,
      "Ġwithin": 1489,
      "Ġengine": 1490,
      "Ġphys": 1491,
      "Ġbody": 1492,
      "ivid": 1493,
      "Ġcomplet": 1494,
      "ĠLeague": 1495,
      "Ġtem": 1496,
      "Ġstring": 1497,
      "Ġparag": 1498,
      "Ġsupport": 1499,
      "app": 1500,
      "Ġleg": 1501,
      "now": 1502,
      "rem": 1503,
      "ĠGo": 1504,
      "itional": 1505,
      "Ġpopulation": 1506,
      "Ġhealth": 1507,
      "Ġ2022": 1508,
      "work": 1509,
      "ploy": 1510,
      "ĠAfric": 1511,
      "nect": 1512,
      "aly": 1513,
      "Ġlit": 1514,
      "Ġparagraph": 1515,
      "ether": 1516,
      "Ġtr": 1517,
      "ories": 1518,
      "Ġlocated": 1519,
      "by": 1520,
      "port": 1521,
      "Ġwar": 1522,
      "ĠPr": 1523,
      "ored": 1524,
      "ches": 1525,
      "Ġsun": 1526,
      "attle": 1527,
      "Ġreleased": 1528,
      "Ġmust": 1529,
      "ĠSan": 1530,
      "Ġbecome": 1531,
      "ĠAustral": 1532,
      "rench": 1533,
      "ĠYork": 1534,
      "gin": 1535,
      "ĠEar": 1536,
      "Ġreal": 1537,
      "Ġfri": 1538,
      "ently": 1539,
      "ĠSome": 1540,
      "Ġinvest": 1541,
      "Ġorder": 1542,
      "atch": 1543,
      "Ġposs": 1544,
      "ms": 1545,
      "ination": 1546,
      "Ġprot": 1547,
      "itive": 1548,
      "Ġusually": 1549,
      "cing": 1550,
      "ek": 1551,
      "ering": 1552,
      "Ġsong": 1553,
      "Ġbegan": 1554,
      "Ġele": 1555,
      "ried": 1556,
      "Ġprim": 1557,
      "Ġenergy": 1558,
      "iforn": 1559,
      "Ġtypically": 1560,
      "Ġnational": 1561,
      "ĠGive": 1562,
      "Ġtraining": 1563,
      "Ġborn": 1564,
      "Ġpot": 1565,
      "ĠClass": 1566,
      "ones": 1567,
      "ĠSep": 1568,
      "Ġalong": 1569,
      "lands": 1570,
      "Ġtimes": 1571,
      "Ġperiod": 1572,
      "rad": 1573,
      "ĠBritish": 1574,
      "ential": 1575,
      "ilt": 1576,
      "ĠCity": 1577,
      "Ġvisit": 1578,
      "Ġcour": 1579,
      "ifornia": 1580,
      "Ġage": 1581,
      "Ġ193": 1582,
      "200": 1583,
      "Ġnon": 1584,
      "though": 1585,
      "Ġhard": 1586,
      "oney": 1587,
      "ĠMus": 1588,
      "ada": 1589,
      "ĠId": 1590,
      "lo": 1591,
      "Ġide": 1592,
      "ode": 1593,
      "Ġprom": 1594,
      "sh": 1595,
      "Ġinterest": 1596,
      "ration": 1597,
      "sc": 1598,
      "ense": 1599,
      "oint": 1600,
      "ĠMay": 1601,
      "Ġpresident": 1602,
      "rodu": 1603,
      "Ġanother": 1604,
      "Ġdel": 1605,
      "ĠFin": 1606,
      "ending": 1607,
      "Ġcharacter": 1608,
      "ĠCalifornia": 1609,
      "Ġgiven": 1610,
      "Ġspecies": 1611,
      "pril": 1612,
      "âĢĿ": 1613,
      "ograph": 1614,
      "Ġnow": 1615,
      "Ġgu": 1616,
      "Ġmanag": 1617,
      "side": 1618,
      "Ġdays": 1619,
      "Ġlow": 1620,
      "Ġtravel": 1621,
      "ugust": 1622,
      "ilar": 1623,
      "ĠCo": 1624,
      "Ġwithout": 1625,
      "key": 1626,
      "Ġredu": 1627,
      "Ġmonth": 1628,
      "ety": 1629,
      "Ġinstrum": 1630,
      "hing": 1631,
      "Ġmar": 1632,
      "Ġled": 1633,
      "Ġthings": 1634,
      "Ġthough": 1635,
      "Ġsocial": 1636,
      "Ġes": 1637,
      "omen": 1638,
      "ney": 1639,
      "tal": 1640,
      "Ġour": 1641,
      "Ġpract": 1642,
      "resent": 1643,
      "Ġkeep": 1644,
      "atter": 1645,
      "Ġcreated": 1646,
      "Ġmaking": 1647,
      "Ġindivid": 1648,
      "Ġcapital": 1649,
      "aces": 1650,
      "Ġchildren": 1651,
      "Ġcontrol": 1652,
      "hor": 1653,
      "iron": 1654,
      "Ġcomb": 1655,
      "Ġinformation": 1656,
      "ĠAfter": 1657,
      "ze": 1658,
      "ivil": 1659,
      "Ġ14": 1660,
      "Ġobject": 1661,
      "Ġgovernment": 1662,
      "ĠOne": 1663,
      "ator": 1664,
      "Ġlive": 1665,
      "Ġstill": 1666,
      "ability": 1667,
      "Ġcer": 1668,
      "Ġcareer": 1669,
      "Ġcaus": 1670,
      "ĠApril": 1671,
      "Ġnatural": 1672,
      "Ġstates": 1673,
      "Ġfamous": 1674,
      "ask": 1675,
      "idd": 1676,
      "hod": 1677,
      "oks": 1678,
      "ĠX": 1679,
      "Ġsoft": 1680,
      "Ġspecific": 1681,
      "Ġkey": 1682,
      "ival": 1683,
      "pec": 1684,
      "la": 1685,
      "Ġband": 1686,
      "Ġmember": 1687,
      "ĠPar": 1688,
      "Ġlook": 1689,
      "ior": 1690,
      "ott": 1691,
      "ape": 1692,
      "Ġbr": 1693,
      "tember": 1694,
      "estern": 1695,
      "Ġacross": 1696,
      "orpor": 1697,
      "ana": 1698,
      "Ġways": 1699,
      "Ġhouse": 1700,
      "ways": 1701,
      "Ġthird": 1702,
      "ĠGu": 1703,
      "Ġformer": 1704,
      "ĠMarch": 1705,
      "olf": 1706,
      "ording": 1707,
      "Ġamong": 1708,
      "Ġmemb": 1709,
      "Ġconf": 1710,
      "iple": 1711,
      "ples": 1712,
      "anu": 1713,
      "ention": 1714,
      "ĠHis": 1715,
      "ËĪ": 1716,
      "Ġpub": 1717,
      "Ġside": 1718,
      "ming": 1719,
      "ĠFrom": 1720,
      "Ġvide": 1721,
      "Ġarch": 1722,
      "lear": 1723,
      "ĠOr": 1724,
      "Ġcompan": 1725,
      "Ġclub": 1726,
      "ĠCent": 1727,
      "ĠBo": 1728,
      "Ġlocal": 1729,
      "Ġdevelopment": 1730,
      "Ġfish": 1731,
      "Ġtype": 1732,
      "aut": 1733,
      "Ġhaving": 1734,
      "Ġflow": 1735,
      "Ġbeh": 1736,
      "ental": 1737,
      "Ġread": 1738,
      "ocus": 1739,
      "Ġtri": 1740,
      "Ġinvol": 1741,
      "Ġvarious": 1742,
      "Ġtypes": 1743,
      "aur": 1744,
      "less": 1745,
      "tt": 1746,
      "verage": 1747,
      "Ġdev": 1748,
      "ours": 1749,
      "ogn": 1750,
      "Ġturn": 1751,
      "ission": 1752,
      "rist": 1753,
      "Ġkm": 1754,
      "Ġindust": 1755,
      "alf": 1756,
      "asons": 1757,
      "Ġimpro": 1758,
      "oon": 1759,
      "Ġ[": 1760,
      "ister": 1761,
      "Ġsport": 1762,
      "Ġdisc": 1763,
      "ĠâĢľ": 1764,
      "ler": 1765,
      "Ġsix": 1766,
      "Ġ2021": 1767,
      "ussion": 1768,
      "ĠAugust": 1769,
      "Ġ2020": 1770,
      "Ġchang": 1771,
      "ĠGeor": 1772,
      "put": 1773,
      "Ġstruct": 1774,
      "Ġbetter": 1775,
      "ribut": 1776,
      "Ġ13": 1777,
      "ĠPark": 1778,
      "ĠNov": 1779,
      "Ġbook": 1780,
      "Ġamount": 1781,
      "ĠComm": 1782,
      "bs": 1783,
      "cis": 1784,
      "my": 1785,
      "Ġestab": 1786,
      "Ġinflu": 1787,
      "ensive": 1788,
      "born": 1789,
      "ĠII": 1790,
      "ĠRep": 1791,
      "17": 1792,
      "ĠFrench": 1793,
      "Ġbene": 1794,
      "acks": 1795,
      "ani": 1796,
      "Ġdem": 1797,
      "lege": 1798,
      "Ġtell": 1799,
      "Ġstat": 1800,
      "Ġred": 1801,
      "Ġproper": 1802,
      "ĠIdent": 1803,
      "of": 1804,
      "Ġrese": 1805,
      "ĠBar": 1806,
      "ift": 1807,
      "ĠJu": 1808,
      "Ġweight": 1809,
      "ym": 1810,
      "Ġconnect": 1811,
      "12": 1812,
      "yle": 1813,
      "ery": 1814,
      "ctober": 1815,
      "ĠTe": 1816,
      "Ġter": 1817,
      "ĠCup": 1818,
      "board": 1819,
      "Ġsit": 1820,
      "Ġcrit": 1821,
      "Ġrev": 1822,
      "cem": 1823,
      "ĠEarth": 1824,
      "Ġet": 1825,
      "Ġfre": 1826,
      "ffee": 1827,
      "Ġfinal": 1828,
      "fic": 1829,
      "Ġident": 1830,
      "Ġtotal": 1831,
      "Ġdeveloped": 1832,
      "Ġmembers": 1833,
      "med": 1834,
      "ency": 1835,
      "ĠWest": 1836,
      "for": 1837,
      "ĠIdentify": 1838,
      "joy": 1839,
      "Ġmight": 1840,
      "ama": 1841,
      "Ġsports": 1842,
      "Ġclim": 1843,
      "50": 1844,
      "Ġbase": 1845,
      "Ġmodern": 1846,
      "ged": 1847,
      "ems": 1848,
      "aced": 1849,
      "Ġwhether": 1850,
      "ountain": 1851,
      "Ġbelie": 1852,
      "Ġpercussion": 1853,
      "ires": 1854,
      "amb": 1855,
      "ued": 1856,
      "ateg": 1857,
      "Ġheld": 1858,
      "ĠMc": 1859,
      "Ġspace": 1860,
      "Ġsurf": 1861,
      "Ġpassage": 1862,
      "Ġproble": 1863,
      "ĠClassify": 1864,
      "ĠSeptember": 1865,
      "Ġfocus": 1866,
      "Ġdra": 1867,
      "cember": 1868,
      "Ġla": 1869,
      "chie": 1870,
      "ĠJune": 1871,
      "Ġsystems": 1872,
      "Ġoccur": 1873,
      "rew": 1874,
      "Ġnext": 1875,
      "ustom": 1876,
      "Ġcir": 1877,
      "ĠPe": 1878,
      "Ġsimilar": 1879,
      "Ġste": 1880,
      "ured": 1881,
      "Ġcost": 1882,
      "Ġassoci": 1883,
      "Ġ&": 1884,
      "icy": 1885,
      "ids": 1886,
      "ung": 1887,
      "ricket": 1888,
      "fact": 1889,
      "Ġsepar": 1890,
      "ĠOctober": 1891,
      "Ġmethod": 1892,
      "Ġ100": 1893,
      "ĠFl": 1894,
      "Ġtele": 1895,
      "Ġsignific": 1896,
      "oor": 1897,
      "Ġdeb": 1898,
      "epend": 1899,
      "ĠChina": 1900,
      "stand": 1901,
      "ĠSup": 1902,
      "dom": 1903,
      "Ġgr": 1904,
      "Ġgeneral": 1905,
      "ĠEd": 1906,
      "uitar": 1907,
      "ey": 1908,
      "ances": 1909,
      "Ġcamp": 1910,
      "Ġavail": 1911,
      "Ġ11": 1912,
      "Ġbillion": 1913,
      "ians": 1914,
      "Ġmach": 1915,
      "Ġhighest": 1916,
      "Ġlim": 1917,
      "Ġtre": 1918,
      "Ġpain": 1919,
      "Ġable": 1920,
      "Ġ30": 1921,
      "Ġserved": 1922,
      "Ġfeel": 1923,
      "Ġaff": 1924,
      "Ġcho": 1925,
      "Ġpresent": 1926,
      "ald": 1927,
      "ables": 1928,
      "Ġothers": 1929,
      "Ġrock": 1930,
      "ĠCount": 1931,
      "Ġconc": 1932,
      "Ġspecial": 1933,
      "Ġi": 1934,
      "atures": 1935,
      "Ġdiv": 1936,
      "Ġproject": 1937,
      "Ġmeas": 1938,
      "Ġdon": 1939,
      "Ġlate": 1940,
      "umb": 1941,
      "Ġcompanies": 1942,
      "Ġmean": 1943,
      "ancial": 1944,
      "ĠFrance": 1945,
      "ique": 1946,
      "eh": 1947,
      "ĠDecember": 1948,
      "ĠOf": 1949,
      "ĠEl": 1950,
      "Ġprofessional": 1951,
      "oes": 1952,
      "Ġcat": 1953,
      "Ġbi": 1954,
      "Ġbul": 1955,
      "ilities": 1956,
      "Ġrepresent": 1957,
      "Ġreturn": 1958,
      "ington": 1959,
      "Ġenjoy": 1960,
      "Ġz": 1961,
      "hem": 1962,
      "olution": 1963,
      "ĠWill": 1964,
      "ained": 1965,
      "Ġchange": 1966,
      "Ġregion": 1967,
      "ondon": 1968,
      "Ġlearning": 1969,
      "BA": 1970,
      "Ġproduced": 1971,
      "ĠAss": 1972,
      "Ġgenerally": 1973,
      "Ġemploy": 1974,
      "rict": 1975,
      "Ġparticular": 1976,
      "ĠHer": 1977,
      "Ġleft": 1978,
      "Ġprev": 1979,
      "ĠTo": 1980,
      "Ġgive": 1981,
      "ĠRed": 1982,
      "Ġjo": 1983,
      "ĠWe": 1984,
      "Ġview": 1985,
      "ĠEngland": 1986,
      "Ġcomputer": 1987,
      "ipp": 1988,
      "most": 1989,
      "Ġhot": 1990,
      "Ġnorth": 1991,
      "Ġmoney": 1992,
      "ĠTell": 1993,
      "anuary": 1994,
      "ps": 1995,
      "Ġpat": 1996,
      "Ġbuilt": 1997,
      "Ġhold": 1998,
      "ctor": 1999,
      "Ġtry": 2000,
      "Ġfore": 2001,
      "Ġbank": 2002,
      "ĠNo": 2003,
      "Ġreference": 2004,
      "ĠAfrica": 2005,
      "ĠNovember": 2006,
      "Ġtest": 2007,
      "ĠMan": 2008,
      "Ġapplic": 2009,
      "Ġprovide": 2010,
      "Th": 2011,
      "ched": 2012,
      "Ġbig": 2013,
      "ams": 2014,
      "urity": 2015,
      "Ġintrodu": 2016,
      "Ġlearn": 2017,
      "ĠWhile": 2018,
      "Ġsqu": 2019,
      "Ġsouth": 2020,
      "itary": 2021,
      "Ġglob": 2022,
      "Ġcor": 2023,
      "ĠBra": 2024,
      "amples": 2025,
      "Ġcook": 2026,
      "ĠEuropean": 2027,
      "Ġpress": 2028,
      "oll": 2029,
      "ills": 2030,
      "ĠJuly": 2031,
      "Ġfall": 2032,
      "Ġris": 2033,
      "âĢĶ": 2034,
      "Ġservices": 2035,
      "ef": 2036,
      "Ġmot": 2037,
      "Ġquest": 2038,
      "yl": 2039,
      "Ġcustom": 2040,
      "Ġput": 2041,
      "uck": 2042,
      "Ġtoo": 2043,
      "utes": 2044,
      "itch": 2045,
      "Ġcoffee": 2046,
      "aterial": 2047,
      "Ġcommonly": 2048,
      "30": 2049,
      "min": 2050,
      "ketball": 2051,
      "Ġachie": 2052,
      "Ġguitar": 2053,
      "ĠLondon": 2054,
      "Ġrad": 2055,
      "Ġpoints": 2056,
      "Ġleast": 2057,
      "ĠRo": 2058,
      "Ġsuper": 2059,
      "uel": 2060,
      "Ġcities": 2061,
      "Ġfounded": 2062,
      "Ġtournam": 2063,
      "Ġsignificant": 2064,
      "ener": 2065,
      "ows": 2066,
      "ĠJanuary": 2067,
      "ological": 2068,
      "viron": 2069,
      "Ġthink": 2070,
      "Ġprovided": 2071,
      "Ġhistor": 2072,
      "15": 2073,
      "ered": 2074,
      "Ġfree": 2075,
      "Ġmen": 2076,
      "ush": 2077,
      "ret": 2078,
      "Ġsaf": 2079,
      "Ġexist": 2080,
      "Ġel": 2081,
      "Ġconsum": 2082,
      "Ġservice": 2083,
      "Ġcal": 2084,
      "Ġiss": 2085,
      "ĠSing": 2086,
      "Ġrecogn": 2087,
      "Ġconsist": 2088,
      "Ġbuilding": 2089,
      "Ġstarted": 2090,
      "Ġstrong": 2091,
      "oe": 2092,
      "ĠSchool": 2093,
      "Ġvers": 2094,
      "Ġpublished": 2095,
      "Ġinit": 2096,
      "ert": 2097,
      "ino": 2098,
      "itect": 2099,
      "Ġoffer": 2100,
      "Ġreceived": 2101,
      "Ġcr": 2102,
      "Ġwood": 2103,
      "arter": 2104,
      "Ġport": 2105,
      "ĠMin": 2106,
      "Ġep": 2107,
      "Ġwritten": 2108,
      "Ġmultiple": 2109,
      "Ġvideo": 2110,
      "St": 2111,
      "Ġwid": 2112,
      "ĠTw": 2113,
      "Ġoriginal": 2114,
      "lin": 2115,
      "ĠGermany": 2116,
      "11": 2117,
      "sw": 2118,
      "Ġmaterial": 2119,
      "Ġline": 2120,
      "Ġdisco": 2121,
      "Ġtemper": 2122,
      "ev": 2123,
      "Ġtax": 2124,
      "icle": 2125,
      "ably": 2126,
      "ruary": 2127,
      "ebruary": 2128,
      "Ġsoftware": 2129,
      "Ġvol": 2130,
      "arent": 2131,
      "ption": 2132,
      "Ġrace": 2133,
      "ead": 2134,
      "Ġpost": 2135,
      "ĠAng": 2136,
      "rain": 2137,
      "Ġweek": 2138,
      "Ġblack": 2139,
      "Ġcreate": 2140,
      "No": 2141,
      "oph": 2142,
      "Ġbenef": 2143,
      "Ġlay": 2144,
      "iding": 2145,
      "Ġpolitical": 2146,
      "aim": 2147,
      "rown": 2148,
      "ago": 2149,
      "ĠGerman": 2150,
      "Ġtog": 2151,
      "urther": 2152,
      "thern": 2153,
      "Ġ2019": 2154,
      "Ġcirc": 2155,
      "ean": 2156,
      "mit": 2157,
      "ole": 2158,
      "erc": 2159,
      "Ġwhite": 2160,
      "inese": 2161,
      "Ġtechnology": 2162,
      "Ġfunction": 2163,
      "Ġaward": 2164,
      "Ġpric": 2165,
      "cean": 2166,
      "Ġcreat": 2167,
      "omm": 2168,
      "ĠCanada": 2169,
      "Ġtogether": 2170,
      "ael": 2171,
      "Ġfull": 2172,
      "ules": 2173,
      "Ġ2018": 2174,
      "Ġavailable": 2175,
      "ĠSun": 2176,
      "Ġrange": 2177,
      "Ġcollect": 2178,
      "iction": 2179,
      "Ġrequire": 2180,
      "Ġpast": 2181,
      "Ġpersonal": 2182,
      "ĠAustralia": 2183,
      "Ġlik": 2184,
      "Ġrepl": 2185,
      "ĠWith": 2186,
      "Ġstory": 2187,
      "adem": 2188,
      "Ġveg": 2189,
      "inct": 2190,
      "ales": 2191,
      "rab": 2192,
      "ĠHouse": 2193,
      "ĠRuss": 2194,
      "Ġyoung": 2195,
      "Ġrole": 2196,
      "Ġmanu": 2197,
      "Ġreferred": 2198,
      "Ġresearch": 2199,
      "time": 2200,
      "Ġtook": 2201,
      "ĠExt": 2202,
      "Ġinstrument": 2203,
      "Ġdest": 2204,
      "ĠMich": 2205,
      "ĠDav": 2206,
      "16": 2207,
      "Ġcivil": 2208,
      "Ġlot": 2209,
      "aves": 2210,
      "Ġcy": 2211,
      "omb": 2212,
      "oms": 2213,
      "Ġevents": 2214,
      "Ġaccess": 2215,
      "Ġmanufact": 2216,
      "ony": 2217,
      "Ġwind": 2218,
      "etic": 2219,
      "imately": 2220,
      "ellow": 2221,
      "Ġexperience": 2222,
      "outhern": 2223,
      "asing": 2224,
      "ĠFrancis": 2225,
      "Ch": 2226,
      "uits": 2227,
      "Ġanal": 2228,
      "Ġaccount": 2229,
      "ico": 2230,
      "Ġge": 2231,
      "osp": 2232,
      "Ġenviron": 2233,
      "iverse": 2234,
      "Ġbreak": 2235,
      "era": 2236,
      "Ġdeg": 2237,
      "Ġobs": 2238,
      "Ġpossible": 2239,
      "hern": 2240,
      "ĠGree": 2241,
      "ope": 2242,
      "Ġrunning": 2243,
      "Ġsummer": 2244,
      "Ġnetwork": 2245,
      "ĠChrist": 2246,
      "ta": 2247,
      "abor": 2248,
      "cial": 2249,
      "self": 2250,
      "anish": 2251,
      "Ġpay": 2252,
      "Ġproduction": 2253,
      "Ph": 2254,
      "reg": 2255,
      "Ġpri": 2256,
      "ĠGold": 2257,
      "ĠFebruary": 2258,
      "vision": 2259,
      "ĠAir": 2260,
      "rap": 2261,
      "Ġbegin": 2262,
      "Ġalways": 2263,
      "avor": 2264,
      "elling": 2265,
      "Ġhalf": 2266,
      "Ġspeed": 2267,
      "Ġeduc": 2268,
      "Ġsent": 2269,
      "Ġscience": 2270,
      "Ġmodels": 2271,
      "iety": 2272,
      "ges": 2273,
      "Ġareas": 2274,
      "aul": 2275,
      "Ġmilitary": 2276,
      "ĠPhil": 2277,
      "Ġactivities": 2278,
      "stit": 2279,
      "amm": 2280,
      "Ġplaying": 2281,
      "Ġappear": 2282,
      "iddle": 2283,
      "Ġoil": 2284,
      "ica": 2285,
      "Ġgreen": 2286,
      "ĠBay": 2287,
      "ĠPres": 2288,
      "ashington": 2289,
      "Ġaway": 2290,
      "erous": 2291,
      "ĠMal": 2292,
      "ĠRes": 2293,
      "Ġfinancial": 2294,
      "Ġhit": 2295,
      "ights": 2296,
      "Ġpred": 2297,
      "orthern": 2298,
      "Ġbooks": 2299,
      "Ġaverage": 2300,
      "oring": 2301,
      "Ġhours": 2302,
      "Ġegg": 2303,
      "ades": 2304,
      "199": 2305,
      "Ġvariety": 2306,
      "Ġprotect": 2307,
      "Ġfund": 2308,
      "aches": 2309,
      "Ġbecom": 2310,
      "Ġunderstand": 2311,
      "Ġneeded": 2312,
      "Ġincrease": 2313,
      "Ġcertain": 2314,
      "14": 2315,
      "Ġinternational": 2316,
      "ĠGreat": 2317,
      "raft": 2318,
      "lymp": 2319,
      "ĠFeder": 2320,
      "Ġchampionship": 2321,
      "Ġarchitect": 2322,
      "Ġsize": 2323,
      "Ġwalk": 2324,
      "ĠSer": 2325,
      "Ġwhy": 2326,
      "ĠĠĠĠ": 2327,
      "Ġfriends": 2328,
      "Ġcome": 2329,
      "aper": 2330,
      "ube": 2331,
      "Ġsuccessful": 2332,
      "Ġprevious": 2333,
      "li": 2334,
      "rated": 2335,
      "Ġlower": 2336,
      "Ġreach": 2337,
      "Ġprop": 2338,
      "Ġestablished": 2339,
      "Ġmix": 2340,
      "Ġmakes": 2341,
      "Ġnames": 2342,
      "ula": 2343,
      "ĠDo": 2344,
      "ĠJames": 2345,
      "ĠChinese": 2346,
      "ennis": 2347,
      "Ġdi": 2348,
      "Ġliving": 2349,
      "Ġdeath": 2350,
      "Ġ192": 2351,
      "play": 2352,
      "ĠState": 2353,
      "Ġmatch": 2354,
      "Ġcell": 2355,
      "icro": 2356,
      "eter": 2357,
      "Ġlove": 2358,
      "gar": 2359,
      "ille": 2360,
      "istic": 2361,
      "Ġeconomic": 2362,
      "Ġfast": 2363,
      "illed": 2364,
      "Ġvalue": 2365,
      "Ġwords": 2366,
      "yn": 2367,
      "avy": 2368,
      "Ġsound": 2369,
      "ump": 2370,
      "ĠWashington": 2371,
      "Ġbullet": 2372,
      "ĠApp": 2373,
      "ĠMon": 2374,
      "Ġincluded": 2375,
      "Ġquick": 2376,
      "Ġdifference": 2377,
      "Ġstudy": 2378,
      "Ġmiles": 2379,
      "ream": 2380,
      "Ġbir": 2381,
      "ĠEast": 2382,
      "ached": 2383,
      "Ġmeans": 2384,
      "ĠChampionship": 2385,
      "Ġanimals": 2386,
      "ĠDis": 2387,
      "Ġrank": 2388,
      "Ġgoal": 2389,
      "Ġindepend": 2390,
      "Ġthroughout": 2391,
      "Ġproducts": 2392,
      "Ġsource": 2393,
      "Ġbuy": 2394,
      "Ġbelow": 2395,
      "Ġauthor": 2396,
      "Ġsaid": 2397,
      "Ġstep": 2398,
      "ffic": 2399,
      "Ġincludes": 2400,
      "Ġscient": 2401,
      "Ġgoing": 2402,
      "ĠKingdom": 2403,
      "ĠRepublic": 2404,
      "Ġmagn": 2405,
      "Ġaddition": 2406,
      "ounced": 2407,
      "Ġphysical": 2408,
      "na": 2409,
      "Ġglobal": 2410,
      "cher": 2411,
      "ners": 2412,
      "Ġsold": 2413,
      "ument": 2414,
      "ĠMed": 2415,
      "ĠEn": 2416,
      "Ġrelations": 2417,
      "Ġski": 2418,
      "Ġimpact": 2419,
      "Ġhumans": 2420,
      "ÉĻ": 2421,
      "ĠPol": 2422,
      "ĠNBA": 2423,
      "pecially": 2424,
      "13": 2425,
      "ĠAI": 2426,
      "ĠRiver": 2427,
      "Ġ2017": 2428,
      "ysis": 2429,
      "ĠComp": 2430,
      "Ġmonths": 2431,
      "asks": 2432,
      "Ġround": 2433,
      "Ġplant": 2434,
      "ĠOpen": 2435,
      "Ġindividual": 2436,
      ").<": 2437,
      "rat": 2438,
      "ison": 2439,
      "ĠAct": 2440,
      "ification": 2441,
      "Ġreport": 2442,
      "itation": 2443,
      "ĠRoman": 2444,
      "Ġhigher": 2445,
      "ule": 2446,
      "Ġsnow": 2447,
      "Ġmi": 2448,
      "ads": 2449,
      "Ġattack": 2450,
      "Ġprimary": 2451,
      "mar": 2452,
      "ĠOlymp": 2453,
      "Ġsometimes": 2454,
      "ĠWilliam": 2455,
      "Ġtournament": 2456,
      "Ġwidely": 2457,
      "mon": 2458,
      "iter": 2459,
      "lement": 2460,
      "ruction": 2461,
      "Ġpie": 2462,
      "Ġcover": 2463,
      "augh": 2464,
      "ĠSl": 2465,
      "Ġrate": 2466,
      "Ġterms": 2467,
      "Ġcommunic": 2468,
      "ĠSuper": 2469,
      "Ġwomen": 2470,
      "Ġfire": 2471,
      "Ġdescribed": 2472,
      "Ġoutside": 2473,
      "Ġhowever": 2474,
      "Ġposition": 2475,
      "Ġminutes": 2476,
      "ĠPlay": 2477,
      "ficult": 2478,
      "ĠExtract": 2479,
      "Ġenvironment": 2480,
      "ĠAsia": 2481,
      "Ġtitle": 2482,
      "Ġofficial": 2483,
      "ĠFrancisco": 2484,
      "ien": 2485,
      "ster": 2486,
      "ĠAward": 2487,
      "ĠWrit": 2488,
      "Ġworking": 2489,
      "Ġnovel": 2490,
      "Ġmovie": 2491,
      "uct": 2492,
      "ystem": 2493,
      "Ġbar": 2494,
      "Ġtown": 2495,
      "Ġground": 2496,
      "ray": 2497,
      "ĠFirst": 2498,
      "Ġitems": 2499,
      "Ġsequ": 2500,
      "Ġ2016": 2501,
      "Ġrespons": 2502,
      "go": 2503,
      "oud": 2504,
      "ĠPort": 2505,
      "Ġexc": 2506,
      "ele": 2507,
      "wide": 2508,
      "antic": 2509,
      "Ġdifficult": 2510,
      "sp": 2511,
      "Ġice": 2512,
      "ĠBut": 2513,
      "ĠDel": 2514,
      "Ġmedia": 2515,
      "Ġdeterm": 2516,
      "Ġ0": 2517,
      "ara": 2518,
      "Ġmid": 2519,
      "Ġonce": 2520,
      "Ġvac": 2521,
      "Ġnever": 2522,
      "ĠCounty": 2523,
      "hel": 2524,
      "Ġcard": 2525,
      "ĠWhere": 2526,
      "ĠPri": 2527,
      "Ġlet": 2528,
      "Ġbasketball": 2529,
      "Ġgrowth": 2530,
      "uk": 2531,
      "Ġaud": 2532,
      "Ġvill": 2533,
      "ude": 2534,
      "Ġ2010": 2535,
      "Ġperformance": 2536,
      "ridge": 2537,
      "iber": 2538,
      "ma": 2539,
      "Ġcame": 2540,
      "Ġfig": 2541,
      "Ġdied": 2542,
      "ĠSoc": 2543,
      "ips": 2544,
      "ĠVal": 2545,
      "Ġbatter": 2546,
      "ĠAcc": 2547,
      "iment": 2548,
      "ĠMost": 2549,
      "ĠBy": 2550,
      "Ġuses": 2551,
      "Ġweather": 2552,
      "anks": 2553,
      "leep": 2554,
      "ida": 2555,
      "ĠChar": 2556,
      "ĠGeorge": 2557,
      "not": 2558,
      "Ġmass": 2559,
      "Ġhol": 2560,
      "resh": 2561,
      "Ġmaintain": 2562,
      "Ġtasks": 2563,
      "rest": 2564,
      "Ġwide": 2565,
      "itz": 2566,
      "Ġcomplex": 2567,
      "ief": 2568,
      "Ġstandard": 2569,
      "ients": 2570,
      "ving": 2571,
      "arily": 2572,
      "ĠInternational": 2573,
      "Ġ2009": 2574,
      "Ġten": 2575,
      "eth": 2576,
      "Ġ2011": 2577,
      "Ġfeature": 2578,
      "Ġindustry": 2579,
      "..": 2580,
      "SA": 2581,
      "Ġpark": 2582,
      "Ġtool": 2583,
      "Ġhost": 2584,
      "iles": 2585,
      "Ġforce": 2586,
      "irt": 2587,
      "Ġcharacters": 2588,
      "Ġassociated": 2589,
      "On": 2590,
      "iol": 2591,
      "nown": 2592,
      "Ġdom": 2593,
      "urb": 2594,
      "urch": 2595,
      "ado": 2596,
      "ĠDay": 2597,
      "Ġveh": 2598,
      "Ġparts": 2599,
      "Ġgreatest": 2600,
      "Ġespecially": 2601,
      "Ġlaun": 2602,
      ".,": 2603,
      "wh": 2604,
      "Ġfar": 2605,
      "uture": 2606,
      "Ġ22": 2607,
      "Ġplaces": 2608,
      "Ġ2015": 2609,
      "Ġfeatures": 2610,
      "Ġphot": 2611,
      "Ġdefe": 2612,
      "alt": 2613,
      "aries": 2614,
      "ĠMex": 2615,
      "Ġprob": 2616,
      "Ġ190": 2617,
      "Ġresour": 2618,
      "Ġformat": 2619,
      "Ġdesigned": 2620,
      "Ġnight": 2621,
      "Ġansw": 2622,
      "Ġregular": 2623,
      "Ġcase": 2624,
      "ĠSo": 2625,
      "ĠMy": 2626,
      "ĠHere": 2627,
      "osing": 2628,
      "rup": 2629,
      "Ġwr": 2630,
      "ĠAb": 2631,
      "ĠMany": 2632,
      "Ġprote": 2633,
      "ned": 2634,
      "ona": 2635,
      "eds": 2636,
      "lease": 2637,
      "eles": 2638,
      "ĠWestern": 2639,
      "Ġever": 2640,
      "Ġ25": 2641,
      "Ġplants": 2642,
      "apore": 2643,
      "Ġclaim": 2644,
      "Ġ2023": 2645,
      "Ġfac": 2646,
      "Ġintern": 2647,
      "Ġant": 2648,
      "sequ": 2649,
      "Ġresults": 2650,
      "Ġculture": 2651,
      "Ġsomething": 2652,
      "Ġintroduced": 2653,
      "iger": 2654,
      "ference": 2655,
      "Ġcontain": 2656,
      "Ġfollowed": 2657,
      "Ġtelevision": 2658,
      "Ġveget": 2659,
      "AT": 2660,
      "za": 2661,
      "Ġmem": 2662,
      "chan": 2663,
      "Ġconcept": 2664,
      "Ġincome": 2665,
      "Ġregard": 2666,
      "Ġtraditional": 2667,
      "ydro": 2668,
      "ĠPresident": 2669,
      "Ġcricket": 2670,
      "amil": 2671,
      "ops": 2672,
      "Ġenough": 2673,
      "Ġprinc": 2674,
      "Ġlanguages": 2675,
      "Ġestim": 2676,
      "Ġanimal": 2677,
      "Ġnature": 2678,
      "Ġstyle": 2679,
      "ĠEm": 2680,
      "bur": 2681,
      "wood": 2682,
      "Ġfurther": 2683,
      "Ġbrand": 2684,
      "ĠGrand": 2685,
      "astic": 2686,
      "Ġworks": 2687,
      "light": 2688,
      "Ġdig": 2689,
      "ĠDes": 2690,
      "Ġsym": 2691,
      "aff": 2692,
      "field": 2693,
      "Ġtheory": 2694,
      "Ġask": 2695,
      "Ġcateg": 2696,
      "empt": 2697,
      "acific": 2698,
      "ellig": 2699,
      "Ġneg": 2700,
      "Ġgoals": 2701,
      "Ġlocation": 2702,
      "ĠBlack": 2703,
      "Ġmachine": 2704,
      "Ġrelationship": 2705,
      "eum": 2706,
      "bers": 2707,
      "ka": 2708,
      "utive": 2709,
      "opp": 2710,
      "Ġseven": 2711,
      "Ġcharg": 2712,
      "Ġterrit": 2713,
      "Ġlikely": 2714,
      "iation": 2715,
      "oid": 2716,
      "zil": 2717,
      "Ġparent": 2718,
      "Ġbeaut": 2719,
      "Ġcommer": 2720,
      "Ġfruit": 2721,
      "sel": 2722,
      "ume": 2723,
      "ĠAc": 2724,
      "ĠPart": 2725,
      "ĠReg": 2726,
      "ĠList": 2727,
      "acy": 2728,
      "ression": 2729,
      "Ġ188": 2730,
      "Ġsurface": 2731,
      "yp": 2732,
      "Ġrout": 2733,
      "Ġenc": 2734,
      "Ġclose": 2735,
      "Ġpriv": 2736,
      "iting": 2737,
      "Ġmountain": 2738,
      "Ġgre": 2739,
      "Ġkind": 2740,
      "Ġarg": 2741,
      "Ġ2008": 2742,
      "Ġelectron": 2743,
      "Ġcolor": 2744,
      "Ġlonger": 2745,
      "Ġenter": 2746,
      "hi": 2747,
      "like": 2748,
      "Ġsay": 2749,
      "Ġcut": 2750,
      "Ġlost": 2751,
      "ĠMart": 2752,
      "ĠItal": 2753,
      "ĠAtl": 2754,
      "ĠMod": 2755,
      "Ġstay": 2756,
      "ĠLa": 2757,
      "ĠEmp": 2758,
      "pper": 2759,
      "Ġrain": 2760,
      "Ġblue": 2761,
      "Ġfactors": 2762,
      "Ġanalysis": 2763,
      "It": 2764,
      "orks": 2765,
      "Ġseen": 2766,
      "Ġmeet": 2767,
      "oston": 2768,
      "Ġformed": 2769,
      "Ġ1980": 2770,
      "Ġwinning": 2771,
      "cient": 2772,
      "Ġbord": 2773,
      "Ġpick": 2774,
      "ĠSum": 2775,
      "owl": 2776,
      "ĠBill": 2777,
      "Ġ24": 2778,
      "Ġdise": 2779,
      "Ġprevent": 2780,
      "Ġpurch": 2781,
      "Ġfrequ": 2782,
      "ham": 2783,
      "atin": 2784,
      "asc": 2785,
      "astern": 2786,
      "ĠCong": 2787,
      "ĠLake": 2788,
      "Ġexamples": 2789,
      "Ġabove": 2790,
      "ĠUnion": 2791,
      "Ġ2012": 2792,
      "Ġ1990": 2793,
      "Ġsecurity": 2794,
      "Ġself": 2795,
      "Ġdeep": 2796,
      "Ġmove": 2797,
      "Ġsure": 2798,
      "Ġcompon": 2799,
      "ĠChic": 2800,
      "Ġfeet": 2801,
      "Ġsubject": 2802,
      "Phone": 2803,
      "Ã¡": 2804,
      "Ġcars": 2805,
      "lying": 2806,
      "estic": 2807,
      "ements": 2808,
      "ĠWrite": 2809,
      "21": 2810,
      "be": 2811,
      "ising": 2812,
      "Ġfail": 2813,
      "ĠCap": 2814,
      "ĠMad": 2815,
      "Ġfruits": 2816,
      "Ġens": 2817,
      "Ġ2013": 2818,
      "Ġ2014": 2819,
      "Ġdogs": 2820,
      "Ġdate": 2821,
      "idence": 2822,
      "Ġexpect": 2823,
      "Ġleague": 2824,
      "Ġ50": 2825,
      "ĠJapanese": 2826,
      "back": 2827,
      "Ġcause": 2828,
      "Ġdat": 2829,
      "ĠHol": 2830,
      "ĠDuring": 2831,
      "Ġremain": 2832,
      "Ġparticip": 2833,
      "Ġtreat": 2834,
      "ĠMet": 2835,
      "ĠBC": 2836,
      "ĠHigh": 2837,
      "Ġsomeone": 2838,
      "ĠIsland": 2839,
      "Ġcourse": 2840,
      "ky": 2841,
      "Ġhapp": 2842,
      "Ġselect": 2843,
      "Ġgradu": 2844,
      "Ġmeaning": 2845,
      "action": 2846,
      "Ġleading": 2847,
      "Ġgroups": 2848,
      "Ġpractice": 2849,
      "atively": 2850,
      "ĠPer": 2851,
      "Ġsugg": 2852,
      "aken": 2853,
      "Ġjob": 2854,
      "Ġpurp": 2855,
      "ĠQu": 2856,
      "Ġetc": 2857,
      "ĠSingapore": 2858,
      "Ġsuggest": 2859,
      "ala": 2860,
      "ership": 2861,
      "Ġclos": 2862,
      "Ġallows": 2863,
      "ĠMichael": 2864,
      "Ġsand": 2865,
      "Ġwent": 2866,
      "ĠSpanish": 2867,
      "eleb": 2868,
      "ux": 2869,
      "ĠBer": 2870,
      "ĠFootball": 2871,
      "ĠRec": 2872,
      "Ġshare": 2873,
      "Ġattempt": 2874,
      "Ġlarger": 2875,
      "Ġsmaller": 2876,
      "ĠCollege": 2877,
      "Ġstructure": 2878,
      "rast": 2879,
      "uals": 2880,
      "atform": 2881,
      "Ġalthough": 2882,
      "thing": 2883,
      "Ġrather": 2884,
      "Ġcoast": 2885,
      "Ġdrive": 2886,
      "Ġcommunity": 2887,
      "Ġconditions": 2888,
      "Ġtitles": 2889,
      "west": 2890,
      "omp": 2891,
      "Ġcontent": 2892,
      "ĠArt": 2893,
      "Ġdefin": 2894,
      "Ġsitu": 2895,
      "eal": 2896,
      "Ġfather": 2897,
      "Ġreasons": 2898,
      "ĠBr": 2899,
      "ĠBel": 2900,
      "Ġchall": 2901,
      "Ġmechan": 2902,
      "Ġrecomm": 2903,
      "Ġeconomy": 2904,
      "Ġswim": 2905,
      "ĠAnt": 2906,
      "Ġstar": 2907,
      "Ġability": 2908,
      "Ġapprox": 2909,
      "ID": 2910,
      "ha": 2911,
      "ero": 2912,
      "ĠHaw": 2913,
      "ĠDep": 2914,
      "ĠItaly": 2915,
      "Ġpositive": 2916,
      "Ġmovies": 2917,
      "Ġprocessing": 2918,
      "ength": 2919,
      "Ġannounced": 2920,
      "ĠItalian": 2921,
      "anced": 2922,
      "Ġtoday": 2923,
      "ĠBoston": 2924,
      "akers": 2925,
      "Ġ189": 2926,
      "Ġcoll": 2927,
      "ledge": 2928,
      "Ġliter": 2929,
      "Ġbaseball": 2930,
      "Ġbenefits": 2931,
      "bon": 2932,
      "ockey": 2933,
      "lectric": 2934,
      "Ġ2007": 2935,
      "Ġcentral": 2936,
      "ĠSpain": 2937,
      "Ġsimple": 2938,
      "Ġcheese": 2939,
      "Ġbroad": 2940,
      "ography": 2941,
      "ĠBrazil": 2942,
      "22": 2943,
      "oo": 2944,
      "ya": 2945,
      "Ġson": 2946,
      "Ġsem": 2947,
      "ania": 2948,
      "Ġlif": 2949,
      "ĠSm": 2950,
      "rag": 2951,
      "Ġeast": 2952,
      "ĠBu": 2953,
      "ĠCentral": 2954,
      "As": 2955,
      "pite": 2956,
      "Ġtennis": 2957,
      "Ġfuture": 2958,
      "Ġreason": 2959,
      "Ġeat": 2960,
      "ĠIts": 2961,
      "Ġqual": 2962,
      "Ġautom": 2963,
      "60": 2964,
      "ius": 2965,
      "Ġslow": 2966,
      "Ġloss": 2967,
      "ston": 2968,
      "Ġnuc": 2969,
      "ĠGl": 2970,
      "ĠName": 2971,
      "ander": 2972,
      "ĠOther": 2973,
      "venue": 2974,
      "Ġoptions": 2975,
      "Ġtarg": 2976,
      "Ġtakes": 2977,
      "Ġcou": 2978,
      "ĠPacific": 2979,
      "Ġ21": 2980,
      "Ġinteg": 2981,
      "Ġlittle": 2982,
      "ĠChicago": 2983,
      "An": 2984,
      "FA": 2985,
      "Ġdone": 2986,
      "ĠMe": 2987,
      "Ġemer": 2988,
      "Ġactive": 2989,
      "Ġextrem": 2990,
      "ford": 2991,
      "Ġcode": 2992,
      "itude": 2993,
      "ĠDem": 2994,
      "Ġwinter": 2995,
      "Ġchanges": 2996,
      "Ġwest": 2997,
      "esla": 2998,
      "Ġexec": 2999,
      "Ġspread": 3000,
      "Ġrisk": 3001,
      "ĠEmpire": 3002,
      "ils": 3003,
      "asters": 3004,
      "Ġrespect": 3005,
      "Ġflu": 3006,
      "ini": 3007,
      "Ġcred": 3008,
      "Ġfresh": 3009,
      "Ġing": 3010,
      "Ġvia": 3011,
      "Ġincreased": 3012,
      "Ġcompetition": 3013,
      "ĠAccording": 3014,
      "80": 3015,
      "Ġpan": 3016,
      "ĠMil": 3017,
      "Ġalmost": 3018,
      "aps": 3019,
      "itionally": 3020,
      "Ġparty": 3021,
      "Ġboard": 3022,
      "Ġneeds": 3023,
      "Ġentire": 3024,
      "azon": 3025,
      "Ġcheck": 3026,
      "based": 3027,
      "icles": 3028,
      "irl": 3029,
      "Ġstri": 3030,
      "ĠPat": 3031,
      "ails": 3032,
      "Ġforms": 3033,
      "Ġrelated": 3034,
      "Ġmilk": 3035,
      "Ġtemperature": 3036,
      "Ġcry": 3037,
      "Ġmind": 3038,
      "Ġcomes": 3039,
      "ocr": 3040,
      "apt": 3041,
      "Ġtransport": 3042,
      "Ġeffic": 3043,
      "Ġfilms": 3044,
      "ĠiPhone": 3045,
      "ores": 3046,
      "Ġdry": 3047,
      "ĠTur": 3048,
      "ĠMor": 3049,
      "Ġaltern": 3050,
      "ĠGener": 3051,
      "ava": 3052,
      "izing": 3053,
      "Ġacqu": 3054,
      "Ġelectrical": 3055,
      "che": 3056,
      "lor": 3057,
      "Â°": 3058,
      "ĠPal": 3059,
      "ighb": 3060,
      "Ġinstead": 3061,
      "Ġmovement": 3062,
      "ounter": 3063,
      "Ġsales": 3064,
      "hol": 3065,
      "ËĲ": 3066,
      "Ġtend": 3067,
      "Ġcop": 3068,
      "Ġwine": 3069,
      "Ġft": 3070,
      "Ġgolf": 3071,
      "artment": 3072,
      "ibility": 3073,
      "Ġroad": 3074,
      "Ġpopul": 3075,
      "Ġcenter": 3076,
      "Ġextract": 3077,
      "Ġapproach": 3078,
      "Ġfriend": 3079,
      "Ġidea": 3080,
      "Ġdeliver": 3081,
      "ademy": 3082,
      "ĠMexico": 3083,
      "Ġbird": 3084,
      "ĠTV": 3085,
      "ĠBased": 3086,
      "ĠHall": 3087,
      "iful": 3088,
      "Ġ27": 3089,
      "Ġelements": 3090,
      "Ġeducation": 3091,
      "Ġcommercial": 3092,
      "bit": 3093,
      "Ġsn": 3094,
      "Ġheat": 3095,
      "Ġ2000": 3096,
      "Ġbox": 3097,
      "Ġsquare": 3098,
      "Ġquestion": 3099,
      "minist": 3100,
      "cks": 3101,
      "Ġclear": 3102,
      "Ġpers": 3103,
      "Ġhor": 3104,
      "Ġhydro": 3105,
      "Ġprefer": 3106,
      "Ġworldwide": 3107,
      "Ġ2006": 3108,
      "ĠSeattle": 3109,
      "ĠHarry": 3110,
      "Ġmanagement": 3111,
      "ĠAssoci": 3112,
      "Ġmer": 3113,
      "Ġdam": 3114,
      "imin": 3115,
      "vert": 3116,
      "ĠInc": 3117,
      "Ġprovides": 3118,
      "selves": 3119,
      "ox": 3120,
      "istan": 3121,
      "Ġstudents": 3122,
      "ĠDavid": 3123,
      "set": 3124,
      "val": 3125,
      "Ġsleep": 3126,
      "Ġcle": 3127,
      "Ġpen": 3128,
      "Ġmag": 3129,
      "imal": 3130,
      "iff": 3131,
      "Ġvict": 3132,
      "Ġmoved": 3133,
      "aker": 3134,
      "rick": 3135,
      "Ġleader": 3136,
      "Ġadvant": 3137,
      "Ġpotential": 3138,
      "Ġaction": 3139,
      "ĠTesla": 3140,
      "Ġey": 3141,
      "odes": 3142,
      "ĠNe": 3143,
      "Ġquant": 3144,
      "Ġ2004": 3145,
      "ought": 3146,
      "ĠAngeles": 3147,
      "ercise": 3148,
      "ees": 3149,
      "ira": 3150,
      "ĠBest": 3151,
      "ĠDr": 3152,
      "ĠRich": 3153,
      "Ġrules": 3154,
      "ĠAdd": 3155,
      "ĠQue": 3156,
      "Ġsalt": 3157,
      "Ġproblem": 3158,
      "known": 3159,
      "ĠTex": 3160,
      "ĠRober": 3161,
      "Ġheart": 3162,
      "Ġgetting": 3163,
      "Wh": 3164,
      "Ġtable": 3165,
      "Ġtaking": 3166,
      "utions": 3167,
      "ĠPot": 3168,
      "ĠLos": 3169,
      "Ġquality": 3170,
      "Ġ40": 3171,
      "Ġregions": 3172,
      "Ġdecl": 3173,
      "Ġbehind": 3174,
      "Ġtrip": 3175,
      "Ġepis": 3176,
      "writ": 3177,
      "Ġswe": 3178,
      "Ġcross": 3179,
      "Ġceleb": 3180,
      "ĠSch": 3181,
      "ogle": 3182,
      "Ġneighb": 3183,
      "Ġadded": 3184,
      "Ġlevels": 3185,
      "Ġengineering": 3186,
      "gent": 3187,
      "rate": 3188,
      "ria": 3189,
      "anch": 3190,
      "Ġfight": 3191,
      "Ġhon": 3192,
      "Ġstra": 3193,
      "ortun": 3194,
      "Ġadditional": 3195,
      "Ġproblems": 3196,
      "Ġapplications": 3197,
      "'re": 3198,
      "iate": 3199,
      "Ġess": 3200,
      "Ġtree": 3201,
      "ented": 3202,
      "Ġfront": 3203,
      "ĠStar": 3204,
      "Ġtrained": 3205,
      "Ġrequired": 3206,
      "Ġwatch": 3207,
      "itan": 3208,
      "arian": 3209,
      "Ġdoc": 3210,
      "ĠTour": 3211,
      "ivity": 3212,
      "Ġeight": 3213,
      "Ġplatform": 3214,
      "Ġkil": 3215,
      "ords": 3216,
      "ĠAlthough": 3217,
      "FL": 3218,
      "cil": 3219,
      "ĠTom": 3220,
      "Ġnut": 3221,
      "Ġgold": 3222,
      "rial": 3223,
      "Ġfourth": 3224,
      "Ġelectricity": 3225,
      "ij": 3226,
      "nder": 3227,
      "ĠPaul": 3228,
      "ĠSte": 3229,
      "Ġinstit": 3230,
      "Ġrelease": 3231,
      "Ġcaused": 3232,
      "Ġbehav": 3233,
      "ĠOff": 3234,
      "Ġprice": 3235,
      "Ġquickly": 3236,
      "hold": 3237,
      "ators": 3238,
      "oted": 3239,
      "Ġ187": 3240,
      "Ġstreng": 3241,
      "Ġprior": 3242,
      "Ġresources": 3243,
      "elligence": 3244,
      "ny": 3245,
      "year": 3246,
      "ota": 3247,
      "istics": 3248,
      "Ġcontribut": 3249,
      "ĠVir": 3250,
      "icken": 3251,
      "Ġrelig": 3252,
      "craft": 3253,
      "fect": 3254,
      "off": 3255,
      "sy": 3256,
      "aring": 3257,
      "ully": 3258,
      "ĠNor": 3259,
      "que": 3260,
      "appen": 3261,
      "pped": 3262,
      "Ġphil": 3263,
      "Ġnumbers": 3264,
      "Ġactivity": 3265,
      "Ġimprove": 3266,
      "Ġaffect": 3267,
      "ĠApple": 3268,
      "ĠCongress": 3269,
      "ply": 3270,
      "Ġfit": 3271,
      "ĠAwards": 3272,
      "ocks": 3273,
      "Ġbread": 3274,
      "Ġeasy": 3275,
      "Ġdomestic": 3276,
      "Ġapproximately": 3277,
      "35": 3278,
      "He": 3279,
      "Ġder": 3280,
      "ĠAp": 3281,
      "ĠChe": 3282,
      "ĠDon": 3283,
      "Ġ186": 3284,
      "Ġoffice": 3285,
      "Ġhighly": 3286,
      "gypt": 3287,
      "Ġpressure": 3288,
      "aign": 3289,
      "atory": 3290,
      "Ġwarm": 3291,
      "Ġrice": 3292,
      "ipment": 3293,
      "Ġunique": 3294,
      "Ġattract": 3295,
      "Ġruns": 3296,
      "ĠAmazon": 3297,
      "ĠPeople": 3298,
      "Al": 3299,
      "itor": 3300,
      "Ġlog": 3301,
      "Ġroom": 3302,
      "Ġoriginally": 3303,
      "Ġwild": 3304,
      "ĠCont": 3305,
      "Ġitself": 3306,
      "Ġstarting": 3307,
      "Ġorganization": 3308,
      "NA": 3309,
      "fl": 3310,
      "ture": 3311,
      "ato": 3312,
      "Ġbit": 3313,
      "ĠCO": 3314,
      "Ġseasons": 3315,
      "Ġthemselves": 3316,
      "Ġdistance": 3317,
      "Ġrequires": 3318,
      "ĠAssociation": 3319,
      "ĠTexas": 3320,
      "Ġsat": 3321,
      "Ġcup": 3322,
      "orage": 3323,
      "Ġinn": 3324,
      "Ġmention": 3325,
      "ĠTra": 3326,
      "ĠSen": 3327,
      "abit": 3328,
      "ĠYear": 3329,
      "Ġprep": 3330,
      "Ġcollege": 3331,
      "Ġprimarily": 3332,
      "hood": 3333,
      "iences": 3334,
      "ĠTer": 3335,
      "olk": 3336,
      "usion": 3337,
      "thlet": 3338,
      "Ġking": 3339,
      "Ġimm": 3340,
      "Ġwhole": 3341,
      "ĠSea": 3342,
      "24": 3343,
      "LM": 3344,
      "Ġbur": 3345,
      "Ġbring": 3346,
      "Ġisland": 3347,
      "Ġjour": 3348,
      "Ġglass": 3349,
      "Ġbecoming": 3350,
      "Ġanswer": 3351,
      "yth": 3352,
      "Ġcorpor": 3353,
      "Ġmom": 3354,
      "Ġgas": 3355,
      "aby": 3356,
      "Ġmeat": 3357,
      "Ġrights": 3358,
      "Ġknowledge": 3359,
      "Ġwrote": 3360,
      "Ġtou": 3361,
      "Ġfavor": 3362,
      "ola": 3363,
      "utch": 3364,
      "ocol": 3365,
      "Ġbutter": 3366,
      "Ġearth": 3367,
      "Ġrecords": 3368,
      "Ġobjects": 3369,
      "Ġtrees": 3370,
      "Ġparticularly": 3371,
      "Ġestimated": 3372,
      ".[": 3373,
      "elt": 3374,
      "imum": 3375,
      "arden": 3376,
      "Ġexercise": 3377,
      "ĠOcean": 3378,
      "bert": 3379,
      "Ġupon": 3380,
      "ecause": 3381,
      "Ġdrink": 3382,
      "Ġsoccer": 3383,
      "',": 3384,
      "Ġstore": 3385,
      "ĠGra": 3386,
      "alls": 3387,
      "Ġcomma": 3388,
      "Ġ2005": 3389,
      "Ġskills": 3390,
      "airs": 3391,
      "Ġdebut": 3392,
      "Ġtarget": 3393,
      "Ġingred": 3394,
      "Ġtask": 3395,
      "erved": 3396,
      "Ġalive": 3397,
      "Ġarr": 3398,
      "Ġprem": 3399,
      "Ġappl": 3400,
      "Ġmathem": 3401,
      "Ġeventually": 3402,
      "Ġdiscover": 3403,
      "ĠGolden": 3404,
      "ĠAcademy": 3405,
      "hib": 3406,
      "Ġdark": 3407,
      "ĠSu": 3408,
      "road": 3409,
      "ĠArab": 3410,
      "Ġexpand": 3411,
      "Ġbeautiful": 3412,
      "CA": 3413,
      "dd": 3414,
      "ech": 3415,
      "works": 3416,
      "Ġsil": 3417,
      "ĠAlex": 3418,
      "ĠWood": 3419,
      "Ġstock": 3420,
      "ĠEgypt": 3421,
      "Ġcolors": 3422,
      "ĠGoogle": 3423,
      "Ġbirth": 3424,
      "ae": 3425,
      "ĠSov": 3426,
      "ĠSince": 3427,
      "Ġsearch": 3428,
      "ificial": 3429,
      "ĠAustralian": 3430,
      "ĠParis": 3431,
      "head": 3432,
      "Ġcats": 3433,
      "Ġbal": 3434,
      "ĠSim": 3435,
      "uries": 3436,
      "ĠGame": 3437,
      "Ġ28": 3438,
      "ribution": 3439,
      "Ġclimate": 3440,
      "ĠGreek": 3441,
      ")<": 3442,
      "edy": 3443,
      "Ġlength": 3444,
      "Ġreached": 3445,
      "ĠAg": 3446,
      "Ġonline": 3447,
      "osition": 3448,
      "Ġvary": 3449,
      "Ġadult": 3450,
      "Ġtrain": 3451,
      "Ġ1970": 3452,
      "Ġsources": 3453,
      "Ġproperty": 3454,
      "25": 3455,
      "uous": 3456,
      "Ġer": 3457,
      "ett": 3458,
      "Ġnorm": 3459,
      "ĠGreen": 3460,
      "Ġtransfer": 3461,
      "ĠFrank": 3462,
      "Ġequipment": 3463,
      "Ġreview": 3464,
      "Ġdisease": 3465,
      "cast": 3466,
      "pro": 3467,
      "Ġ{": 3468,
      "Ġcold": 3469,
      "itt": 3470,
      "Ġfeder": 3471,
      "ĠAre": 3472,
      "Ġnation": 3473,
      "unt": 3474,
      "Ġ29": 3475,
      "Ġtrack": 3476,
      "Ġworked": 3477,
      "cont": 3478,
      "Ġ1960": 3479,
      "Ġrestaur": 3480,
      "ita": 3481,
      "ĠSant": 3482,
      "ĠWhite": 3483,
      "ibr": 3484,
      "oved": 3485,
      "Ġprompt": 3486,
      "Ġreduce": 3487,
      "Ġprivate": 3488,
      "PI": 3489,
      "enty": 3490,
      "idents": 3491,
      "ĠMicro": 3492,
      "ĠFire": 3493,
      "soft": 3494,
      "Ġactually": 3495,
      "Ġsolar": 3496,
      "Ġeggs": 3497,
      "ĠAtlantic": 3498,
      "erve": 3499,
      "roll": 3500,
      "ctions": 3501,
      "ĠBas": 3502,
      "ĠEach": 3503,
      "aily": 3504,
      "Ġuseful": 3505,
      "Ġoldest": 3506,
      "king": 3507,
      "wing": 3508,
      "heast": 3509,
      "Ġstage": 3510,
      "unic": 3511,
      "Ġhere": 3512,
      "Ġblood": 3513,
      "Ġmusical": 3514,
      "Ġpercent": 3515,
      "Ġinvolved": 3516,
      "Ġradio": 3517,
      "ÃŃ": 3518,
      "rees": 3519,
      "Ġpow": 3520,
      "Ġmother": 3521,
      "aming": 3522,
      "ĠMount": 3523,
      "Ġquarter": 3524,
      "Ġoperating": 3525,
      "ĠOnce": 3526,
      "Ġcauses": 3527,
      "Ġversion": 3528,
      "Ġparents": 3529,
      "rease": 3530,
      "ĠTr": 3531,
      "ĠMo": 3532,
      "ĠMah": 3533,
      "ands": 3534,
      "ript": 3535,
      "ĠThat": 3536,
      "Ġconsists": 3537,
      "198": 3538,
      "Ġmeasure": 3539,
      "lier": 3540,
      "ura": 3541,
      "Ġdomin": 3542,
      "Ġlines": 3543,
      "roph": 3544,
      "ĠBen": 3545,
      "Ġ23": 3546,
      "Ġdeal": 3547,
      "ĠKore": 3548,
      "Ġcontact": 3549,
      "Ġcontract": 3550,
      "Ġcomplete": 3551,
      "Ġthought": 3552,
      "Ġjoined": 3553,
      "Ġvillage": 3554,
      "Ġchalleng": 3555,
      "23": 3556,
      "ao": 3557,
      "de": 3558,
      "isation": 3559,
      "Ġfem": 3560,
      "omas": 3561,
      "ste": 3562,
      "ĠMass": 3563,
      "Ġkids": 3564,
      "ĠInter": 3565,
      "Ġremains": 3566,
      "ĠBlue": 3567,
      "iques": 3568,
      "cent": 3569,
      "Ġcand": 3570,
      "Ġbike": 3571,
      "Ġreally": 3572,
      "Ġforces": 3573,
      "ĠGroup": 3574,
      "Ġ26": 3575,
      "Ġriver": 3576,
      "Ġdecision": 3577,
      "hester": 3578,
      "Ġrefers": 3579,
      "ĠMusic": 3580,
      "Ġbrother": 3581,
      "Ġmethods": 3582,
      "Ġbulleted": 3583,
      "Ġsouthern": 3584,
      "ites": 3585,
      "Ġleaves": 3586,
      "ĠStre": 3587,
      "Ġrecorded": 3588,
      "Ġawarded": 3589,
      "!<": 3590,
      "gor": 3591,
      "Ã³": 3592,
      "Ġsite": 3593,
      "Ġinj": 3594,
      "Ġmill": 3595,
      "asy": 3596,
      "ĠMark": 3597,
      "Ġstation": 3598,
      "Ġwhose": 3599,
      "ache": 3600,
      "udd": 3601,
      "ipl": 3602,
      "izes": 3603,
      "Ġimplement": 3604,
      "Ġelection": 3605,
      "ĠClub": 3606,
      "Ġplanet": 3607,
      "Ġprogramming": 3608,
      "Ġinfluence": 3609,
      "Ġpattern": 3610,
      "house": 3611,
      "onst": 3612,
      "Ġfif": 3613,
      "ĠSec": 3614,
      "ĠMary": 3615,
      "ĠBig": 3616,
      "ĠPlease": 3617,
      "istor": 3618,
      "ĠNot": 3619,
      "Ġsea": 3620,
      "riz": 3621,
      "Ġrap": 3622,
      "Ġnumerous": 3623,
      "Ġblock": 3624,
      "Ġincreasing": 3625,
      "Ġcompleted": 3626,
      "Ġindividuals": 3627,
      "Ġdigital": 3628,
      "ares": 3629,
      "gest": 3630,
      "ki": 3631,
      "Ġ/": 3632,
      "Ġtaken": 3633,
      "Ġsens": 3634,
      "Ġsaw": 3635,
      "Ġcast": 3636,
      "arn": 3637,
      "Ġdou": 3638,
      "ĠAut": 3639,
      "Ġbond": 3640,
      "hess": 3641,
      "Ġeffects": 3642,
      "ĠSoviet": 3643,
      "ken": 3644,
      "ili": 3645,
      "ĠSystem": 3646,
      "Ġnorthern": 3647,
      "actions": 3648,
      "Ġcoach": 3649,
      "Ġrecent": 3650,
      "ifying": 3651,
      "Ġaccept": 3652,
      "Ġsimply": 3653,
      "Ġconduct": 3654,
      "ĠRobert": 3655,
      "70": 3656,
      "ground": 3657,
      "nal": 3658,
      "omes": 3659,
      "imb": 3660,
      "iring": 3661,
      "add": 3662,
      "Ġsugar": 3663,
      "Ġ31": 3664,
      "Ġoverall": 3665,
      "oyal": 3666,
      "iking": 3667,
      "Ġnuclear": 3668,
      "Ġkilomet": 3669,
      "ĠVirgin": 3670,
      "--": 3671,
      "Ar": 3672,
      "ios": 3673,
      "Ġpath": 3674,
      "ĠCur": 3675,
      "adium": 3676,
      "iang": 3677,
      "Ġproduce": 3678,
      "Ġsurround": 3679,
      "ĠZeal": 3680,
      "Ġ=": 3681,
      "ena": 3682,
      "Ġmess": 3683,
      "Ġdates": 3684,
      "ĠRock": 3685,
      "ĠJos": 3686,
      "ampion": 3687,
      "Ġbelong": 3688,
      "Ġcontinued": 3689,
      "Ġideas": 3690,
      "ĠZealand": 3691,
      "can": 3692,
      "isp": 3693,
      "Ġbott": 3694,
      "Ġexcept": 3695,
      "Ġabs": 3696,
      "There": 3697,
      "Ġdirected": 3698,
      "Ġcurrently": 3699,
      "Ġcourt": 3700,
      "Ġcampaign": 3701,
      "Ġhydrogen": 3702,
      "ville": 3703,
      "Ġtast": 3704,
      "Ġfix": 3705,
      "Ġancient": 3706,
      "ĠGal": 3707,
      "aged": 3708,
      "izations": 3709,
      "Ġcontains": 3710,
      "Ġadop": 3711,
      "ressed": 3712,
      "Ġwriting": 3713,
      "force": 3714,
      "Ġprincip": 3715,
      "Ġcit": 3716,
      "Ġbatt": 3717,
      "Ġbicy": 3718,
      "Ġtom": 3719,
      "Ġtowards": 3720,
      "ender": 3721,
      "Ġhappen": 3722,
      "adian": 3723,
      "unk": 3724,
      "Ġviol": 3725,
      "Ġrot": 3726,
      "sec": 3727,
      "Ġchem": 3728,
      "Ġavoid": 3729,
      "Ġdescribe": 3730,
      "get": 3731,
      "rel": 3732,
      "omic": 3733,
      "istance": 3734,
      "âĢĬ": 3735,
      "Ġdirection": 3736,
      "Ġdirectly": 3737,
      "Ġdevice": 3738,
      "Ġlimited": 3739,
      "itzer": 3740,
      "ocratic": 3741,
      "Ġclean": 3742,
      "Ġlab": 3743,
      "ceed": 3744,
      "Ġrule": 3745,
      "Ġuser": 3746,
      "Ġadminist": 3747,
      "Ġcolon": 3748,
      "Ġemp": 3749,
      "Ġsinger": 3750,
      "Ġretire": 3751,
      "ready": 3752,
      "Ġlooking": 3753,
      "ĠDisney": 3754,
      "bed": 3755,
      "ises": 3756,
      "ĠMac": 3757,
      "Ġappoint": 3758,
      "Ġextinct": 3759,
      "Ġfoods": 3760,
      "Ġinside": 3761,
      "ĠAfrican": 3762,
      "Ġbeginning": 3763,
      "Ġprotein": 3764,
      "ĠPotter": 3765,
      "Ġingredients": 3766,
      "Ġfederal": 3767,
      "cel": 3768,
      "rect": 3769,
      "Ġfarm": 3770,
      "Ġnomin": 3771,
      "ension": 3772,
      "Ġsurv": 3773,
      "Ġopportun": 3774,
      "Ġholid": 3775,
      "isions": 3776,
      "ĠSol": 3777,
      "Ġrevenue": 3778,
      "Ġanaly": 3779,
      "Ġusers": 3780,
      "Ġcannot": 3781,
      "Ġadj": 3782,
      "ounds": 3783,
      "Ġnecess": 3784,
      "Ġserve": 3785,
      "Ġsolid": 3786,
      "Ġmajority": 3787,
      "Ġallowed": 3788,
      "ackson": 3789,
      "Ġsafe": 3790,
      "40": 3791,
      "iant": 3792,
      "Ġhous": 3793,
      "Ġliqu": 3794,
      "ĠGar": 3795,
      "oses": 3796,
      "Ġspend": 3797,
      "Ġcloud": 3798,
      "Ġdefined": 3799,
      "Ġopened": 3800,
      "Ġconstit": 3801,
      "Ġscientific": 3802,
      "Ġcomponents": 3803,
      "fort": 3804,
      "ĠSur": 3805,
      "ĠMag": 3806,
      "ĠBecause": 3807,
      "irm": 3808,
      "ĠUs": 3809,
      "Ġcharge": 3810,
      "rought": 3811,
      "Ġaccording": 3812,
      "Ġdrum": 3813,
      "Ġmulti": 3814,
      "Ġsumm": 3815,
      "ait": 3816,
      "ging": 3817,
      "tra": 3818,
      "onse": 3819,
      "ĠWind": 3820,
      "Ġdead": 3821,
      "Ġcompared": 3822,
      "rug": 3823,
      "Ġdistrict": 3824,
      "Ġartist": 3825,
      "Ġmatter": 3826,
      "Ġoperations": 3827,
      "Ġinsp": 3828,
      "Ġshows": 3829,
      "ĠProv": 3830,
      "Ġsongs": 3831,
      "stitute": 3832,
      "Ġresponsible": 3833,
      "ĠHawai": 3834,
      "ĠMicrosoft": 3835,
      "OS": 3836,
      "Ġcases": 3837,
      "Ġdaily": 3838,
      "ĠMoon": 3839,
      "ĠWin": 3840,
      "Ġalready": 3841,
      "estival": 3842,
      "Ġ2002": 3843,
      "Ġgrand": 3844,
      "Ġmoving": 3845,
      "ĠParty": 3846,
      "Ġstrength": 3847,
      "Ġphilos": 3848,
      "EC": 3849,
      "You": 3850,
      "cul": 3851,
      "fin": 3852,
      "à¤": 3853,
      "Ġlack": 3854,
      "change": 3855,
      "ĠHen": 3856,
      "ĠUK": 3857,
      "Ġshape": 3858,
      "izza": 3859,
      "Ġ60": 3860,
      "Ġpack": 3861,
      "ĠTime": 3862,
      "Ġlives": 3863,
      "Ġthing": 3864,
      "ĠPay": 3865,
      "aging": 3866,
      "ĠEastern": 3867,
      "ĠJe": 3868,
      "orning": 3869,
      "Ġexpensive": 3870,
      "ĠRev": 3871,
      "Ġalbums": 3872,
      "Ġpurpose": 3873,
      "por": 3874,
      "ĉĊ": 3875,
      "Ġpet": 3876,
      "oul": 3877,
      "ĠCamp": 3878,
      "Ġyellow": 3879,
      "ĠGr": 3880,
      "liest": 3881,
      "Ġult": 3882,
      "Ġsau": 3883,
      "org": 3884,
      "ali": 3885,
      "Ġpaper": 3886,
      "Ġislands": 3887,
      "Ġthus": 3888,
      "ĠCE": 3889,
      "urs": 3890,
      "urance": 3891,
      "Ġang": 3892,
      "Ġuniversity": 3893,
      "Ġagre": 3894,
      "Ġtechniques": 3895,
      "Ġcontroll": 3896,
      "ĠRussia": 3897,
      "Ġlaunched": 3898,
      "rupt": 3899,
      "gorith": 3900,
      "BC": 3901,
      "nes": 3902,
      "where": 3903,
      "Ġ|": 3904,
      "orida": 3905,
      "Ġlake": 3906,
      "use": 3907,
      "ĠGod": 3908,
      "Ġunivers": 3909,
      "igned": 3910,
      "Ġphone": 3911,
      "ĠMarvel": 3912,
      "Ġhelps": 3913,
      "Ġperformed": 3914,
      "Ġlaws": 3915,
      "Ġmanufactur": 3916,
      "Ġrapid": 3917,
      "bre": 3918,
      "pre": 3919,
      "Ġsets": 3920,
      "atoes": 3921,
      "Ġdiet": 3922,
      "ĠMars": 3923,
      "ĠBang": 3924,
      "aint": 3925,
      "Ġrates": 3926,
      "ĠJackson": 3927,
      "ĠKh": 3928,
      "Ġoutd": 3929,
      "ikes": 3930,
      "Ġsubsequ": 3931,
      "Ġstudies": 3932,
      "Ġdepends": 3933,
      "Ġschools": 3934,
      "ĠCarol": 3935,
      "Ġinvestment": 3936,
      "Ġcombination": 3937,
      "Ġmaterials": 3938,
      "Tube": 3939,
      "ingu": 3940,
      "ician": 3941,
      "roy": 3942,
      "room": 3943,
      "raction": 3944,
      "Ġstorage": 3945,
      "ĠLou": 3946,
      "berg": 3947,
      "Ġ1999": 3948,
      "Ġdepending": 3949,
      "Ġreflect": 3950,
      "Ġcritical": 3951,
      "Ġseparated": 3952,
      "Ġensure": 3953,
      "sych": 3954,
      "Americ": 3955,
      "eks": 3956,
      "Ġfoot": 3957,
      "Ġbad": 3958,
      "Ġmiddle": 3959,
      "ĠSong": 3960,
      "Ġvirt": 3961,
      "illing": 3962,
      "Ġdegree": 3963,
      "Ġdegrees": 3964,
      "ĠChristian": 3965,
      "ĠCompany": 3966,
      "wik": 3967,
      "Ġast": 3968,
      "Ġcore": 3969,
      "Ġfant": 3970,
      "Ġmax": 3971,
      "Ġhockey": 3972,
      "ĠCour": 3973,
      "ĠMer": 3974,
      "Ġaspect": 3975,
      "ĠLLM": 3976,
      "Ġheavy": 3977,
      "Ġscore": 3978,
      "Ġ2001": 3979,
      "Ġflat": 3980,
      "Ġsigned": 3981,
      "ĠUSA": 3982,
      "Ġnearly": 3983,
      "Ġannual": 3984,
      "ĠFederer": 3985,
      "Ġnegative": 3986,
      "ĠMartin": 3987,
      "Ġadvantage": 3988,
      "itzerland": 3989,
      "VID": 3990,
      "pes": 3991,
      "Ġill": 3992,
      "Ġtur": 3993,
      "inary": 3994,
      "atur": 3995,
      "aylor": 3996,
      "ĠDist": 3997,
      "ĠRam": 3998,
      "Ġframe": 3999,
      "Ġvoc": 4000,
      "Ġrise": 4001,
      "arts": 4002,
      "Ġintelligence": 4003,
      "Ġimmed": 4004,
      "intend": 4005,
      "Ġpowerful": 4006,
      "Ġdetect": 4007,
      "Ġgrowing": 4008,
      "Ġhealthy": 4009,
      "ĠGeorg": 4010,
      "ĠFlorida": 4011,
      "ĠPortug": 4012,
      "ĠCharles": 4013,
      "26": 4014,
      "ook": 4015,
      "rd": 4016,
      "ror": 4017,
      "Ġox": 4018,
      "Ġcam": 4019,
      "edia": 4020,
      "Ġwealth": 4021,
      "Ġflight": 4022,
      "Ġmatches": 4023,
      "Ġpredict": 4024,
      "Ġdatab": 4025,
      "DP": 4026,
      "Ġut": 4027,
      "ĠĠĊ": 4028,
      "iny": 4029,
      "Ġwins": 4030,
      "Ġfully": 4031,
      "ĠSam": 4032,
      "ĠBh": 4033,
      "Ġalgorith": 4034,
      "ests": 4035,
      "ĠDog": 4036,
      "Ġ1998": 4037,
      "Ġsociety": 4038,
      "Ġprogress": 4039,
      "Ġseparate": 4040,
      "Ġchoose": 4041,
      "Ġreported": 4042,
      "ĠValley": 4043,
      "Ġtools": 4044,
      "75": 4045,
      "Ind": 4046,
      "Éª": 4047,
      "Ġbag": 4048,
      "ĠMountain": 4049,
      "elled": 4050,
      "ĠIntern": 4051,
      "eph": 4052,
      "Ġdoing": 4053,
      "Ġweeks": 4054,
      "Ġ1989": 4055,
      "Ġreceive": 4056,
      "etherlands": 4057,
      "list": 4058,
      "Ġathlet": 4059,
      "level": 4060,
      "ĠSouthern": 4061,
      "Ġnar": 4062,
      "ĠCons": 4063,
      "ĠBank": 4064,
      "ĠPers": 4065,
      "ĠLatin": 4066,
      "iance": 4067,
      "vey": 4068,
      "ĠThomas": 4069,
      "Ġpeak": 4070,
      "Ġlisted": 4071,
      "Ġdistinct": 4072,
      "Ġsingles": 4073,
      "ĠIslands": 4074,
      "Ġeffective": 4075,
      "Ġresponse": 4076,
      "Ġgrass": 4077,
      "Ġhistorical": 4078,
      "Ġissues": 4079,
      "Ġchampionships": 4080,
      "urban": 4081,
      "ĠStreet": 4082,
      "bing": 4083,
      "gers": 4084,
      "oke": 4085,
      "Ġphen": 4086,
      "Ġones": 4087,
      "Ġfranch": 4088,
      "Ġcool": 4089,
      "Ġyourself": 4090,
      "Ġjud": 4091,
      "undred": 4092,
      "Ġregul": 4093,
      "Ġarticle": 4094,
      "Ġobserv": 4095,
      "ĠPrize": 4096,
      "cles": 4097,
      "sen": 4098,
      "Ġmiss": 4099,
      "Ġ(/": 4100,
      "ĠUse": 4101,
      "Ġchicken": 4102,
      "Ġshot": 4103,
      "iano": 4104,
      "ordan": 4105,
      "Ġmetal": 4106,
      "Ġpolicy": 4107,
      "Ġcultural": 4108,
      "Ġappeared": 4109,
      "Ġeasily": 4110,
      "Ġchanged": 4111,
      "Ġconcern": 4112,
      "Ġefficient": 4113,
      "Ġver": 4114,
      "Ġtun": 4115,
      "Ġtalk": 4116,
      "Ġcards": 4117,
      "Ġfat": 4118,
      "ĠBowl": 4119,
      "ighter": 4120,
      "ĠOl": 4121,
      "Ġweap": 4122,
      "ensus": 4123,
      "erman": 4124,
      "Ġsynt": 4125,
      "Ġfinished": 4126,
      "ĠSecond": 4127,
      "Ġcontinue": 4128,
      "Ġreturned": 4129,
      "Ġlayer": 4130,
      "Ġdocument": 4131,
      "ĠCOVID": 4132,
      "Ġmentioned": 4133,
      "65": 4134,
      "99": 4135,
      "mosp": 4136,
      "Ġbran": 4137,
      "hers": 4138,
      "ĠDiv": 4139,
      "ĠLaw": 4140,
      "Ġintended": 4141,
      "Ġju": 4142,
      "Ġ500": 4143,
      "Ġoffers": 4144,
      "Ġearlier": 4145,
      "Ġfounder": 4146,
      "Ġgeneration": 4147,
      "Ġheadqu": 4148,
      "Ġoppon": 4149,
      "Ġofficially": 4150,
      "Ġinitial": 4151,
      "Ġarchitecture": 4152,
      "Ġpieces": 4153,
      "Ġsweet": 4154,
      "'m": 4155,
      "ĠÃ": 4156,
      "onald": 4157,
      "Ġface": 4158,
      "Ġfaster": 4159,
      "ĠServ": 4160,
      "istry": 4161,
      "Ġvot": 4162,
      "Ġrail": 4163,
      "Ġraised": 4164,
      "ario": 4165,
      "Ġ1997": 4166,
      "Ġsupply": 4167,
      "Ġmedical": 4168,
      "ouncil": 4169,
      "Ġbasic": 4170,
      "aska": 4171,
      "ĠOlympics": 4172,
      "Ġvehicles": 4173,
      "Ġregarded": 4174,
      "Ġmathemat": 4175,
      "64": 4176,
      "isc": 4177,
      "olic": 4178,
      "ĠJava": 4179,
      "ulture": 4180,
      "Ġplays": 4181,
      "cohol": 4182,
      "phone": 4183,
      "athon": 4184,
      "ĠArmy": 4185,
      "Ġlongest": 4186,
      "ĠJohnson": 4187,
      "Ġcritic": 4188,
      "fficient": 4189,
      "stein": 4190,
      "rons": 4191,
      "ĠÂ°": 4192,
      "Ġcounter": 4193,
      "Ġdried": 4194,
      "iling": 4195,
      "ĠCivil": 4196,
      "ĠData": 4197,
      "ĠDutch": 4198,
      "ĠLeg": 4199,
      "Ġmob": 4200,
      "alled": 4201,
      "ription": 4202,
      "Ġperfect": 4203,
      "Ġinstruct": 4204,
      "Ġgrav": 4205,
      "Ġdirector": 4206,
      "Ġbelieve": 4207,
      "ATO": 4208,
      "Ġelectronic": 4209,
      "Ġgar": 4210,
      "ĠRome": 4211,
      "ĠNFL": 4212,
      "Ġincorpor": 4213,
      "Ġspeech": 4214,
      "anchester": 4215,
      "Ġbelieved": 4216,
      "Ġbattery": 4217,
      "intendo": 4218,
      "equ": 4219,
      "mark": 4220,
      "over": 4221,
      "rim": 4222,
      "yani": 4223,
      "Ġwife": 4224,
      "ened": 4225,
      "etts": 4226,
      "oles": 4227,
      "ĠMiddle": 4228,
      "ĠBol": 4229,
      "ĠNetherlands": 4230,
      "ĠLuc": 4231,
      "aka": 4232,
      "Ġscreen": 4233,
      "Ġsoon": 4234,
      "Ġinvented": 4235,
      "Ġdriving": 4236,
      "ĠYouTube": 4237,
      "Ġachieve": 4238,
      "\")": 4239,
      "rey": 4240,
      "Ġwear": 4241,
      "Ġgain": 4242,
      "Ġgave": 4243,
      "iders": 4244,
      "imate": 4245,
      "ĠWater": 4246,
      "Ġforward": 4247,
      "ĠDC": 4248,
      "abet": 4249,
      "Ġheav": 4250,
      "rier": 4251,
      "ĠOver": 4252,
      "Ġ2003": 4253,
      "ologies": 4254,
      "Ġcarry": 4255,
      "Ġcarbon": 4256,
      "Ġ80": 4257,
      "Ġwrite": 4258,
      "Ġindependent": 4259,
      "Ġgreater": 4260,
      "Ġretirement": 4261,
      "74": 4262,
      "PT": 4263,
      "pass": 4264,
      "icks": 4265,
      "ĠSal": 4266,
      "Ġsty": 4267,
      "Ġatmosp": 4268,
      "Ġoutput": 4269,
      "Ġspect": 4270,
      "Ġelected": 4271,
      "Ġattention": 4272,
      "Ġwinner": 4273,
      "Ġhardware": 4274,
      "Ġdivided": 4275,
      "Ġranked": 4276,
      "ĠGeneral": 4277,
      "ĠOffice": 4278,
      "Ġfavorite": 4279,
      "Ġapplied": 4280,
      "het": 4281,
      "Ġsell": 4282,
      "Ġmorning": 4283,
      "Ġthreat": 4284,
      "ĠFer": 4285,
      "Ġexact": 4286,
      "range": 4287,
      "Ġwebs": 4288,
      "Ġindic": 4289,
      "Ġhelped": 4290,
      "Ġtrade": 4291,
      "Ġdevices": 4292,
      "Ġdemand": 4293,
      "ĠSummer": 4294,
      "Ġtouch": 4295,
      "gl": 4296,
      "Ġ,": 4297,
      "Ġawards": 4298,
      "Ġocean": 4299,
      "Ġcorn": 4300,
      "Ġdin": 4301,
      "Ġrepe": 4302,
      "ĠMax": 4303,
      "ĠMont": 4304,
      "Ġbeach": 4305,
      "ĠPrem": 4306,
      "Ġconv": 4307,
      "Ġvote": 4308,
      "abilities": 4309,
      "achus": 4310,
      "Ġago": 4311,
      "Ġ1991": 4312,
      "ĠSwift": 4313,
      "Ġeastern": 4314,
      "Ġconstruction": 4315,
      "Ġcustomer": 4316,
      ");": 4317,
      "II": 4318,
      "ipe": 4319,
      "rm": 4320,
      "uff": 4321,
      "onic": 4322,
      "edic": 4323,
      "also": 4324,
      "Ġfiction": 4325,
      "Ġbrain": 4326,
      "Ġpizza": 4327,
      "lec": 4328,
      "ĠPan": 4329,
      "unch": 4330,
      "ĠNorthern": 4331,
      "ĠInst": 4332,
      "Ġspent": 4333,
      "ĠVis": 4334,
      "Ġscored": 4335,
      "ĠSwitzerland": 4336,
      "Ġolder": 4337,
      "Ġemployees": 4338,
      "Ġbehavior": 4339,
      "Ġfifth": 4340,
      "If": 4341,
      "een": 4342,
      "view": 4343,
      "war": 4344,
      "wind": 4345,
      "ati": 4346,
      "Ġwestern": 4347,
      "Ġbed": 4348,
      "Ġgod": 4349,
      "Ġbeg": 4350,
      "ĠFI": 4351,
      "ĠNintendo": 4352,
      "ĠOut": 4353,
      "uster": 4354,
      "Ġindex": 4355,
      "book": 4356,
      "Ġeveryone": 4357,
      "Ġinstruments": 4358,
      "rizona": 4359,
      "28": 4360,
      "right": 4361,
      "ties": 4362,
      "enced": 4363,
      "ora": 4364,
      "Ġbaby": 4365,
      "leg": 4366,
      "ĠMasters": 4367,
      "ĠDen": 4368,
      "ĠJordan": 4369,
      "âĢ¢": 4370,
      "Ġworth": 4371,
      "Ġspring": 4372,
      "oken": 4373,
      "Ġmostly": 4374,
      "rency": 4375,
      "Ġvisual": 4376,
      "Ġconstruct": 4377,
      "Ġlegal": 4378,
      "Ġquestions": 4379,
      "Ġsafety": 4380,
      "Ġsauce": 4381,
      "achusetts": 4382,
      ",\"": 4383,
      "At": 4384,
      "ER": 4385,
      "kes": 4386,
      "water": 4387,
      "Ġ:": 4388,
      "Ġbanks": 4389,
      "Ġmount": 4390,
      "Ġdoll": 4391,
      "omics": 4392,
      "ĠTamil": 4393,
      "iled": 4394,
      "Ġgot": 4395,
      "ĠInt": 4396,
      "ĠMach": 4397,
      "ĠManchester": 4398,
      "ĠBoth": 4399,
      "ĠHot": 4400,
      "emon": 4401,
      "odies": 4402,
      "ĠJust": 4403,
      "ĠJack": 4404,
      "ĠStrat": 4405,
      "Ġscale": 4406,
      "Ġfeed": 4407,
      "Ġoccurs": 4408,
      "Ġforest": 4409,
      "Ġcommunication": 4410,
      "Ġmemory": 4411,
      "ĠQueen": 4412,
      "For": 4413,
      "ffer": 4414,
      "met": 4415,
      "vest": 4416,
      "Ġtru": 4417,
      "eration": 4418,
      "eria": 4419,
      "ening": 4420,
      "Ġbattle": 4421,
      "ompl": 4422,
      "ĠGames": 4423,
      "ĠFour": 4424,
      "ĠFound": 4425,
      "emic": 4426,
      "ĠNad": 4427,
      "rian": 4428,
      "ĠOs": 4429,
      "ishing": 4430,
      "Ġimpl": 4431,
      "ĠAlso": 4432,
      "Ġevidence": 4433,
      "Ġboat": 4434,
      "Ġartificial": 4435,
      "ĠCanadian": 4436,
      "ĠOlympic": 4437,
      "Ġvegetables": 4438,
      "Ġdefinition": 4439,
      "Ġdamage": 4440,
      "ĠMassachusetts": 4441,
      "29": 4442,
      "IS": 4443,
      "cies": 4444,
      "Ġpil": 4445,
      "oura": 4446,
      "Ġaccompl": 4447,
      "Ġsky": 4448,
      "ĠAnother": 4449,
      "Ġdistribution": 4450,
      "Ġprocesses": 4451,
      "Ġdepend": 4452,
      "Ġchoice": 4453,
      "Ġdivision": 4454,
      "Ġprobably": 4455,
      "American": 4456,
      "Ġera": 4457,
      "atives": 4458,
      "Ġgirl": 4459,
      "ĠMiss": 4460,
      "ĠWal": 4461,
      "ĠBur": 4462,
      "Ġstop": 4463,
      "Ġrub": 4464,
      "Ġheight": 4465,
      "Ġcomposed": 4466,
      "Ġscen": 4467,
      "Ġpassed": 4468,
      "Ġ1950": 4469,
      "Ġmachines": 4470,
      "Ġfemale": 4471,
      "Ġliquid": 4472,
      "500": 4473,
      "AS": 4474,
      "orial": 4475,
      "Ġhole": 4476,
      "Ġreb": 4477,
      "ĠCricket": 4478,
      "ĠBell": 4479,
      "ĠJo": 4480,
      "rief": 4481,
      "Ġkit": 4482,
      "ĠArch": 4483,
      "Ġhimself": 4484,
      "ĠSwed": 4485,
      "Ġprograms": 4486,
      "Ġapplication": 4487,
      "Ġcustomers": 4488,
      "Ġsteps": 4489,
      "Ġdetermine": 4490,
      "Ġborder": 4491,
      "Ġsummary": 4492,
      "iers": 4493,
      "rish": 4494,
      "Ġtall": 4495,
      "Ġbra": 4496,
      "asion": 4497,
      "Ġdang": 4498,
      "Ġgrew": 4499,
      "ĠWars": 4500,
      "ady": 4501,
      "ĠFord": 4502,
      "ĠDie": 4503,
      "Ġmoon": 4504,
      "Ġshoot": 4505,
      "ĠViet": 4506,
      "Ġfollows": 4507,
      "Ġdriver": 4508,
      "Ġproviding": 4509,
      "ĠEngine": 4510,
      "Ġobtain": 4511,
      "enez": 4512,
      "Ġoption": 4513,
      "Ġbrown": 4514,
      "ĠMuseum": 4515,
      "Ġturned": 4516,
      "Ġpaint": 4517,
      "Ġcreating": 4518,
      "ĠSeries": 4519,
      "Ġterritory": 4520,
      "Ġdiscovered": 4521,
      "Ġbound": 4522,
      "Ġbrought": 4523,
      "Ġhy": 4524,
      "Ġlink": 4525,
      "osite": 4526,
      "Ġrang": 4527,
      "ession": 4528,
      "Ġspir": 4529,
      "Ġtea": 4530,
      "ĠChurch": 4531,
      "Ġcontext": 4532,
      "Ġclasses": 4533,
      "ributed": 4534,
      "Ġdefeated": 4535,
      "Ġpowers": 4536,
      "Ġbicycle": 4537,
      "'ve": 4538,
      "Sp": 4539,
      "aud": 4540,
      "more": 4541,
      "Ġchess": 4542,
      "Ġban": 4543,
      "Ġpal": 4544,
      "oma": 4545,
      "Ġhar": 4546,
      "umn": 4547,
      "amin": 4548,
      "Ġthous": 4549,
      "ulf": 4550,
      "Ġrat": 4551,
      "arters": 4552,
      "Ġabilities": 4553,
      "Ġdecided": 4554,
      "Ġended": 4555,
      "Ġallowing": 4556,
      "Ġforeign": 4557,
      "This": 4558,
      "Ġdiscovery": 4559,
      "Ġreplaced": 4560,
      "Ġpreviously": 4561,
      "Ġvehicle": 4562,
      "ĠRichard": 4563,
      "iest": 4564,
      "wise": 4565,
      "zz": 4566,
      "Ã¶": 4567,
      "inks": 4568,
      "ĠArizona": 4569,
      "Ġgarden": 4570,
      "ĠIm": 4571,
      "used": 4572,
      "ĠHuman": 4573,
      "ĠLord": 4574,
      "illa": 4575,
      "Ġracing": 4576,
      "Ġ1992": 4577,
      "tainment": 4578,
      "Ġartists": 4579,
      "Ġwriter": 4580,
      "rump": 4581,
      "Ġopening": 4582,
      "ĠGovern": 4583,
      "Ġtrue": 4584,
      "Ġbiggest": 4585,
      "Ġinitially": 4586,
      "ĠTwo": 4587,
      "ĠCourt": 4588,
      "\".<": 4589,
      "34": 4590,
      "reland": 4591,
      "Ġfer": 4592,
      "Ġdrop": 4593,
      "Ġthr": 4594,
      "ĠBase": 4595,
      "ĠFilm": 4596,
      "Ġuniverse": 4597,
      "Ġearliest": 4598,
      "Ġbreed": 4599,
      "Ġnetworks": 4600,
      "Ġestablish": 4601,
      "Ġfeatured": 4602,
      "ĠDemocratic": 4603,
      "ĠLouis": 4604,
      "enezuel": 4605,
      "77": 4606,
      "ih": 4607,
      "iately": 4608,
      "larg": 4609,
      "och": 4610,
      "Ġop": 4611,
      "Ġsense": 4612,
      "ĠTem": 4613,
      "ĠCat": 4614,
      "Ġstars": 4615,
      "ĠHy": 4616,
      "ĠHill": 4617,
      "ĠNATO": 4618,
      "Ġride": 4619,
      "ĠJim": 4620,
      "ĠInstitute": 4621,
      "Ġrare": 4622,
      "Ġ1983": 4623,
      "Ġstarts": 4624,
      "Ġbuildings": 4625,
      "Ġcycle": 4626,
      "ĠHenry": 4627,
      "'ll": 4628,
      "such": 4629,
      "Ġfine": 4630,
      "Ġbreat": 4631,
      "ĠCor": 4632,
      "uth": 4633,
      "ĠGen": 4634,
      "ĠNob": 4635,
      "Ġplaced": 4636,
      "Ġleave": 4637,
      "Ġprint": 4638,
      "ĠSpace": 4639,
      "Ġtransl": 4640,
      "ĠSwiss": 4641,
      "Ġconflic": 4642,
      "Ġcooking": 4643,
      "Ġmotion": 4644,
      "Ġsymb": 4645,
      "Ġswimming": 4646,
      "ĠInternet": 4647,
      "->": 4648,
      "me": 4649,
      "men": 4650,
      "uis": 4651,
      "vis": 4652,
      "ione": 4653,
      "ilies": 4654,
      "umber": 4655,
      "Ġgraph": 4656,
      "Ġyet": 4657,
      "ĠForm": 4658,
      "agon": 4659,
      "ĠLast": 4660,
      "ĠUp": 4661,
      "Ġprec": 4662,
      "Ġ1996": 4663,
      "ĠScott": 4664,
      "Ġequal": 4665,
      "Ġsecret": 4666,
      "Ġoptim": 4667,
      "Ġexisting": 4668,
      "Ġconsumption": 4669,
      "Ġextremely": 4670,
      "lon": 4671,
      "inal": 4672,
      "rec": 4673,
      "isl": 4674,
      "uments": 4675,
      "ĠIce": 4676,
      "raw": 4677,
      "ĠWil": 4678,
      "ĠBet": 4679,
      "ĠHu": 4680,
      "izens": 4681,
      "ously": 4682,
      "Ġpromin": 4683,
      "Ġ35": 4684,
      "Ġlocations": 4685,
      "Ġ1994": 4686,
      "Ġemot": 4687,
      "Ġparam": 4688,
      "ĠRecords": 4689,
      "Ġliterature": 4690,
      "32": 4691,
      "lim": 4692,
      "ying": 4693,
      "Äģ": 4694,
      "Ġ.": 4695,
      "Ġsus": 4696,
      "urt": 4697,
      "oga": 4698,
      "ĠKe": 4699,
      "ĠKenn": 4700,
      "ipedia": 4701,
      "ĠStud": 4702,
      "Ġspl": 4703,
      "ĠVeg": 4704,
      "named": 4705,
      "Ġreplace": 4706,
      "Ġbecomes": 4707,
      "Ġindependence": 4708,
      "Ġbottom": 4709,
      "Ġnecessary": 4710,
      "found": 4711,
      "Ġurban": 4712,
      "Ġsav": 4713,
      "Ġcru": 4714,
      "esh": 4715,
      "Ġtow": 4716,
      "ĠTor": 4717,
      "ĠSand": 4718,
      "Ġnick": 4719,
      "igan": 4720,
      "ĠRoyal": 4721,
      "ĠNet": 4722,
      "Ġchief": 4723,
      "Ġchampion": 4724,
      "Ġunit": 4725,
      "ĠVenezuel": 4726,
      "Ġroll": 4727,
      "ollowing": 4728,
      "Ġstudied": 4729,
      "ropol": 4730,
      "ĠDistrict": 4731,
      "Ġfranchise": 4732,
      "ĠPremier": 4733,
      "FC": 4734,
      "ault": 4735,
      "Ġcris": 4736,
      "Ġinput": 4737,
      "ĠAv": 4738,
      "ĠDi": 4739,
      "Ġrul": 4740,
      "Ġclosed": 4741,
      "Ġpron": 4742,
      "Ġdisp": 4743,
      "oys": 4744,
      "ansion": 4745,
      "Ġcenturies": 4746,
      "Ġ90": 4747,
      "Ġmarried": 4748,
      "Ġesc": 4749,
      "Ġachieved": 4750,
      "Ġtransportation": 4751,
      "Ġmoment": 4752,
      "Ġcandid": 4753,
      "ES": 4754,
      "PS": 4755,
      "VP": 4756,
      "bl": 4757,
      "part": 4758,
      "uge": 4759,
      "Ġmel": 4760,
      "asp": 4761,
      "ĠBul": 4762,
      "ading": 4763,
      "term": 4764,
      "Ġwhom": 4765,
      "ĠRet": 4766,
      "Ġmolec": 4767,
      "ĠUber": 4768,
      "Ġcontrast": 4769,
      "Inc": 4770,
      "Ġsubst": 4771,
      "Ġacid": 4772,
      "Ġowner": 4773,
      "Ġincreases": 4774,
      "Ġhands": 4775,
      "ĠCenter": 4776,
      "Ġholds": 4777,
      "Ġcorrect": 4778,
      "Ġmotor": 4779,
      "ĠGreece": 4780,
      "ĠVirginia": 4781,
      "isphere": 4782,
      "Ġstyles": 4783,
      "38": 4784,
      "Ġnative": 4785,
      "ĠGood": 4786,
      "Ġcomfort": 4787,
      "ĠLand": 4788,
      "Ġchain": 4789,
      "luding": 4790,
      "isms": 4791,
      "Ġparks": 4792,
      "ancy": 4793,
      "Ġowned": 4794,
      "Ġeth": 4795,
      "Ġdraw": 4796,
      "Ġmanufacturing": 4797,
      "Ġunderstanding": 4798,
      "Ġcells": 4799,
      "aught": 4800,
      "Ġroute": 4801,
      "ĠCarolina": 4802,
      "Ġimmediately": 4803,
      "CC": 4804,
      "Un": 4805,
      "liam": 4806,
      "vant": 4807,
      "yond": 4808,
      "Ġaim": 4809,
      "Ġsen": 4810,
      "anut": 4811,
      "Ġbill": 4812,
      "Ġinh": 4813,
      "Ġhum": 4814,
      "Ġhabit": 4815,
      "ĠIreland": 4816,
      "ĠBrown": 4817,
      "ulated": 4818,
      "Ġship": 4819,
      "ĠKar": 4820,
      "Ġroles": 4821,
      "Ġtwice": 4822,
      "Ġextra": 4823,
      "Ġtypical": 4824,
      "Ġpopularity": 4825,
      "Ġbasis": 4826,
      "Ġclassified": 4827,
      "Ġissue": 4828,
      "aughter": 4829,
      "Ġrecommend": 4830,
      "Ġphenomen": 4831,
      "down": 4832,
      "hand": 4833,
      "Ã¨": 4834,
      "aling": 4835,
      "Ġpit": 4836,
      "inger": 4837,
      "Ġharm": 4838,
      "urd": 4839,
      "ĠBattle": 4840,
      "ĠTheir": 4841,
      "ĠFA": 4842,
      "ategy": 4843,
      "aped": 4844,
      "Ġkilled": 4845,
      "Ġspoken": 4846,
      "Ġassist": 4847,
      "Ġgoods": 4848,
      "Ġserving": 4849,
      "Ġsett": 4850,
      "ropri": 4851,
      "Ġclassical": 4852,
      "Ġvalues": 4853,
      "Ġstrategy": 4854,
      "Ġvacation": 4855,
      "Ġfrequently": 4856,
      "Ġeyes": 4857,
      "Ġchemical": 4858,
      "Ġdatabase": 4859,
      "BS": 4860,
      "citation": 4861,
      "lam": 4862,
      "inet": 4863,
      "Ġbrief": 4864,
      "ĠCam": 4865,
      "ĠCouncil": 4866,
      "Ġorange": 4867,
      "ested": 4868,
      "Ġvice": 4869,
      "Ġplastic": 4870,
      "place": 4871,
      "Ġrelatively": 4872,
      "Ġ1995": 4873,
      "Ġcreation": 4874,
      "Ġaddress": 4875,
      "Ġends": 4876,
      "ĠYoung": 4877,
      "ĠColumb": 4878,
      "Ġpurs": 4879,
      ".\"<": 4880,
      "Ġidentify": 4881,
      "ĠJeff": 4882,
      "39": 4883,
      "67": 4884,
      "Pal": 4885,
      "Sh": 4886,
      "band": 4887,
      "ĠTim": 4888,
      "ĠAPI": 4889,
      "ĠBob": 4890,
      "ersey": 4891,
      "adel": 4892,
      "una": 4893,
      "Ġalcohol": 4894,
      "osis": 4895,
      "Ġconsec": 4896,
      "Ġrh": 4897,
      "ears": 4898,
      "Ġgoes": 4899,
      "Ġmuseum": 4900,
      "Ġlargely": 4901,
      "Ġsetting": 4902,
      "Ġ1965": 4903,
      "Ġoccup": 4904,
      "Ġstands": 4905,
      "Ġreduced": 4906,
      "Ġweights": 4907,
      "Ġtrying": 4908,
      "Ġdestroy": 4909,
      "Ġlaunch": 4910,
      "Ġalternative": 4911,
      "ĠGeorgia": 4912,
      "liament": 4913,
      "89": 4914,
      "vement": 4915,
      "well": 4916,
      "Ġhundred": 4917,
      "Ġlic": 4918,
      "ĠMic": 4919,
      "Ġbeans": 4920,
      "Ġsection": 4921,
      "ĠUt": 4922,
      "ĠOld": 4923,
      "Ġdecades": 4924,
      "Ġ1993": 4925,
      "Ġcapac": 4926,
      "ashion": 4927,
      "azz": 4928,
      "box": 4929,
      "Ġmedium": 4930,
      "Ġdoesn": 4931,
      "ĠBritain": 4932,
      "ĠFinals": 4933,
      "Ġmanager": 4934,
      "ĠBook": 4935,
      "ĠCommon": 4936,
      "Ġdemonst": 4937,
      "ĠFederal": 4938,
      "Ġacquired": 4939,
      "ibrary": 4940,
      "ais": 4941,
      "rates": 4942,
      "vation": 4943,
      "Ġtrib": 4944,
      "inations": 4945,
      "orter": 4946,
      "Ġden": 4947,
      "Ġren": 4948,
      "Ġgiving": 4949,
      "Ġcoming": 4950,
      "Ġsuffer": 4951,
      "Ġnote": 4952,
      "Ġneural": 4953,
      "ĠAsian": 4954,
      "rones": 4955,
      "Ġmainly": 4956,
      "Ġadvanced": 4957,
      "Ġfields": 4958,
      "Ġclubs": 4959,
      "Ġrecognition": 4960,
      "ophy": 4961,
      "Ġvictory": 4962,
      "ĠDivision": 4963,
      "Ġmobile": 4964,
      "fish": 4965,
      "Ġtim": 4966,
      "inn": 4967,
      "arks": 4968,
      "Ġpsych": 4969,
      "Ġhour": 4970,
      "ĠTrans": 4971,
      "Ġgained": 4972,
      "ĠWall": 4973,
      "ĠBeng": 4974,
      "unction": 4975,
      "Ġord": 4976,
      "ĠJones": 4977,
      "ĠJoe": 4978,
      "ĠUnder": 4979,
      "earch": 4980,
      "Ġspot": 4981,
      "2019": 4982,
      "hesis": 4983,
      "Ġ1985": 4984,
      "Ġnearby": 4985,
      "Ġinflation": 4986,
      "ĠOrgan": 4987,
      "Ġoccurred": 4988,
      "ĠRoad": 4989,
      "Ġrecognized": 4990,
      "Ġkilometres": 4991,
      "ĠHawaii": 4992,
      "After": 4993,
      "Bl": 4994,
      "iable": 4995,
      "ras": 4996,
      "Ġx": 4997,
      "arry": 4998,
      "Ġbow": 4999,
      "Ġmamm": 5000,
      "iced": 5001,
      "Ġdrug": 5002,
      "ĠTaylor": 5003,
      "ĠSqu": 5004,
      "Ġrent": 5005,
      "imens": 5006,
      "ĠThen": 5007,
      "ĠHel": 5008,
      "ĠHem": 5009,
      "acing": 5010,
      "ĠStep": 5011,
      "Ġspin": 5012,
      "ranean": 5013,
      "Ġuns": 5014,
      "Ġdoor": 5015,
      "Ġarts": 5016,
      "Ġdishes": 5017,
      "Ġagg": 5018,
      "othing": 5019,
      "Ġfamilies": 5020,
      "rows": 5021,
      "Ġstreet": 5022,
      "Ġidentified": 5023,
      "Ġlimit": 5024,
      "Ġcollection": 5025,
      "Ġrequirements": 5026,
      "Ġskiing": 5027,
      "Ġsympt": 5028,
      "Ġexpected": 5029,
      "Ġsandw": 5030,
      "Ġcredit": 5031,
      "ĠAdditionally": 5032,
      "Ġnormal": 5033,
      "Ġappointed": 5034,
      "miss": 5035,
      "Ġwoman": 5036,
      "alle": 5037,
      "Ġhun": 5038,
      "Ġgets": 5039,
      "ĠPet": 5040,
      "ĠPok": 5041,
      "ager": 5042,
      "ĠRob": 5043,
      "Ġteach": 5044,
      "Ġtraffic": 5045,
      "ailed": 5046,
      "ĠâĢĶ": 5047,
      "Ġexplain": 5048,
      "Ġconstant": 5049,
      "Ġinfluential": 5050,
      "Ġconnected": 5051,
      "Ġprojects": 5052,
      "burg": 5053,
      "rophy": 5054,
      "largest": 5055,
      "lines": 5056,
      "Ġovers": 5057,
      "Ġwat": 5058,
      "Ġwick": 5059,
      "ittle": 5060,
      "Ġdish": 5061,
      "Ġdiverse": 5062,
      "entially": 5063,
      "Ġlabor": 5064,
      "stone": 5065,
      "ĠAT": 5066,
      "ctic": 5067,
      "Ġnine": 5068,
      "ĠMot": 5069,
      "ĠMatt": 5070,
      "Ġeating": 5071,
      "Ġstru": 5072,
      "anda": 5073,
      "Ġsuit": 5074,
      "Ġcompris": 5075,
      "Ġunits": 5076,
      "ĠYes": 5077,
      "Ġneut": 5078,
      "Ġrecip": 5079,
      "Ġleadership": 5080,
      "ĠAdams": 5081,
      "Ġparticles": 5082,
      "Ġadvance": 5083,
      "Ġpresidential": 5084,
      "Ġjoin": 5085,
      "Ġbenefit": 5086,
      "Ġwalking": 5087,
      "iterranean": 5088,
      "Ġstraight": 5089,
      "Ġjournal": 5090,
      "37": 5091,
      "jp": 5092,
      "ygen": 5093,
      "edom": 5094,
      "rog": 5095,
      "ĠAz": 5096,
      "ightly": 5097,
      "ĠKn": 5098,
      "Ġfloor": 5099,
      "Ġpoor": 5100,
      "ĠArgent": 5101,
      "Ġ1988": 5102,
      "Ġgrapes": 5103,
      "ĠReal": 5104,
      "Ġcultures": 5105,
      "Ġpromot": 5106,
      "Ġinvolves": 5107,
      "Ġrepresented": 5108,
      "ĠRussian": 5109,
      "ĠSociety": 5110,
      "...": 5111,
      "Ġcollabor": 5112,
      "Ġinnov": 5113,
      "Ġbalance": 5114,
      "LA": 5115,
      "ba": 5116,
      "Ġbud": 5117,
      "ĠSk": 5118,
      "ĠMem": 5119,
      "Ġstress": 5120,
      "ĠPen": 5121,
      "ĠPop": 5122,
      "ĠFar": 5123,
      "ĠRh": 5124,
      "ĠNavy": 5125,
      "aval": 5126,
      "Ġchair": 5127,
      "Ġlett": 5128,
      "ĠKong": 5129,
      "ĠStan": 5130,
      "Ġweb": 5131,
      "Ġpartner": 5132,
      "ega": 5133,
      "Ġflour": 5134,
      "Ġ1940": 5135,
      "Ġwanted": 5136,
      "Ġindustrial": 5137,
      "Ġdiscuss": 5138,
      "ĠMcC": 5139,
      "Ġcosts": 5140,
      "Ġpresented": 5141,
      "Ġpiece": 5142,
      "Ġfantasy": 5143,
      "Ġjuice": 5144,
      "bell": 5145,
      "life": 5146,
      "rative": 5147,
      "upp": 5148,
      "ynam": 5149,
      "zen": 5150,
      "Ġsq": 5151,
      "Ġfly": 5152,
      "Ġmicro": 5153,
      "otic": 5154,
      "Ġgives": 5155,
      "ĠIll": 5156,
      "ador": 5157,
      "ĠGolf": 5158,
      "ĠNight": 5159,
      "Ġpros": 5160,
      "resp": 5161,
      "Ġshown": 5162,
      "Ġappropri": 5163,
      "Ġattended": 5164,
      "Ġearned": 5165,
      "ĠSpark": 5166,
      "Ġ1986": 5167,
      "Ġleaders": 5168,
      "ructure": 5169,
      "ropical": 5170,
      "Ġaircraft": 5171,
      "Ġrespond": 5172,
      "Ġcombined": 5173,
      "borne": 5174,
      "Ġfigure": 5175,
      "Ġpurchase": 5176,
      "Ġexecutive": 5177,
      "Ġrespectively": 5178,
      "Ġepisodes": 5179,
      "Ġderived": 5180,
      "ĠSenate": 5181,
      "ython": 5182,
      "ĠAlexander": 5183,
      "Ġrestaurants": 5184,
      "\"<": 5185,
      "45": 5186,
      "66": 5187,
      "EFA": 5188,
      "MS": 5189,
      "oors": 5190,
      "Ġ?<": 5191,
      "Ġsch": 5192,
      "aled": 5193,
      "Ġbikes": 5194,
      "ĠAge": 5195,
      "ĠCub": 5196,
      "ĠMore": 5197,
      "ĠMVP": 5198,
      "ĠBall": 5199,
      "ĠRog": 5200,
      "ĠEnd": 5201,
      "Ġdeploy": 5202,
      "Ġadvent": 5203,
      "Ġjoint": 5204,
      "Ġcommit": 5205,
      "enses": 5206,
      "ensity": 5207,
      "Ġdisplay": 5208,
      "Ġtransform": 5209,
      "ĠColor": 5210,
      "ĠCoast": 5211,
      "Ġstructures": 5212,
      "Ġstatus": 5213,
      "Ġviews": 5214,
      "Ġcircuit": 5215,
      "opping": 5216,
      "Ġdeclared": 5217,
      "Ġconsecutive": 5218,
      "\":": 5219,
      "100": 5220,
      "And": 5221,
      "col": 5222,
      "chen": 5223,
      "rete": 5224,
      "Ġlat": 5225,
      "Ġlived": 5226,
      "olved": 5227,
      "ĠMel": 5228,
      "ĠMake": 5229,
      "Ġbear": 5230,
      "Ġstated": 5231,
      "ĠFort": 5232,
      "ĠLab": 5233,
      "Ġvo": 5234,
      "Ġcancer": 5235,
      "ection": 5236,
      "order": 5237,
      "ĠAmericans": 5238,
      "195": 5239,
      "Ġwhereas": 5240,
      "Ġcream": 5241,
      "Ġstudent": 5242,
      "Ġfunctions": 5243,
      "ĠBeach": 5244,
      "Ġcontrovers": 5245,
      "ĠIndiana": 5246,
      "ographic": 5247,
      "Ġcalcul": 5248,
      "regon": 5249,
      "Ġappearance": 5250,
      "Ġletter": 5251,
      "ĠBerlin": 5252,
      "Ġsituation": 5253,
      "Ġcouple": 5254,
      "Ġtaste": 5255,
      "ĠRevolution": 5256,
      "):": 5257,
      "31": 5258,
      "oom": 5259,
      "Ġfuel": 5260,
      "ette": 5261,
      "igen": 5262,
      "ĠDu": 5263,
      "ĠJon": 5264,
      "ĠUEFA": 5265,
      "active": 5266,
      "Ġprime": 5267,
      "phia": 5268,
      "weight": 5269,
      "obe": 5270,
      "Ġformal": 5271,
      "Ġflavor": 5272,
      "Ġpoll": 5273,
      "ĠDevelop": 5274,
      "rison": 5275,
      "Ġtechnique": 5276,
      "Ġplanning": 5277,
      "Ġorganizations": 5278,
      "Ġeasier": 5279,
      "Ġmarketing": 5280,
      "Ġrecommended": 5281,
      "Ġneighbor": 5282,
      "Ġbegins": 5283,
      "Ġmountains": 5284,
      "jpg": 5285,
      "CO": 5286,
      "Ġbass": 5287,
      "Ġmental": 5288,
      "Ġdance": 5289,
      "state": 5290,
      "stream": 5291,
      "ĠCorpor": 5292,
      "ĠBre": 5293,
      "ĠPak": 5294,
      "istory": 5295,
      "ĠOregon": 5296,
      "Ġ300": 5297,
      "ĠAlaska": 5298,
      "Ġdespite": 5299,
      "Ġproduces": 5300,
      "Ġdefense": 5301,
      "Ġsolve": 5302,
      "Ġplanets": 5303,
      "Ġcontinuous": 5304,
      "Ġcomputers": 5305,
      "Ġfeeling": 5306,
      "Ġwoodwind": 5307,
      "ĠKorea": 5308,
      "ĠCEO": 5309,
      "Ġoutdoor": 5310,
      "ĠBaseball": 5311,
      "ropolitan": 5312,
      "adelphia": 5313,
      ".âĢĿ": 5314,
      "SO": 5315,
      "cell": 5316,
      "uable": 5317,
      "Ġmac": 5318,
      "ican": 5319,
      "ĠTy": 5320,
      "ĠSub": 5321,
      "ĠCath": 5322,
      "Ġbeyond": 5323,
      "ĠPel": 5324,
      "ulpt": 5325,
      "Ġconvers": 5326,
      "ĠElectric": 5327,
      "Ġchurch": 5328,
      "ĠKen": 5329,
      "ĠVict": 5330,
      "Ġagric": 5331,
      "Ġ45": 5332,
      "Ġflav": 5333,
      "Ġattacks": 5334,
      "Ġpool": 5335,
      "ĠScience": 5336,
      "Ġexperien": 5337,
      "Ġpolitician": 5338,
      "Ġcharacteristics": 5339,
      "former": 5340,
      "Ġzone": 5341,
      "ĠMediterranean": 5342,
      "Ġcovered": 5343,
      "ĠPlayer": 5344,
      "Ġcharged": 5345,
      "Ġterritories": 5346,
      "Ġinstitutions": 5347,
      "Ġreligious": 5348,
      "Ġaspects": 5349,
      "Ġweapons": 5350,
      "Ġsymbol": 5351,
      "27": 5352,
      "vin": 5353,
      "wan": 5354,
      "yer": 5355,
      "ÉĽ": 5356,
      "isher": 5357,
      "Ġdu": 5358,
      "Ġdedic": 5359,
      "ĠSir": 5360,
      "Ġnice": 5361,
      "Ġbeat": 5362,
      "ĠLove": 5363,
      "abeth": 5364,
      "Ġseem": 5365,
      "ĠVol": 5366,
      "ressive": 5367,
      "Ġflag": 5368,
      "rams": 5369,
      "Ġremoved": 5370,
      "Ġminimum": 5371,
      "Ġ70": 5372,
      "Ġtechnologies": 5373,
      "ĠExpl": 5374,
      "ception": 5375,
      "Ġvolume": 5376,
      "Ġaccounts": 5377,
      "chers": 5378,
      "Ġsequence": 5379,
      "CAA": 5380,
      "contin": 5381,
      "ĠVietnam": 5382,
      "49": 5383,
      ":/": 5384,
      "bra": 5385,
      "âĪ": 5386,
      "onia": 5387,
      "atre": 5388,
      "Ġdial": 5389,
      "ĠTar": 5390,
      "Ġreco": 5391,
      "umes": 5392,
      "unning": 5393,
      "aine": 5394,
      "Ġrough": 5395,
      "ĠJes": 5396,
      "Ġchance": 5397,
      "Ġteac": 5398,
      "ibly": 5399,
      "Ġtherefore": 5400,
      "Ġattend": 5401,
      "Ġremained": 5402,
      "Ġ1975": 5403,
      "ĠPlan": 5404,
      "ĠPrime": 5405,
      "Ġamounts": 5406,
      "Ġbiryani": 5407,
      "ĠChampionships": 5408,
      "Ġhoriz": 5409,
      "ĠJoseph": 5410,
      "Ġwebsite": 5411,
      "Ġsplit": 5412,
      "07": 5413,
      "rus": 5414,
      "uer": 5415,
      "Ġbat": 5416,
      "ĠSil": 5417,
      "eline": 5418,
      "Ġnations": 5419,
      "Ġgrown": 5420,
      "Ġsust": 5421,
      "ibb": 5422,
      "Ġcommand": 5423,
      "Ġsubs": 5424,
      "pective": 5425,
      "Ġedition": 5426,
      "Ġprofessor": 5427,
      "Ġreading": 5428,
      "Ġclimbing": 5429,
      "Ġprices": 5430,
      "Ġobserved": 5431,
      "ĠDespite": 5432,
      "Ġmeeting": 5433,
      "Ġhappy": 5434,
      "Ġholiday": 5435,
      "Ġsymptoms": 5436,
      "://": 5437,
      "rich": 5438,
      "rise": 5439,
      "Ġwall": 5440,
      "Ġpair": 5441,
      "Ġhair": 5442,
      "ĠBab": 5443,
      "ĠPublic": 5444,
      "Ġalone": 5445,
      "ĠFore": 5446,
      "ĠEvery": 5447,
      "Ġrich": 5448,
      "ĠJr": 5449,
      "Ġexer": 5450,
      "Ġrecently": 5451,
      "lets": 5452,
      "Ġacadem": 5453,
      "azine": 5454,
      "Ġcompletely": 5455,
      "Ġinternet": 5456,
      "Ġremaining": 5457,
      "ĠDepartment": 5458,
      "Ġaccomplish": 5459,
      "iated": 5460,
      "spe": 5461,
      "Ġaware": 5462,
      "Ġol": 5463,
      "Ġsort": 5464,
      "oration": 5465,
      "ĠMajor": 5466,
      "ĠWay": 5467,
      "Ġ(\"": 5468,
      "oday": 5469,
      "ĠRom": 5470,
      "ĠNep": 5471,
      "ĠOx": 5472,
      "Ġkid": 5473,
      "duct": 5474,
      "ĠThree": 5475,
      "reek": 5476,
      "ologist": 5477,
      "Ġrelax": 5478,
      "Ġexpansion": 5479,
      "Ġstudio": 5480,
      "Ġrecording": 5481,
      "Ġcompete": 5482,
      "iami": 5483,
      "Ġcondition": 5484,
      "Ġready": 5485,
      "Ġbanking": 5486,
      "rapy": 5487,
      "ĠPhiladelphia": 5488,
      "Ġproposed": 5489,
      "Ġmixed": 5490,
      "Ġselected": 5491,
      "rastructure": 5492,
      "Ġepisode": 5493,
      "Ġessential": 5494,
      "ĠPayPal": 5495,
      "ĠStratoc": 5496,
      "Ġcapacity": 5497,
      "68": 5498,
      "fast": 5499,
      "ooth": 5500,
      "pan": 5501,
      "Ġtheore": 5502,
      "onn": 5503,
      "onym": 5504,
      "Ġpict": 5505,
      "Ġpitch": 5506,
      "Ġlatter": 5507,
      "rol": 5508,
      "umin": 5509,
      "raine": 5510,
      "thi": 5511,
      "ĠLong": 5512,
      "Ġtrail": 5513,
      "Ġpeanut": 5514,
      "Ġ185": 5515,
      "Ġworkers": 5516,
      "Ġdrivers": 5517,
      "Ġdeveloping": 5518,
      "Ġload": 5519,
      "Ġcapt": 5520,
      "ĠAnn": 5521,
      "Ġeffort": 5522,
      "azing": 5523,
      "Ġ1969": 5524,
      "Ġmedic": 5525,
      "Ġoriginated": 5526,
      "ĠScot": 5527,
      "Ġstrateg": 5528,
      "Ġsignificantly": 5529,
      "Ġbrands": 5530,
      "ĠModel": 5531,
      "ocolate": 5532,
      "ittee": 5533,
      "Ġcitizens": 5534,
      "ĠFIFA": 5535,
      "47": 5536,
      "east": 5537,
      "uing": 5538,
      "Ġu": 5539,
      "Ġiron": 5540,
      "Ġfict": 5541,
      "Ġbodies": 5542,
      "Ġmission": 5543,
      "rael": 5544,
      "ĠHam": 5545,
      "ĠGh": 5546,
      "ĠDet": 5547,
      "ĠLight": 5548,
      "Ġexhib": 5549,
      "Ġjump": 5550,
      "Ġdifferences": 5551,
      "hens": 5552,
      "Ġfinally": 5553,
      "Ġmetres": 5554,
      "Ġ1981": 5555,
      "Ġ1984": 5556,
      "Ġsimpl": 5557,
      "Ġminer": 5558,
      "Ġ1977": 5559,
      "Ġdetails": 5560,
      "ttps": 5561,
      "Ġrevolution": 5562,
      "Ġbiological": 5563,
      "Ġtemperatures": 5564,
      "mitted": 5565,
      "ĠBelg": 5566,
      "Ġconducted": 5567,
      "Ġmanufacturer": 5568,
      "Ġastron": 5569,
      "Ġschol": 5570,
      "88": 5571,
      "Ġsco": 5572,
      "Ġselling": 5573,
      "Ġcatch": 5574,
      "Ġwa": 5575,
      "orph": 5576,
      "itter": 5577,
      "Ġfans": 5578,
      "Ġmut": 5579,
      "Ġstored": 5580,
      "Ġstores": 5581,
      "agement": 5582,
      "ĠOb": 5583,
      "Ġleaving": 5584,
      "ĠKu": 5585,
      "iana": 5586,
      "ĠVer": 5587,
      "ĠVen": 5588,
      "Ġsculpt": 5589,
      "Ġsoil": 5590,
      "Ġactor": 5591,
      "Ġassets": 5592,
      "fully": 5593,
      "ancing": 5594,
      "Ġstreaming": 5595,
      "gency": 5596,
      "ĠTechn": 5597,
      "Ġzero": 5598,
      "Ġlearned": 5599,
      "Ġoffered": 5600,
      "Ġinternal": 5601,
      "ĠService": 5602,
      "ĠDiego": 5603,
      "Pl": 5604,
      "aug": 5605,
      "cling": 5606,
      "ker": 5607,
      "mission": 5608,
      "Ġtherm": 5609,
      "Ġsides": 5610,
      "itors": 5611,
      "Ġfle": 5612,
      "Ġfirm": 5613,
      "ĠMu": 5614,
      "ĠMur": 5615,
      "utional": 5616,
      "ĠFollowing": 5617,
      "Ġvent": 5618,
      "Ġsuc": 5619,
      "ĠOh": 5620,
      "izabeth": 5621,
      "outheast": 5622,
      "2021": 5623,
      "Ġcarried": 5624,
      "Ġsignal": 5625,
      "Ġstret": 5626,
      "Ġsupported": 5627,
      "Ġbands": 5628,
      "Ġproperties": 5629,
      "Ġdestination": 5630,
      "Ġsentiment": 5631,
      "Ġreaching": 5632,
      "Ġclaimed": 5633,
      "Ġasked": 5634,
      "ĠTurkey": 5635,
      "Ġfixed": 5636,
      "Ġdangerous": 5637,
      "Ġstrugg": 5638,
      "IT": 5639,
      "We": 5640,
      "net": 5641,
      "tun": 5642,
      "Ã£": 5643,
      "ishes": 5644,
      "Ġpaid": 5645,
      "ĠSnow": 5646,
      "elly": 5647,
      "Ġreve": 5648,
      "ĠBal": 5649,
      "ĠPenn": 5650,
      "ĠPeter": 5651,
      "agues": 5652,
      "iller": 5653,
      "Ġseg": 5654,
      "ĠJersey": 5655,
      "Ġplot": 5656,
      "Ġshared": 5657,
      "sole": 5658,
      "ĠThrones": 5659,
      "Ġgenre": 5660,
      "Ġamb": 5661,
      "Ġphr": 5662,
      "Ġnewsp": 5663,
      "Ġpresence": 5664,
      "Ġ1963": 5665,
      "ĠForce": 5666,
      "teen": 5667,
      "enger": 5668,
      "ĠCarl": 5669,
      "Ġopposite": 5670,
      "Ġelement": 5671,
      "idden": 5672,
      "aniel": 5673,
      "Ġresear": 5674,
      "Ġconsisting": 5675,
      "Ġtaxes": 5676,
      "ĠĠĠĠĠĠĠĠ": 5677,
      "Ġaudience": 5678,
      "amilton": 5679,
      "writer": 5680,
      "Ġdomesticated": 5681,
      "Ġchallenges": 5682,
      "Ġdouble": 5683,
      "Ġadjust": 5684,
      "Ġalgorithm": 5685,
      "Increase": 5686,
      "Ġappropriate": 5687,
      "ĠCorporation": 5688,
      "AM": 5689,
      "Ex": 5690,
      "point": 5691,
      "Ġir": 5692,
      "orize": 5693,
      "itage": 5694,
      "Ġfashion": 5695,
      "Ġmort": 5696,
      "rav": 5697,
      "ĠWild": 5698,
      "ĠBern": 5699,
      "irus": 5700,
      "Ġstadium": 5701,
      "ĠNCAA": 5702,
      "ĠEll": 5703,
      "rip": 5704,
      "irect": 5705,
      "Ġparties": 5706,
      "Ġrobot": 5707,
      "2018": 5708,
      "Ġgenerate": 5709,
      "Ġeverything": 5710,
      "ervation": 5711,
      "Ġ1945": 5712,
      "ivalent": 5713,
      "Ġfishing": 5714,
      "Ġfastest": 5715,
      "Ġempire": 5716,
      "ĠLLMs": 5717,
      "ĠNobel": 5718,
      "03": 5719,
      "TV": 5720,
      "selling": 5721,
      "win": 5722,
      "orer": 5723,
      "Ġfair": 5724,
      "Ġinform": 5725,
      "Ġdaughter": 5726,
      "ila": 5727,
      "etary": 5728,
      "igation": 5729,
      "aya": 5730,
      "ĠDNA": 5731,
      "ĠLas": 5732,
      "ĠEver": 5733,
      "ĠUk": 5734,
      "ĠOper": 5735,
      "Ġcovers": 5736,
      "ĠChampions": 5737,
      "Ġimage": 5738,
      "Ġresidents": 5739,
      "Ġupd": 5740,
      "Ġacting": 5741,
      "197": 5742,
      "ĠArts": 5743,
      "Ġ1987": 5744,
      "ĠDev": 5745,
      "Ġentered": 5746,
      "boards": 5747,
      "Ġ1964": 5748,
      "vention": 5749,
      "embly": 5750,
      "reme": 5751,
      "load": 5752,
      "Ġlayers": 5753,
      "Ġcategories": 5754,
      "Ġhonor": 5755,
      "Ġexpanded": 5756,
      "ĠArea": 5757,
      "Ġinstructions": 5758,
      "Be": 5759,
      "bour": 5760,
      "flow": 5761,
      "oir": 5762,
      "oral": 5763,
      "Ġdro": 5764,
      "Ġlose": 5765,
      "ĠSy": 5766,
      "ĠSyd": 5767,
      "ĠAD": 5768,
      "ĠIran": 5769,
      "ĠMa": 5770,
      "ĠBro": 5771,
      "throp": 5772,
      "ĠRos": 5773,
      "ĠLu": 5774,
      "ĠLittle": 5775,
      "resents": 5776,
      "ĠJud": 5777,
      "ĠOtt": 5778,
      "Ġnotable": 5779,
      "perial": 5780,
      "Ġperman": 5781,
      "ĠYour": 5782,
      "awn": 5783,
      "Ġskin": 5784,
      "Ġremember": 5785,
      "Ġ1973": 5786,
      "Ġ1979": 5787,
      "Ġtechnical": 5788,
      "Ġsolo": 5789,
      "Ġoperation": 5790,
      "Ġofficer": 5791,
      "Ġ1930": 5792,
      "ĠBarb": 5793,
      "inois": 5794,
      "Ġencoura": 5795,
      "Ġfailed": 5796,
      "Ġprepared": 5797,
      "Ġadopted": 5798,
      "Ġopportunity": 5799,
      "Ġoxygen": 5800,
      "respond": 5801,
      "QL": 5802,
      "cos": 5803,
      "fit": 5804,
      "fall": 5805,
      "name": 5806,
      "rot": 5807,
      "ses": 5808,
      "uation": 5809,
      "Ġtropical": 5810,
      "indu": 5811,
      "Ġcuis": 5812,
      "encing": 5813,
      "Ġmig": 5814,
      "ĠTake": 5815,
      "lywood": 5816,
      "Ġstick": 5817,
      "ĠHamilton": 5818,
      "ĠGDP": 5819,
      "ĠDec": 5820,
      "ĠRem": 5821,
      "Ġconsole": 5822,
      "Ġrivers": 5823,
      "izard": 5824,
      "Ġimag": 5825,
      "Ġrow": 5826,
      "Ġquite": 5827,
      "Ġproducer": 5828,
      "Ġpoet": 5829,
      "Ġanything": 5830,
      "Ġplane": 5831,
      "Ġresulting": 5832,
      "Ġcommunities": 5833,
      "ĠConference": 5834,
      "clus": 5835,
      "Ġbroken": 5836,
      "ĠFinally": 5837,
      "Ġmanaged": 5838,
      "Ġhousehold": 5839,
      "stitution": 5840,
      "Ġbuying": 5841,
      "Ġnovels": 5842,
      "Ġprobability": 5843,
      "ĠSanta": 5844,
      "Ġinspired": 5845,
      "Ġatmosphere": 5846,
      "Ġconstructed": 5847,
      "Ġthousands": 5848,
      "Ġbudget": 5849,
      "NSA": 5850,
      "Ã§": 5851,
      "Ã¼": 5852,
      "ano": 5853,
      "arate": 5854,
      "Ġmap": 5855,
      "Ġmaster": 5856,
      "Ġhope": 5857,
      "Ġisol": 5858,
      "enth": 5859,
      "ĠSpe": 5860,
      "ĠSaint": 5861,
      "Ġreality": 5862,
      "ĠCast": 5863,
      "ĠWales": 5864,
      "uration": 5865,
      "adi": 5866,
      "ĠLy": 5867,
      "ĠLakers": 5868,
      "Ġvan": 5869,
      "ĠStone": 5870,
      "rics": 5871,
      "Ġadvert": 5872,
      "ĠAltern": 5873,
      "Ġregional": 5874,
      "Ġcentre": 5875,
      "Ġmuscle": 5876,
      "Ġextended": 5877,
      "Ġemail": 5878,
      "Ġ1974": 5879,
      "Ġmarked": 5880,
      "annel": 5881,
      "Ġinvestors": 5882,
      "Ġpainting": 5883,
      "Ġelse": 5884,
      "ĠBillboard": 5885,
      "Ġeye": 5886,
      "iplom": 5887,
      "ĠWindows": 5888,
      "Ġincorporated": 5889,
      "ĠIllinois": 5890,
      "gon": 5891,
      "mond": 5892,
      "vard": 5893,
      "with": 5894,
      "inter": 5895,
      "Ġfought": 5896,
      "Ġbath": 5897,
      "Ġbowl": 5898,
      "oto": 5899,
      "ĠTreat": 5900,
      "ĠToy": 5901,
      "Ġretain": 5902,
      "Ġgear": 5903,
      "ĠMiami": 5904,
      "Ġhero": 5905,
      "ighth": 5906,
      "Ġsevent": 5907,
      "ĠChris": 5908,
      "ront": 5909,
      "Ġminute": 5910,
      "Ġorganized": 5911,
      "Ġcontinues": 5912,
      "Ġlegisl": 5913,
      "Ġinterests": 5914,
      "Ġvideos": 5915,
      "ĠIII": 5916,
      "Ġdraft": 5917,
      "ĠResearch": 5918,
      "marize": 5919,
      "Ġfluid": 5920,
      "Ġpopulous": 5921,
      "Ġbirds": 5922,
      "Ġbranch": 5923,
      "ĠFormula": 5924,
      "Ġprominent": 5925,
      "âĪĴ": 5926,
      "New": 5927,
      "When": 5928,
      "bor": 5929,
      "dam": 5930,
      "rn": 5931,
      "ua": 5932,
      "Ġaer": 5933,
      "Ġcash": 5934,
      "Ġfestival": 5935,
      "Ġbridge": 5936,
      "Ġhiking": 5937,
      "amily": 5938,
      "Ġnort": 5939,
      "ĠBudd": 5940,
      "Ġstorm": 5941,
      "ulate": 5942,
      "isters": 5943,
      "istical": 5944,
      "ĠNow": 5945,
      "ĠLin": 5946,
      "Ġplans": 5947,
      "apes": 5948,
      "Ġexchange": 5949,
      "duc": 5950,
      "Ġsched": 5951,
      "ĠAlb": 5952,
      "Ġactions": 5953,
      "Ġworkout": 5954,
      "Ġdecisions": 5955,
      "Ġcapabilities": 5956,
      "Ġpositions": 5957,
      "Ġdistingu": 5958,
      "Ġentity": 5959,
      "Ġminor": 5960,
      "ĠIsrael": 5961,
      "Ġ1968": 5962,
      "including": 5963,
      "Ġfactor": 5964,
      "Ġcultiv": 5965,
      "Ġappears": 5966,
      "class": 5967,
      "Ġswitch": 5968,
      "Ġengineer": 5969,
      "ĠFinland": 5970,
      "boarding": 5971,
      "Ġbelief": 5972,
      "Ġmeasured": 5973,
      "Ġscientists": 5974,
      "Ġquantum": 5975,
      "listen": 5976,
      "48": 5977,
      "pool": 5978,
      "ters": 5979,
      "inces": 5980,
      "eries": 5981,
      "arp": 5982,
      "Ġbomb": 5983,
      "Ġhomes": 5984,
      "Ġgal": 5985,
      "ĠCy": 5986,
      "ĠCamb": 5987,
      "raq": 5988,
      "ĠMen": 5989,
      "Ġorig": 5990,
      "estyle": 5991,
      "Ġplate": 5992,
      "ells": 5993,
      "ograp": 5994,
      "Ġjack": 5995,
      "Ġpepper": 5996,
      "Ġsyn": 5997,
      "Ġpoem": 5998,
      "onder": 5999,
      "Ġretired": 6000,
      "Ġresulted": 6001,
      "ĠAustria": 6002,
      "Ġcontinent": 6003,
      "Ġapproaches": 6004,
      "Ġtrust": 6005,
      "Ġcert": 6006,
      "Ġspecifically": 6007,
      "Ġmeasures": 6008,
      "Ġcorrespond": 6009,
      "ĠModern": 6010,
      "ĠSmith": 6011,
      "Ġextreme": 6012,
      "Ġcorporate": 6013,
      "Ġsurrounding": 6014,
      "Ġadministration": 6015,
      "ĠArgentina": 6016,
      "GA": 6017,
      "face": 6018,
      "erate": 6019,
      "Ġwire": 6020,
      "amous": 6021,
      "ĠPython": 6022,
      "ĠHome": 6023,
      "ĠGand": 6024,
      "ĠFre": 6025,
      "ĠLink": 6026,
      "Ġvs": 6027,
      "Ġseeds": 6028,
      "ĠJer": 6029,
      "ĠJew": 6030,
      "Ġsufficient": 6031,
      "riend": 6032,
      "Ġchocolate": 6033,
      "aked": 6034,
      "Ġspending": 6035,
      "Ġarm": 6036,
      "ansas": 6037,
      "Ġdram": 6038,
      "Ġcapture": 6039,
      "Ġ65": 6040,
      "Ġskill": 6041,
      "Ġremove": 6042,
      "Ġsettle": 6043,
      "ĠBeat": 6044,
      "prise": 6045,
      "Ġinsurance": 6046,
      "Ġcompetitive": 6047,
      "Ġstrings": 6048,
      "Ġ1947": 6049,
      "ĠElizabeth": 6050,
      "ylv": 6051,
      "Ġweekend": 6052,
      "Ġcreative": 6053,
      "Ġfundam": 6054,
      "Ġsounds": 6055,
      "ĠEnter": 6056,
      "Ġcomponent": 6057,
      "Ġclosely": 6058,
      "Ġsemi": 6059,
      "porary": 6060,
      "Ġultimately": 6061,
      "Ġgravity": 6062,
      "ĠSweden": 6063,
      "ĠVenezuela": 6064,
      "ĠStephen": 6065,
      "ĠColorado": 6066,
      "ĠCatholic": 6067,
      "ĠJesus": 6068,
      "90": 6069,
      "crib": 6070,
      "iro": 6071,
      "oen": 6072,
      "hew": 6073,
      "inem": 6074,
      "Ġcab": 6075,
      "ellect": 6076,
      "Ġreform": 6077,
      "Ġgun": 6078,
      "Ġgross": 6079,
      "ivals": 6080,
      "ĠBon": 6081,
      "uted": 6082,
      "ĠNext": 6083,
      "ĠLion": 6084,
      "Ġseat": 6085,
      "ĠUC": 6086,
      "Ġarms": 6087,
      "Ġ1982": 6088,
      "Ġkept": 6089,
      "Ġexplore": 6090,
      "Ġinteresting": 6091,
      "puter": 6092,
      "ĠCommission": 6093,
      "Ġtesting": 6094,
      "Ġpremier": 6095,
      "ĠBasketball": 6096,
      "Ġnarrow": 6097,
      "Ġopponent": 6098,
      "ĠSydney": 6099,
      "Co": 6100,
      "ST": 6101,
      "Sc": 6102,
      "ja": 6103,
      "yo": 6104,
      "Éĳ": 6105,
      "Ġic": 6106,
      "Ġbot": 6107,
      "ĠCro": 6108,
      "Ġstim": 6109,
      "osure": 6110,
      "anta": 6111,
      "rie": 6112,
      "ource": 6113,
      "ultural": 6114,
      "Ġ36": 6115,
      "Ġscoring": 6116,
      "Ġgenerated": 6117,
      "Ġrepresents": 6118,
      "Ġdistributed": 6119,
      "ĠâĢĺ": 6120,
      "Ġslightly": 6121,
      "Ġphysics": 6122,
      "Ġvisiting": 6123,
      "Ġfocused": 6124,
      "ĠMinister": 6125,
      "Ġprinciple": 6126,
      "Ġmechanical": 6127,
      "unicip": 6128,
      "Ġmaximum": 6129,
      "ĠPakistan": 6130,
      "ĠScotland": 6131,
      "86": 6132,
      "bar": 6133,
      "elect": 6134,
      "Åį": 6135,
      "Ġ+": 6136,
      "Ġur": 6137,
      "Ġtort": 6138,
      "Ġtick": 6139,
      "Ġfile": 6140,
      "Ġflex": 6141,
      "ouston": 6142,
      "illy": 6143,
      "Ġliber": 6144,
      "Ġrein": 6145,
      "Ġrevers": 6146,
      "ĠCre": 6147,
      "ĠWhe": 6148,
      "Ġstories": 6149,
      "Ġstaff": 6150,
      "ĠRaj": 6151,
      "osaur": 6152,
      "Ġconcer": 6153,
      "Ġconference": 6154,
      "aven": 6155,
      "occo": 6156,
      "rix": 6157,
      "Ġchart": 6158,
      "Ġshoes": 6159,
      "Ġships": 6160,
      "Ġwheel": 6161,
      "oking": 6162,
      "ĠIndust": 6163,
      "Ġdecade": 6164,
      "Ġinstall": 6165,
      "Ġadding": 6166,
      "Ġcurrency": 6167,
      "Ġinfrastructure": 6168,
      "Ġsolution": 6169,
      "Ġdidn": 6170,
      "Ġplanned": 6171,
      "Ġtourist": 6172,
      "Ġ1939": 6173,
      "Ġpractices": 6174,
      "Ġthinking": 6175,
      "Ġproteins": 6176,
      "burgh": 6177,
      "Ġsubsequently": 6178,
      "ĠPortugal": 6179,
      "Ġopin": 6180,
      "Ġexercis": 6181,
      "thiop": 6182,
      "96": 6183,
      "Or": 6184,
      "PA": 6185,
      "Pro": 6186,
      "bow": 6187,
      "rome": 6188,
      "Ġtrou": 6189,
      "Ġsou": 6190,
      "Ġcra": 6191,
      "Ġpull": 6192,
      "Ġhop": 6193,
      "ĠTop": 6194,
      "etime": 6195,
      "ĠMov": 6196,
      "Ġforced": 6197,
      "ĠBull": 6198,
      "ĠHindu": 6199,
      "Ġorbit": 6200,
      "ĠRing": 6201,
      "ĠRow": 6202,
      "ĠNev": 6203,
      "ĠEp": 6204,
      "ĠEs": 6205,
      "Ġrival": 6206,
      "Ġkick": 6207,
      "aks": 6208,
      "Ġ32": 6209,
      "ĠHealth": 6210,
      "Ġactress": 6211,
      "Ġelectrons": 6212,
      "insula": 6213,
      "iox": 6214,
      "Ġbreeds": 6215,
      "uese": 6216,
      "Ġairport": 6217,
      "Ġcompetitions": 6218,
      "rade": 6219,
      "Ġinterested": 6220,
      "scape": 6221,
      "Ġinfluenced": 6222,
      "Ġmagnetic": 6223,
      "Ġenvironmental": 6224,
      "Ġexcell": 6225,
      "Ġanti": 6226,
      "Ġadults": 6227,
      "Ġpatterns": 6228,
      "Ġheavily": 6229,
      "ĠOsborne": 6230,
      "Ġneighborhood": 6231,
      "ĠVictor": 6232,
      "Ġupper": 6233,
      "Ã£o": 6234,
      ")]": 6235,
      "36": 6236,
      "AI": 6237,
      "PL": 6238,
      "ded": 6239,
      "lers": 6240,
      "nic": 6241,
      "pread": 6242,
      "uctor": 6243,
      "Ġ#": 6244,
      "instein": 6245,
      "Ġfear": 6246,
      "Ġreaction": 6247,
      "roke": 6248,
      "ĠGi": 6249,
      "ĠFame": 6250,
      "ĠDark": 6251,
      "ĠDrag": 6252,
      "ĠRod": 6253,
      "ĠElect": 6254,
      "ĠUN": 6255,
      "ella": 6256,
      "berries": 6257,
      "Ġkg": 6258,
      "peror": 6259,
      "Ġintellect": 6260,
      "velt": 6261,
      "angle": 6262,
      "Ġtrav": 6263,
      "ĠThrough": 6264,
      "indi": 6265,
      "cket": 6266,
      "Ġapply": 6267,
      "Ġacts": 6268,
      "Ġfinish": 6269,
      "Ġassum": 6270,
      "Ġcapable": 6271,
      "Ġserves": 6272,
      "Ġ1972": 6273,
      "Ġperforming": 6274,
      "Ġexplo": 6275,
      "Ġlawyer": 6276,
      "idespread": 6277,
      "Ġsecs": 6278,
      "Ġreducing": 6279,
      "Ġconnection": 6280,
      "ĠTeam": 6281,
      "Ġspecialized": 6282,
      "ĠPoland": 6283,
      "which": 6284,
      "Ġpurchased": 6285,
      "ĠBCE": 6286,
      "Ġcrypt": 6287,
      "ĠSteve": 6288,
      "Ġprincipal": 6289,
      "senal": 6290,
      "Ġheadquarters": 6291,
      "Ġrenew": 6292,
      "Ġfictional": 6293,
      "Ġorigins": 6294,
      "97": 6295,
      "Des": 6296,
      "ET": 6297,
      "eed": 6298,
      "iel": 6299,
      "vised": 6300,
      "ĠËĪ": 6301,
      "Ġwave": 6302,
      "Ġbact": 6303,
      "Ġpine": 6304,
      "Ġpiano": 6305,
      "Ġtooth": 6306,
      "leball": 6307,
      "ĠSpec": 6308,
      "ownt": 6309,
      "ĠMess": 6310,
      "ĠWeb": 6311,
      "ĠBir": 6312,
      "ĠPoint": 6313,
      "ĠFace": 6314,
      "ĠRol": 6315,
      "ĠNA": 6316,
      "osm": 6317,
      "Ġvul": 6318,
      "ĠChief": 6319,
      "under": 6320,
      "ilding": 6321,
      "Ġthemes": 6322,
      "Ġ180": 6323,
      "Ġcounty": 6324,
      "lete": 6325,
      "Ġactual": 6326,
      "Ġcaptain": 6327,
      "Ġowners": 6328,
      "Ġ1971": 6329,
      "afka": 6330,
      "ĠColomb": 6331,
      "Ġ1955": 6332,
      "Ġ1948": 6333,
      "Ġopposed": 6334,
      "ĠPrince": 6335,
      "shot": 6336,
      "Ġflowers": 6337,
      "Ġassociation": 6338,
      "ipped": 6339,
      "Ġregularly": 6340,
      "Ġfluor": 6341,
      "ĠUsing": 6342,
      "ĠKennedy": 6343,
      "ylvania": 6344,
      "'d": 6345,
      "During": 6346,
      "cia": 6347,
      "nce": 6348,
      "pres": 6349,
      "oni": 6350,
      "Ġsail": 6351,
      "Ġwidespread": 6352,
      "Ġhits": 6353,
      "Ġlosing": 6354,
      "Ġgro": 6355,
      "ĠCost": 6356,
      "Ġbeer": 6357,
      "Ġbeef": 6358,
      "ĠHong": 6359,
      "ĠHouston": 6360,
      "ĠFrid": 6361,
      "ĠRail": 6362,
      "Ġenab": 6363,
      "coin": 6364,
      "ĠYellow": 6365,
      "phas": 6366,
      "inton": 6367,
      "osevelt": 6368,
      "Ġgene": 6369,
      "Ġvariet": 6370,
      "ledon": 6371,
      "Ġrequest": 6372,
      "ounce": 6373,
      "Ġperiods": 6374,
      "Ġcausing": 6375,
      "ĠOrigin": 6376,
      "ĠMcD": 6377,
      "Ġconcent": 6378,
      "Ġmotiv": 6379,
      "Ġvacc": 6380,
      "Ġdefeat": 6381,
      "ĠApache": 6382,
      "Ġbonds": 6383,
      "Ġhouses": 6384,
      "ĠProvide": 6385,
      "Ġagreement": 6386,
      "Ġdinner": 6387,
      "ĠNadal": 6388,
      "Ġconflict": 6389,
      "Ġsandwich": 6390,
      "ĠOxford": 6391,
      "FT": 6392,
      "John": 6393,
      "cious": 6394,
      "va": 6395,
      "ye": 6396,
      "enge": 6397,
      "orrow": 6398,
      "Ġdiam": 6399,
      "Ġdynam": 6400,
      "Ġhyp": 6401,
      "ĠMes": 6402,
      "uts": 6403,
      "ĠPower": 6404,
      "ĠPrad": 6405,
      "oda": 6406,
      "ĠRay": 6407,
      "ĠNations": 6408,
      "opher": 6409,
      "Ġconver": 6410,
      "anted": 6411,
      "Ġunl": 6412,
      "Ġdoctor": 6413,
      "Ġpeace": 6414,
      "obal": 6415,
      "ĠSpring": 6416,
      "Ġshel": 6417,
      "Ġ1966": 6418,
      "Ġmarkets": 6419,
      "Ġtraditionally": 6420,
      "ĠSeparate": 6421,
      "Ġvisitors": 6422,
      "Ġrepresenting": 6423,
      "ĠMichigan": 6424,
      "ĠPhilipp": 6425,
      "Ġfigures": 6426,
      "ĠCharl": 6427,
      "Ġcontrolled": 6428,
      "Ġletters": 6429,
      "ĠStratocaster": 6430,
      "Ġsucceed": 6431,
      "55": 6432,
      "pur": 6433,
      "Ġsave": 6434,
      "atically": 6435,
      "isa": 6436,
      "Ġcas": 6437,
      "Ġfav": 6438,
      "Ġfelt": 6439,
      "Ġben": 6440,
      "Ġdiplom": 6441,
      "ĠTown": 6442,
      "ĠTrump": 6443,
      "Ġgrid": 6444,
      "Ġyes": 6445,
      "Ġwithd": 6446,
      "Ġran": 6447,
      "ĠKent": 6448,
      "upiter": 6449,
      "Ġadapt": 6450,
      "ĠVan": 6451,
      "Ġdiss": 6452,
      "Ġapple": 6453,
      "Ġproducing": 6454,
      "Ġaccur": 6455,
      "Ġmanage": 6456,
      "Ġdecline": 6457,
      "Ġinterview": 6458,
      "Ġexpress": 6459,
      "Ġmovements": 6460,
      "Ġmyth": 6461,
      "ĠWarri": 6462,
      "Ġdesignated": 6463,
      "Ġexperim": 6464,
      "Ġvalid": 6465,
      "Ġoperated": 6466,
      "ynast": 6467,
      "Ġmagnet": 6468,
      "Ġrelationships": 6469,
      "ĠCaptain": 6470,
      "Ġtreatment": 6471,
      "Ġcryst": 6472,
      "imbledon": 6473,
      "Ġrapidly": 6474,
      "Ġvirtual": 6475,
      "ĠColumbia": 6476,
      "Ġvoice": 6477,
      "From": 6478,
      "hatt": 6479,
      "lades": 6480,
      "oa": 6481,
      "Ã±": 6482,
      "ĠÂ": 6483,
      "Ġmis": 6484,
      "Ġmouth": 6485,
      "asman": 6486,
      "ĠTok": 6487,
      "ĠTiger": 6488,
      "ĠSri": 6489,
      "eters": 6490,
      "ĠCir": 6491,
      "ĠIraq": 6492,
      "idency": 6493,
      "ĠML": 6494,
      "ĠMid": 6495,
      "ĠMand": 6496,
      "Ġstap": 6497,
      "ĠPre": 6498,
      "ĠHung": 6499,
      "unc": 6500,
      "ĠFe": 6501,
      "ĠLike": 6502,
      "ĠEld": 6503,
      "ĠEven": 6504,
      "ĠEconom": 6505,
      "Ġcompar": 6506,
      "ghan": 6507,
      "Ġteen": 6508,
      "rance": 6509,
      "phabet": 6510,
      "Ġconsult": 6511,
      "tenance": 6512,
      "Ġsmart": 6513,
      "Ġpolic": 6514,
      "Ġmedal": 6515,
      "ĠConst": 6516,
      "Ġlegs": 6517,
      "ĠProt": 6518,
      "Ġoffering": 6519,
      "Ġholes": 6520,
      "Ġcategory": 6521,
      "Ġpurposes": 6522,
      "Ġstrike": 6523,
      "Ġprepare": 6524,
      "Ġrestaurant": 6525,
      "ĠSecurity": 6526,
      "Ġmessage": 6527,
      "Ġutil": 6528,
      "ĠPersian": 6529,
      "Ġspectrum": 6530,
      "Ġacademic": 6531,
      "All": 6532,
      "By": 6533,
      "Cl": 6534,
      "One": 6535,
      "bec": 6536,
      "gu": 6537,
      "iency": 6538,
      "sylvania": 6539,
      "atar": 6540,
      "Ġfaced": 6541,
      "Ġple": 6542,
      "Ġpione": 6543,
      "icit": 6544,
      "Ġdating": 6545,
      "Ġhuge": 6546,
      "ĠSat": 6547,
      "Ġthick": 6548,
      "ĠBos": 6549,
      "ĠLie": 6550,
      "ĠLiber": 6551,
      "Ġvast": 6552,
      "ĠJul": 6553,
      "ĠOsc": 6554,
      "Ġcompos": 6555,
      "ĠStand": 6556,
      "ups": 6557,
      "Ġmeal": 6558,
      "Ġclothing": 6559,
      "Ġneither": 6560,
      "Ġprepar": 6561,
      "oyd": 6562,
      "Ġamazing": 6563,
      "ribute": 6564,
      "ĠArm": 6565,
      "Ġextensive": 6566,
      "Ġentry": 6567,
      "Ġ1976": 6568,
      "Ġdepict": 6569,
      "Ġexpert": 6570,
      "Ġprofession": 6571,
      "Ġdescribes": 6572,
      "Ġpotatoes": 6573,
      "Ġpromoted": 6574,
      "Ġcharacterized": 6575,
      "Ġguid": 6576,
      "Ġguitarist": 6577,
      "Ġtournaments": 6578,
      "Ġexistence": 6579,
      "Ġcommunicate": 6580,
      "ĠDelhi": 6581,
      "ĠSolar": 6582,
      "wiki": 6583,
      "wikipedia": 6584,
      "ĠFoundation": 6585,
      "Ġspirit": 6586,
      "Ġdedicated": 6587,
      "RO": 6588,
      "She": 6589,
      "yan": 6590,
      "ĠTre": 6591,
      "ĠTyp": 6592,
      "Ġlots": 6593,
      "ĠSund": 6594,
      "ĠAud": 6595,
      "oln": 6596,
      "ationally": 6597,
      "ĠBad": 6598,
      "ĠGre": 6599,
      "ĠGram": 6600,
      "ĠDan": 6601,
      "ĠRad": 6602,
      "oper": 6603,
      "ĠLater": 6604,
      "ĠLee": 6605,
      "Ġconsequ": 6606,
      "ĠEthiop": 6607,
      "Ġseed": 6608,
      "Ġshares": 6609,
      "Ġnotes": 6610,
      "Ġresident": 6611,
      "oven": 6612,
      "Ġcolle": 6613,
      "inson": 6614,
      "Ġrelative": 6615,
      "Ġnews": 6616,
      "ĠSports": 6617,
      "Ġinteract": 6618,
      "axy": 6619,
      "Ġgrape": 6620,
      "Ġleads": 6621,
      "Ġseconds": 6622,
      "Ġbackground": 6623,
      "Ġ1961": 6624,
      "incoln": 6625,
      "Ġvaluable": 6626,
      "Ġtradition": 6627,
      "Ġmarathon": 6628,
      "Ġcombat": 6629,
      "ĠBoard": 6630,
      "Ġhotel": 6631,
      "ĠRoosevelt": 6632,
      "Ġversions": 6633,
      "ospital": 6634,
      "ĠRepublican": 6635,
      "Ġdatas": 6636,
      "Ġhorse": 6637,
      "ĠNorway": 6638,
      "Ġarrived": 6639,
      "Ġdoub": 6640,
      "aturally": 6641,
      "Ġcamera": 6642,
      "Ġorders": 6643,
      "allel": 6644,
      "ibbean": 6645,
      "ĠPennsylvania": 6646,
      "ladesh": 6647,
      "Gen": 6648,
      "How": 6649,
      "den": 6650,
      "fess": 6651,
      "ias": 6652,
      "ns": 6653,
      "hent": 6654,
      "Ġcensus": 6655,
      "Ġwet": 6656,
      "itro": 6657,
      "Ġble": 6658,
      "Ġbull": 6659,
      "Ġmart": 6660,
      "Ġhom": 6661,
      "ĠIv": 6662,
      "ĠMr": 6663,
      "Ġyield": 6664,
      "oding": 6665,
      "ĠNic": 6666,
      "ĠLife": 6667,
      "ĠLamb": 6668,
      "pping": 6669,
      "Ġspan": 6670,
      "Ġarran": 6671,
      "Ġrecre": 6672,
      "ĠIndepend": 6673,
      "Ġformation": 6674,
      "athlon": 6675,
      "Ġdrama": 6676,
      "ronic": 6677,
      "ĠDead": 6678,
      "Ġremote": 6679,
      "Ġownership": 6680,
      "Ġ1958": 6681,
      "Ġideal": 6682,
      "Ġtraveling": 6683,
      "istered": 6684,
      "ficial": 6685,
      "Ġcampus": 6686,
      "Ġissued": 6687,
      "Ġfunds": 6688,
      "ĠDelta": 6689,
      "ĠPeru": 6690,
      "Ġcredited": 6691,
      "Ġfighting": 6692,
      "Ġmillenn": 6693,
      "Ġhappened": 6694,
      "Ġuniversities": 6695,
      "Ġhundreds": 6696,
      "ĠUtah": 6697,
      "ĠTreaty": 6698,
      "Ġschedul": 6699,
      "AR": 6700,
      "come": 6701,
      "ds": 6702,
      "from": 6703,
      "pop": 6704,
      "ship": 6705,
      "ÊĬ": 6706,
      "Ġtables": 6707,
      "ito": 6708,
      "Ġboy": 6709,
      "Ġpush": 6710,
      "Ġmic": 6711,
      "Ġnaturally": 6712,
      "ĠMarg": 6713,
      "ĠWork": 6714,
      "ĠWalk": 6715,
      "ĠFall": 6716,
      "ĠFive": 6717,
      "ĠLank": 6718,
      "earl": 6719,
      "ĠStadium": 6720,
      "Ġnoted": 6721,
      "Ġnothing": 6722,
      "Ġnotably": 6723,
      "Ġresistance": 6724,
      "Ġelectro": 6725,
      "Ġfeat": 6726,
      "Ġphase": 6727,
      "Ġdecide": 6728,
      "Ġassess": 6729,
      "Ġwinners": 6730,
      "Ġpassing": 6731,
      "Ġexped": 6732,
      "iously": 6733,
      "Ġ1962": 6734,
      "Ġvisited": 6735,
      "Ġautism": 6736,
      "Ġapart": 6737,
      "Ġairpl": 6738,
      "Ġexperiences": 6739,
      "Ġedge": 6740,
      "Ġ1949": 6741,
      "ĠCaribbean": 6742,
      "comp": 6743,
      "Ġbusinesses": 6744,
      "Ġcontrols": 6745,
      "ĠParliament": 6746,
      "Ġchanging": 6747,
      "ĠCountry": 6748,
      "Ġelimin": 6749,
      "ĠSoft": 6750,
      "Ġhappens": 6751,
      "Ġattempts": 6752,
      "Ġintegration": 6753,
      "Ġcopies": 6754,
      "Ġjourney": 6755,
      "ĠDevelopment": 6756,
      "62": 6757,
      "AC": 6758,
      "iat": 6759,
      "mas": 6760,
      "no": 6761,
      "ĠÐ": 6762,
      "Ġoven": 6763,
      "Ġfell": 6764,
      "Ġpul": 6765,
      "Ġpand": 6766,
      "Ġdough": 6767,
      "Ġhall": 6768,
      "ĠAS": 6769,
      "ĠAst": 6770,
      "Ġgases": 6771,
      "ĠCold": 6772,
      "ceived": 6773,
      "ĠMun": 6774,
      "ĠWomen": 6775,
      "ĠWimbledon": 6776,
      "Ġbears": 6777,
      "ĠBat": 6778,
      "ĠPink": 6779,
      "ĠDub": 6780,
      "ĠNap": 6781,
      "Ġriding": 6782,
      "ogy": 6783,
      "ĠKafka": 6784,
      "ĠStra": 6785,
      "Ġenh": 6786,
      "Ġrocks": 6787,
      "oves": 6788,
      "Ġ49": 6789,
      "Ġnewly": 6790,
      "ĠArsenal": 6791,
      "Ġanyone": 6792,
      "Ġcrew": 6793,
      "Ġreports": 6794,
      "Ġmeters": 6795,
      "ĠShiv": 6796,
      "ernal": 6797,
      "ĠDef": 6798,
      "ucks": 6799,
      "ĠAtt": 6800,
      "Ġclassic": 6801,
      "ĠProject": 6802,
      "Ġequivalent": 6803,
      "Ġinvolve": 6804,
      "Ġprotection": 6805,
      "ĠSocial": 6806,
      "ĠMadrid": 6807,
      "Ġbroadcast": 6808,
      "forcement": 6809,
      "Ġopportunities": 6810,
      "Ġphilosophy": 6811,
      "Main": 6812,
      "care": 6813,
      "tical": 6814,
      "anj": 6815,
      "arat": 6816,
      "arant": 6817,
      "Ġlibrary": 6818,
      "ĠMat": 6819,
      "igs": 6820,
      "ĠBry": 6821,
      "uty": 6822,
      "Ġstations": 6823,
      "ĠPost": 6824,
      "ĠNiger": 6825,
      "Ġvaries": 6826,
      "ordin": 6827,
      "Ġresorts": 6828,
      "Ġweak": 6829,
      "Ġrais": 6830,
      "Ġraise": 6831,
      "2017": 6832,
      "Ġlock": 6833,
      "Ġmanner": 6834,
      "Ġcreates": 6835,
      "ĠShow": 6836,
      "Ġpoly": 6837,
      "Ġshell": 6838,
      "ĠĠĠ": 6839,
      "Ġ1959": 6840,
      "Ġcomputing": 6841,
      "Ġsupporting": 6842,
      "apping": 6843,
      "Ġinvestig": 6844,
      "Ġfocuses": 6845,
      "Ġcharges": 6846,
      "Ġhousing": 6847,
      "ĠBangladesh": 6848,
      "Ġathletes": 6849,
      "ĠLucas": 6850,
      "Ġkitchen": 6851,
      "Ġroughly": 6852,
      "Ġpermanent": 6853,
      "ĠBeatles": 6854,
      "ĠFriday": 6855,
      "ĠPradesh": 6856,
      "hattan": 6857,
      "Ġpolicies": 6858,
      ".)": 6859,
      "33": 6860,
      "42": 6861,
      "BO": 6862,
      "HL": 6863,
      "Se": 6864,
      "aik": 6865,
      "gian": 6866,
      "haps": 6867,
      "person": 6868,
      "pris": 6869,
      "rin": 6870,
      "rant": 6871,
      "Ġsac": 6872,
      "Ġsister": 6873,
      "anes": 6874,
      "Ġburn": 6875,
      "Ġinaug": 6876,
      "omy": 6877,
      "oming": 6878,
      "endar": 6879,
      "ĠTower": 6880,
      "Ġly": 6881,
      "ĠSet": 6882,
      "ĠSega": 6883,
      "rozen": 6884,
      "Ġthin": 6885,
      "ĠMagn": 6886,
      "iga": 6887,
      "ĠBird": 6888,
      "ĠBrad": 6889,
      "ĠHur": 6890,
      "vere": 6891,
      "ĠDou": 6892,
      "osen": 6893,
      "ĠLincoln": 6894,
      "ocated": 6895,
      "abad": 6896,
      "Ġsector": 6897,
      "Ġplenty": 6898,
      "appe": 6899,
      "Ġcomposition": 6900,
      "ĠStart": 6901,
      "Ġmeant": 6902,
      "Ġ34": 6903,
      "Ġdesired": 6904,
      "Ġtheme": 6905,
      "Ġgenes": 6906,
      "Ġfounding": 6907,
      "Ġminister": 6908,
      "romagn": 6909,
      "Ġinfect": 6910,
      "Ġtopic": 6911,
      "Ġsixth": 6912,
      "Ġfreedom": 6913,
      "umbai": 6914,
      "artered": 6915,
      "ercury": 6916,
      "Ġpayment": 6917,
      "ĠFranklin": 6918,
      "nesota": 6919,
      "Ġsubsequent": 6920,
      "ĠTemple": 6921,
      "hentic": 6922,
      "85": 6923,
      "De": 6924,
      "Mar": 6925,
      "So": 6926,
      "Sw": 6927,
      "bury": 6928,
      "brid": 6929,
      "https": 6930,
      "vements": 6931,
      "ndom": 6932,
      "Ġsed": 6933,
      "Ġce": 6934,
      "Ġcro": 6935,
      "Ġcock": 6936,
      "Ġwars": 6937,
      "Ġmale": 6938,
      "icious": 6939,
      "ĠTest": 6940,
      "ĠToday": 6941,
      "Ġlakes": 6942,
      "ĠSever": 6943,
      "ami": 6944,
      "amber": 6945,
      "ĠCop": 6946,
      "oli": 6947,
      "ĠWalt": 6948,
      "Ġonto": 6949,
      "ĠBus": 6950,
      "ĠPick": 6951,
      "ĠFred": 6952,
      "ĠFestival": 6953,
      "thur": 6954,
      "ĠNick": 6955,
      "ĠLes": 6956,
      "ardo": 6957,
      "ĠStory": 6958,
      "Ġpartners": 6959,
      "phant": 6960,
      "Ġrandom": 6961,
      "ĠIndones": 6962,
      "Ġnoise": 6963,
      "iveness": 6964,
      "Ġskate": 6965,
      "Ġbrew": 6966,
      "Ġengineers": 6967,
      "ĠCommun": 6968,
      "Ġafford": 6969,
      "Ġcooked": 6970,
      "Ġhistoric": 6971,
      "idae": 6972,
      "Ġhosted": 6973,
      "Ġclaims": 6974,
      "While": 6975,
      "Ġreviews": 6976,
      "Ġabsor": 6977,
      "Ġbatting": 6978,
      "Ġagreed": 6979,
      "Ġvocal": 6980,
      "Ġexactly": 6981,
      "Ġsusp": 6982,
      "Ġcandidate": 6983,
      "ĠRoger": 6984,
      "ĠBuddh": 6985,
      "Ġvulner": 6986,
      "Ġvarieties": 6987,
      "Ge": 6988,
      "bes": 6989,
      "fire": 6990,
      "iary": 6991,
      "kins": 6992,
      "rating": 6993,
      "Ġaf": 6994,
      "Ġtherapy": 6995,
      "Ġcm": 6996,
      "Ġcart": 6997,
      "orge": 6998,
      "Ġmist": 6999,
      "asure": 7000,
      "Ġtold": 7001,
      "Ġdownt": 7002,
      "Ġlift": 7003,
      "racy": 7004,
      "Ġbeaches": 7005,
      "Ġalt": 7006,
      "ĠFood": 7007,
      "ĠRel": 7008,
      "Ġconqu": 7009,
      "ĠEv": 7010,
      "Ġproced": 7011,
      "Ġhem": 7012,
      "ĠJean": 7013,
      "ĠUniverse": 7014,
      "Ġroot": 7015,
      "away": 7016,
      "Ġattached": 7017,
      "Ġtransactions": 7018,
      "anguage": 7019,
      "Ġmoves": 7020,
      "Ġ1978": 7021,
      "Ġretail": 7022,
      "nament": 7023,
      "ĠExp": 7024,
      "ĠAustin": 7025,
      "Ġ1957": 7026,
      "Ġstanding": 7027,
      "Ġalongside": 7028,
      "Ġobjective": 7029,
      "Ġstatistical": 7030,
      "Ġcrime": 7031,
      "Ġyounger": 7032,
      "Ġgradually": 7033,
      "Ġsuggested": 7034,
      "related": 7035,
      "Ġcrisis": 7036,
      "Ġexperienced": 7037,
      "Ġnewspaper": 7038,
      "Ġfundamental": 7039,
      "NT": 7040,
      "PU": 7041,
      "bi": 7042,
      "ding": 7043,
      "feld": 7044,
      "mouth": 7045,
      "night": 7046,
      "wo": 7047,
      "Ġtal": 7048,
      "Ġtail": 7049,
      "Ġwal": 7050,
      "Ġfoss": 7051,
      "Ġfilled": 7052,
      "Ġtoward": 7053,
      "ĠTel": 7054,
      "ĠTasman": 7055,
      "ĠImp": 7056,
      "ĠBru": 7057,
      "erse": 7058,
      "ĠFant": 7059,
      "Ġitem": 7060,
      "ĠLine": 7061,
      "ĠEduc": 7062,
      "keep": 7063,
      "Ġusage": 7064,
      "Ġshut": 7065,
      "Ġshall": 7066,
      "ĠIns": 7067,
      "Ġinches": 7068,
      "Ġabst": 7069,
      "Ġresort": 7070,
      "Ġweigh": 7071,
      "inding": 7072,
      "Ġscene": 7073,
      "wegian": 7074,
      "Ġdisorder": 7075,
      "Ġ48": 7076,
      "Ġloan": 7077,
      "ĠLeb": 7078,
      "ĠLeon": 7079,
      "Ġefforts": 7080,
      "Ġmedals": 7081,
      "ĠExamples": 7082,
      "Ġfinding": 7083,
      "Ġpolitics": 7084,
      "2008": 7085,
      "ographical": 7086,
      "Ġindustries": 7087,
      "Ġwindows": 7088,
      "Ġmagnitude": 7089,
      "affe": 7090,
      "Ġfrequency": 7091,
      "ĠMorocco": 7092,
      "Ġreligion": 7093,
      "ĠCurrent": 7094,
      "ĠMagic": 7095,
      "ĠWinter": 7096,
      "ĠPortuguese": 7097,
      "Ġinhabit": 7098,
      "ĠJefferson": 7099,
      "Ġmammals": 7100,
      "ĠHemisphere": 7101,
      "Ġphrase": 7102,
      "Ġcuisine": 7103,
      "ĠEntertainment": 7104,
      "lt": 7105,
      "oons": 7106,
      "Ġtube": 7107,
      "Ġax": 7108,
      "hedu": 7109,
      "Ġcake": 7110,
      "arth": 7111,
      "Ġped": 7112,
      "Ġpets": 7113,
      "Ġplease": 7114,
      "Ġmal": 7115,
      "ĠTri": 7116,
      "Ġlies": 7117,
      "Ġnor": 7118,
      "ĠBridge": 7119,
      "ĠPass": 7120,
      "ĠGet": 7121,
      "ĠLet": 7122,
      "ĠLim": 7123,
      "Ġyouth": 7124,
      "ĠEst": 7125,
      "ĠEag": 7126,
      "ĠEaster": 7127,
      "ĠEinstein": 7128,
      "Ġrom": 7129,
      "Ġseems": 7130,
      "ĠJupiter": 7131,
      "Ġexclus": 7132,
      "Ġspons": 7133,
      "ĠCho": 7134,
      "ultane": 7135,
      "Ġcluster": 7136,
      "Ġotherwise": 7137,
      "Ġroads": 7138,
      "Ġgenome": 7139,
      "Ġages": 7140,
      "Ġ400": 7141,
      "Ġaccel": 7142,
      "Ġinvent": 7143,
      "Ġunderlying": 7144,
      "Ġtransistor": 7145,
      "Ġmaintenance": 7146,
      "Ġgovernments": 7147,
      "Ġsunlight": 7148,
      "Ġbright": 7149,
      "Ġcircle": 7150,
      "Ġdebt": 7151,
      "ĠManhattan": 7152,
      "ucky": 7153,
      "ĠMinnesota": 7154,
      "Ġdiagn": 7155,
      "sterdam": 7156,
      "Ġfailure": 7157,
      "ĠGlobal": 7158,
      "Ġentirely": 7159,
      "Ġbehavi": 7160,
      "Ġimmig": 7161,
      "Ġprompting": 7162,
      "Ġchallenging": 7163,
      "Ġtower": 7164,
      "Ġsubstant": 7165,
      "Ġcomfortable": 7166,
      "Ġpandemic": 7167,
      "hedule": 7168,
      "91": 7169,
      "DI": 7170,
      "des": 7171,
      "fare": 7172,
      "kar": 7173,
      "run": 7174,
      "uan": 7175,
      "inch": 7176,
      "Ġmunicip": 7177,
      "Ġham": 7178,
      "ĠSide": 7179,
      "ĠCreek": 7180,
      "urrent": 7181,
      "ĠBack": 7182,
      "ĠHistor": 7183,
      "Ġyoga": 7184,
      "ĠGib": 7185,
      "ĠDoes": 7186,
      "osh": 7187,
      "ĠLi": 7188,
      "Ġvine": 7189,
      "ĠJiang": 7190,
      "Ġchampions": 7191,
      "ogue": 7192,
      "Ġshif": 7193,
      "Ġshorter": 7194,
      "akh": 7195,
      "ĠStat": 7196,
      "ĠChile": 7197,
      "Ġadap": 7198,
      "Ġimages": 7199,
      "Ġarmy": 7200,
      "Ġrose": 7201,
      "Ġeval": 7202,
      "ova": 7203,
      "Ġgenres": 7204,
      "Ġindoor": 7205,
      "Ġearn": 7206,
      "Ġinteraction": 7207,
      "Ġfinance": 7208,
      "Ġfoundation": 7209,
      "Ġvariations": 7210,
      "enna": 7211,
      "Ġ1967": 7212,
      "Ġsolutions": 7213,
      "ĠPhoen": 7214,
      "ĠHarvard": 7215,
      "Ġimproved": 7216,
      "Ġdebate": 7217,
      "Ġtrend": 7218,
      "Ġvolcan": 7219,
      "Ġmixture": 7220,
      "Ġdetermined": 7221,
      "Ġgraduated": 7222,
      "Ġcloser": 7223,
      "ĠAnton": 7224,
      "Ġintegrated": 7225,
      "Ġpercentage": 7226,
      "Ġdominant": 7227,
      "ĠKorean": 7228,
      "Ġprinciples": 7229,
      "Ġtuning": 7230,
      "Ġcorner": 7231,
      "Ġpilot": 7232,
      "Ġobtained": 7233,
      "ĠGovernment": 7234,
      "ĠVegas": 7235,
      "Ġresearchers": 7236,
      "Ġseventh": 7237,
      "ĠGandhi": 7238,
      "ĠWarriors": 7239,
      "ynasty": 7240,
      "'.": 7241,
      "Born": 7242,
      "DA": 7243,
      "bal": 7244,
      "cers": 7245,
      "friend": 7246,
      "hall": 7247,
      "lies": 7248,
      "heastern": 7249,
      "inot": 7250,
      "anas": 7251,
      "Ġfab": 7252,
      "Ġhoney": 7253,
      "Ġthrow": 7254,
      "ĠChen": 7255,
      "ĠCross": 7256,
      "ĠIron": 7257,
      "ushed": 7258,
      "ĠHor": 7259,
      "ĠHun": 7260,
      "Ġanx": 7261,
      "ĠFurther": 7262,
      "ĠDam": 7263,
      "ĠDig": 7264,
      "ĠLiver": 7265,
      "Ġvit": 7266,
      "ocation": 7267,
      "abil": 7268,
      "Ġleagues": 7269,
      "oodle": 7270,
      "Ġjazz": 7271,
      "Ġroast": 7272,
      "Ġspeak": 7273,
      "Ġdefensive": 7274,
      "Ġemb": 7275,
      "Ġparallel": 7276,
      "Ġvision": 7277,
      "Ġlights": 7278,
      "Ġfacts": 7279,
      "orps": 7280,
      "ĠAllen": 7281,
      "Ġtrig": 7282,
      "Ġterrain": 7283,
      "ĠSupreme": 7284,
      "Ġcircum": 7285,
      "Ġbreakfast": 7286,
      "ĠMalays": 7287,
      "Ġsuccessfully": 7288,
      "Ġfigs": 7289,
      "Ġsituations": 7290,
      "Ġfriendly": 7291,
      "Ġdelivery": 7292,
      "Ġbirthday": 7293,
      "Ġadministrative": 7294,
      "Ġmathematics": 7295,
      "ĠMachine": 7296,
      "Ġscholars": 7297,
      "ĠCambridge": 7298,
      "Ġintellectual": 7299,
      "ĠColombia": 7300,
      "unciation": 7301,
      "41": 7302,
      "46": 7303,
      "ML": 7304,
      "Ð°": 7305,
      "Ġcrow": 7306,
      "Ġmile": 7307,
      "Ġdream": 7308,
      "ĠSau": 7309,
      "Ġrear": 7310,
      "Ġreact": 7311,
      "Ġrenamed": 7312,
      "Ġgiant": 7313,
      "ĠIrish": 7314,
      "urg": 7315,
      "ĠBorn": 7316,
      "ĠHockey": 7317,
      "Ġalle": 7318,
      "ĠNatural": 7319,
      "opol": 7320,
      "Ġdeck": 7321,
      "antly": 7322,
      "Ġchosen": 7323,
      "ĠOd": 7324,
      "Ġcompl": 7325,
      "Ġteeth": 7326,
      "rane": 7327,
      "inder": 7328,
      "ruit": 7329,
      "Ġraces": 7330,
      "Ġapples": 7331,
      "2020": 7332,
      "Ġboot": 7333,
      "Ġsubsc": 7334,
      "ronze": 7335,
      "Ġsurpass": 7336,
      "ĠSeven": 7337,
      "Ġ99": 7338,
      "Ġbases": 7339,
      "cery": 7340,
      "Ġ1941": 7341,
      "Ġcompletion": 7342,
      "Ġpractical": 7343,
      "Ġsteel": 7344,
      "Ġfalls": 7345,
      "ĠWilliams": 7346,
      "Ġmaintained": 7347,
      "Ġresource": 7348,
      "Ġbeauty": 7349,
      "Ã¡n": 7350,
      "Ġslowly": 7351,
      "ĠPatri": 7352,
      "Ġperspective": 7353,
      "Ġmagazine": 7354,
      "ĠArabic": 7355,
      "ĠWoods": 7356,
      "Ġholidays": 7357,
      "Ġsustain": 7358,
      "tuning": 7359,
      "Ġexercises": 7360,
      ".:": 7361,
      "aver": 7362,
      "dr": 7363,
      "hard": 7364,
      "uum": 7365,
      "ãĥ": 7366,
      "Ġ*": 7367,
      "Ġaid": 7368,
      "inity": 7369,
      "Ġsays": 7370,
      "Ġware": 7371,
      "Ġpra": 7372,
      "Ġpairs": 7373,
      "Ġisn": 7374,
      "ĠSn": 7375,
      "eless": 7376,
      "ĠAC": 7377,
      "ĠCelt": 7378,
      "iden": 7379,
      "idation": 7380,
      "idge": 7381,
      "ĠPict": 7382,
      "ĠLew": 7383,
      "Ġseats": 7384,
      "sey": 7385,
      "Ġleaf": 7386,
      "Ġunion": 7387,
      "luded": 7388,
      "Ġneur": 7389,
      "Ġknew": 7390,
      "Ġcommission": 7391,
      "Ġampl": 7392,
      "issions": 7393,
      "ugg": 7394,
      "Ġsmooth": 7395,
      "Ġasset": 7396,
      "Ġdepart": 7397,
      "ĠPhys": 7398,
      "Ġstream": 7399,
      "ĠPrinc": 7400,
      "Ġpromote": 7401,
      "Ġlowest": 7402,
      "Ġsites": 7403,
      "ĠEdward": 7404,
      "Ġemployed": 7405,
      "Ġholding": 7406,
      "Ġtests": 7407,
      "ĠSlam": 7408,
      "ĠPrix": 7409,
      "Ġcharging": 7410,
      "Ġborders": 7411,
      "Ġjobs": 7412,
      "Ġcopper": 7413,
      "Ġdelivered": 7414,
      "Ġcontributions": 7415,
      "Ġaffected": 7416,
      "ĠSecret": 7417,
      "Ġtomato": 7418,
      "ĠBengal": 7419,
      "Ġteacher": 7420,
      "ĠBelgium": 7421,
      "ÉĳËĲ": 7422,
      "Ġsoup": 7423,
      "95": 7424,
      "fol": 7425,
      "father": 7426,
      "ho": 7427,
      "long": 7428,
      "rame": 7429,
      "rants": 7430,
      "ÉĶ": 7431,
      "Ø§": 7432,
      "Ġtub": 7433,
      "Ġinequ": 7434,
      "Ġdress": 7435,
      "otam": 7436,
      "ilit": 7437,
      "Ġlin": 7438,
      "stood": 7439,
      "Ġreign": 7440,
      "Ġstages": 7441,
      "ĠPo": 7442,
      "ĠHal": 7443,
      "unior": 7444,
      "ifies": 7445,
      "ĠField": 7446,
      "ĠDun": 7447,
      "ĠNa": 7448,
      "ĠNar": 7449,
      "opotam": 7450,
      "ĠLear": 7451,
      "ĠKer": 7452,
      "ipel": 7453,
      "ĠStock": 7454,
      "rypt": 7455,
      "anyon": 7456,
      "ricted": 7457,
      "Ġunknown": 7458,
      "ffect": 7459,
      "Ġtrains": 7460,
      "ildren": 7461,
      "oving": 7462,
      "Ġactors": 7463,
      "hips": 7464,
      "Ġaccomp": 7465,
      "Ġlists": 7466,
      "Ġdecor": 7467,
      "iolet": 7468,
      "Ġemphas": 7469,
      "ĠShan": 7470,
      "Ġ150": 7471,
      "Ġreceiving": 7472,
      "Ġfewer": 7473,
      "Ġprotocol": 7474,
      "ĠMusk": 7475,
      "Ġavailability": 7476,
      "Ġviewed": 7477,
      "Ġradiation": 7478,
      "Ġfunctional": 7479,
      "Ġranking": 7480,
      "Ġvegetable": 7481,
      "Ġcoastal": 7482,
      "Ġcontributed": 7483,
      "Ġangle": 7484,
      "Ġrailway": 7485,
      "ĠPelÃ©": 7486,
      "Ġhorizon": 7487,
      "ĠNepal": 7488,
      "Ġminerals": 7489,
      "ĠUkraine": 7490,
      "ĠLinux": 7491,
      "ĠNevada": 7492,
      "Ġexcellent": 7493,
      "\"),": 7494,
      "63": 7495,
      "92": 7496,
      "TO": 7497,
      "cest": 7498,
      "chest": 7499,
      "da": 7500,
      "iot": 7501,
      "ji": 7502,
      "kin": 7503,
      "nel": 7504,
      "rig": 7505,
      "zing": 7506,
      "Ġign": 7507,
      "Ġsan": 7508,
      "Ġfa": 7509,
      "Ġmit": 7510,
      "icing": 7511,
      "Ġlas": 7512,
      "roid": 7513,
      "ĠCle": 7514,
      "tered": 7515,
      "ĠGirl": 7516,
      "Ġ1920": 7517,
      "Ġheard": 7518,
      "ĠJess": 7519,
      "Ġexam": 7520,
      "ĠOak": 7521,
      "ogan": 7522,
      "ĠKings": 7523,
      "ĠKey": 7524,
      "oker": 7525,
      "ĠThus": 7526,
      "Ġreserv": 7527,
      "Ġdismiss": 7528,
      "Ġevolved": 7529,
      "2010": 7530,
      "2023": 7531,
      "Ġgenetic": 7532,
      "Ġdecre": 7533,
      "Ġdecay": 7534,
      "Ġpresidency": 7535,
      "Ġexternal": 7536,
      "Ġtransaction": 7537,
      "Ġdevelopers": 7538,
      "ancer": 7539,
      "Ġvisible": 7540,
      "onto": 7541,
      "Ġengaged": 7542,
      "Ġexperiment": 7543,
      "Ġlands": 7544,
      "ĠAfghan": 7545,
      "Ġseek": 7546,
      "anna": 7547,
      "ĠEarly": 7548,
      "Ġ1933": 7549,
      "ĠMuslim": 7550,
      "ĠFinancial": 7551,
      "Ġkeeping": 7552,
      "zech": 7553,
      "Ġformerly": 7554,
      "Ġstatement": 7555,
      "Ġsteam": 7556,
      "Ġsteak": 7557,
      "Ġportion": 7558,
      "ĠRomania": 7559,
      "Ġcardi": 7560,
      "Ġregarding": 7561,
      "opped": 7562,
      "Ġsaying": 7563,
      "Ġparticipate": 7564,
      "Ġpopulations": 7565,
      "ĠContin": 7566,
      "Ġsatell": 7567,
      "Ġkingdom": 7568,
      "Ġsilver": 7569,
      "Ġtransferred": 7570,
      "Ġinjury": 7571,
      "Ġmillions": 7572,
      "Ġconcerns": 7573,
      "Ġmathematical": 7574,
      "Ġpronunciation": 7575,
      "Ġnortheast": 7576,
      "ioxide": 7577,
      "Ġmartial": 7578,
      "%.": 7579,
      "43": 7580,
      "Famous": 7581,
      "Man": 7582,
      "hop": 7583,
      "pher": 7584,
      "uce": 7585,
      "world": 7586,
      "western": 7587,
      "erg": 7588,
      "onna": 7589,
      "Ġcraft": 7590,
      "Ġpupp": 7591,
      "Ġmarg": 7592,
      "ĠTun": 7593,
      "ĠTai": 7594,
      "ĠCall": 7595,
      "ĠCard": 7596,
      "ĠCanyon": 7597,
      "ĠWell": 7598,
      "ersion": 7599,
      "ĠPC": 7600,
      "iffer": 7601,
      "ĠGran": 7602,
      "emble": 7603,
      "ĠDj": 7604,
      "ĠDall": 7605,
      "ĠDaniel": 7606,
      "ĠNik": 7607,
      "ĠLo": 7608,
      "Ġhear": 7609,
      "ĠJenn": 7610,
      "Ġexcess": 7611,
      "eller": 7612,
      "Ġshop": 7613,
      "Ġshift": 7614,
      "Ġspr": 7615,
      "Ġdoors": 7616,
      "Ġschedule": 7617,
      "Ġformally": 7618,
      "Ġdriven": 7619,
      "Ġsimultane": 7620,
      "ĠSciences": 7621,
      "ĠBefore": 7622,
      "ĠAmsterdam": 7623,
      "Ġphysic": 7624,
      "Ġguide": 7625,
      "Ġreduces": 7626,
      "ĠRussell": 7627,
      "ĠAirlines": 7628,
      "ĠSoccer": 7629,
      "Ġwrong": 7630,
      "Ġsituated": 7631,
      "Ġmerged": 7632,
      "Ġmagic": 7633,
      "Ġadvantages": 7634,
      "ĠMountains": 7635,
      "ĠMoore": 7636,
      "Ġbrothers": 7637,
      "ĠKhan": 7638,
      "Ġvocals": 7639,
      "Ġheadquartered": 7640,
      "ĠPanama": 7641,
      "ĠWalter": 7642,
      "Ġranging": 7643,
      "audi": 7644,
      "Ġsenior": 7645,
      "ĠSquare": 7646,
      "ĠMemorial": 7647,
      "ĠToyota": 7648,
      "Ġtorto": 7649,
      "ĠOscar": 7650,
      "76": 7651,
      "RA": 7652,
      "Some": 7653,
      "With": 7654,
      "cop": 7655,
      "cons": 7656,
      "eing": 7657,
      "power": 7658,
      "vo": 7659,
      "wa": 7660,
      "Ġtro": 7661,
      "Ġcrop": 7662,
      "encies": 7663,
      "Ġfur": 7664,
      "Ġmild": 7665,
      "Ġhal": 7666,
      "ĠSatur": 7667,
      "elve": 7668,
      "rooms": 7669,
      "ĠMercury": 7670,
      "Ġstone": 7671,
      "adow": 7672,
      "ĠHard": 7673,
      "iform": 7674,
      "ĠFox": 7675,
      "aga": 7676,
      "ĠDh": 7677,
      "ĠDar": 7678,
      "ĠDomin": 7679,
      "ĠRonald": 7680,
      "Ġcomedy": 7681,
      "Ġframes": 7682,
      "ĠLarry": 7683,
      "Ġven": 7684,
      "oca": 7685,
      "Ġrib": 7686,
      "inea": 7687,
      "ĠInvest": 7688,
      "izz": 7689,
      "aret": 7690,
      "Ġspices": 7691,
      "Ġcontem": 7692,
      "Ġtrails": 7693,
      "Ġarc": 7694,
      "ampa": 7695,
      "Ġrowing": 7696,
      "Ġsovere": 7697,
      "obile": 7698,
      "Ġdesk": 7699,
      "2014": 7700,
      "Ġ55": 7701,
      "Ġoffensive": 7702,
      "ĠArthur": 7703,
      "Ġprovince": 7704,
      "Ġcapita": 7705,
      "Ġgrains": 7706,
      "Ġexposure": 7707,
      "ĠComputer": 7708,
      "Ġdepos": 7709,
      "Ġmusician": 7710,
      "comm": 7711,
      "Ġstatistics": 7712,
      "Ġmembership": 7713,
      "Ġhistorically": 7714,
      "Ġsentence": 7715,
      "Ġkinds": 7716,
      "Ġsemic": 7717,
      "Ġnutrit": 7718,
      "flix": 7719,
      "Ġdrinking": 7720,
      "Ġaccepted": 7721,
      "7435": 7722,
      "Ġpaintings": 7723,
      "ĠWilson": 7724,
      "Ġparameters": 7725,
      "Ġneutral": 7726,
      "igenous": 7727,
      "Ġstretch": 7728,
      "ĠFacebook": 7729,
      "ĠTokyo": 7730,
      "Ġinhabitants": 7731,
      "ĠLiverpool": 7732,
      "Am": 7733,
      "Acc": 7734,
      "car": 7735,
      "fers": 7736,
      "han": 7737,
      "mi": 7738,
      "Ġtips": 7739,
      "erb": 7740,
      "rell": 7741,
      "Ġsex": 7742,
      "ori": 7743,
      "alty": 7744,
      "Ġfellow": 7745,
      "Ġbiking": 7746,
      "Ġpod": 7747,
      "Ġpace": 7748,
      "Ġinner": 7749,
      "Ġdiver": 7750,
      "Ġdioxide": 7751,
      "Ġhip": 7752,
      "ĠTimes": 7753,
      "ĠSa": 7754,
      "ĠSony": 7755,
      "Ġreject": 7756,
      "Ġgall": 7757,
      "ivia": 7758,
      "ayer": 7759,
      "ĠGro": 7760,
      "Ġconven": 7761,
      "acon": 7762,
      "bernet": 7763,
      "ĠKir": 7764,
      "ishop": 7765,
      "Ġcoined": 7766,
      "Ġroy": 7767,
      "Ġpreced": 7768,
      "ailand": 7769,
      "overs": 7770,
      "Ġelections": 7771,
      "ĠArk": 7772,
      "ĠArctic": 7773,
      "ĠMaria": 7774,
      "Ġmuscles": 7775,
      "ocked": 7776,
      "ĠAncient": 7777,
      "ĠTherefore": 7778,
      "ĠIslam": 7779,
      "Ġsmallest": 7780,
      "Ġauthentic": 7781,
      "certain": 7782,
      "Ġhandle": 7783,
      "Ġshowed": 7784,
      "Ġpublicly": 7785,
      "Ġ1956": 7786,
      "ĠConstitution": 7787,
      "Ġpossess": 7788,
      "Ġmonthly": 7789,
      "Ġflows": 7790,
      "Ġturns": 7791,
      "Ġstronger": 7792,
      "ĠMinistry": 7793,
      "Ġyoungest": 7794,
      "Ġdestinations": 7795,
      "Ġaudio": 7796,
      "restling": 7797,
      "Ġcategor": 7798,
      "Ġdiseases": 7799,
      "Ġqualifying": 7800,
      "Ġcelebrated": 7801,
      "Ġsatis": 7802,
      "Ġearthqu": 7803,
      "Ġinjuries": 7804,
      "Ġmanufacturers": 7805,
      "Ġopponents": 7806,
      "Ġlinked": 7807,
      "Ġphenomena": 7808,
      "Ġagriculture": 7809,
      "uerto": 7810,
      "ĠMesopotam": 7811,
      "Ġbench": 7812,
      "ĠEthiopia": 7813,
      "Ġraisins": 7814,
      "ĠEducation": 7815,
      "ĠAfghanistan": 7816,
      "BI": 7817,
      "Day": 7818,
      "SP": 7819,
      "Vs": 7820,
      "bage": 7821,
      "called": 7822,
      "ype": 7823,
      "zo": 7824,
      "eron": 7825,
      "real": 7826,
      "Ġodd": 7827,
      "Ġwaves": 7828,
      "Ġfill": 7829,
      "Ġpun": 7830,
      "Ġment": 7831,
      "Ġmur": 7832,
      "Ġhang": 7833,
      "ĠTan": 7834,
      "ĠTitan": 7835,
      "ĠSound": 7836,
      "Ġgym": 7837,
      "olt": 7838,
      "olph": 7839,
      "ĠMario": 7840,
      "urning": 7841,
      "ĠFal": 7842,
      "osa": 7843,
      "Ġvon": 7844,
      "achel": 7845,
      "Ġproof": 7846,
      "ateur": 7847,
      "Ġincred": 7848,
      "Ġouter": 7849,
      "ĠAlbert": 7850,
      "Ġsynd": 7851,
      "Ġ42": 7852,
      "onda": 7853,
      "Ġpreserved": 7854,
      "Ġtransition": 7855,
      "Ġmetric": 7856,
      "Ġending": 7857,
      "ĠAnne": 7858,
      "Ġpersonality": 7859,
      "Ġsecondary": 7860,
      "Ġdepth": 7861,
      "Ġclassification": 7862,
      "Ġeconomics": 7863,
      "Ġopposing": 7864,
      "ĠManagement": 7865,
      "Ġbigger": 7866,
      "Ġconsistent": 7867,
      "Ġvegan": 7868,
      "ĠDavis": 7869,
      "ĠChristmas": 7870,
      "ĠAirport": 7871,
      "ĠSerb": 7872,
      "Ġmaintaining": 7873,
      "Ġfacing": 7874,
      "Ġconcepts": 7875,
      "Ġlifestyle": 7876,
      "Ġemerged": 7877,
      "Ġstraw": 7878,
      "Ġnuts": 7879,
      "Ġnutri": 7880,
      "ijing": 7881,
      "ĠNorwegian": 7882,
      "Ġfitness": 7883,
      "ĠSimilar": 7884,
      "Ã³n": 7885,
      "ĠFerr": 7886,
      "Ġbreath": 7887,
      "Ġassistant": 7888,
      "Ġscores": 7889,
      "presso": 7890,
      "ĠLanka": 7891,
      "ĠIndonesia": 7892,
      "87": 7893,
      "IA": 7894,
      "MA": 7895,
      "Par": 7896,
      "To": 7897,
      "bee": 7898,
      "cu": 7899,
      "rity": 7900,
      "tion": 7901,
      "Ġsizes": 7902,
      "Ġwake": 7903,
      "itled": 7904,
      "alog": 7905,
      "Ġfolk": 7906,
      "Ġbought": 7907,
      "Ġinse": 7908,
      "Ġhike": 7909,
      "sters": 7910,
      "ĠSky": 7911,
      "ĠSQL": 7912,
      "aman": 7913,
      "Ġnav": 7914,
      "ĠCru": 7915,
      "ĠBoy": 7916,
      "ĠBah": 7917,
      "uten": 7918,
      "aded": 7919,
      "ĠHand": 7920,
      "herry": 7921,
      "unar": 7922,
      "ĠGall": 7923,
      "ĠLive": 7924,
      "ĠLabor": 7925,
      "Ġmoist": 7926,
      "apol": 7927,
      "ĠKal": 7928,
      "aren": 7929,
      "Ġjur": 7930,
      "Ġdispl": 7931,
      "Ġquot": 7932,
      "rence": 7933,
      "Ġinstance": 7934,
      "ĠAnth": 7935,
      "Ġhelping": 7936,
      "Ġauth": 7937,
      "engers": 7938,
      "Ġsevere": 7939,
      "Ġdescription": 7940,
      "Ġvalued": 7941,
      "Ġrestrict": 7942,
      "ĠConf": 7943,
      "ĠConnect": 7944,
      "ĠAndrew": 7945,
      "ĠOrder": 7946,
      "Ġlimits": 7947,
      "ĠReserve": 7948,
      "Ġpopulated": 7949,
      "ĠTournament": 7950,
      "ythm": 7951,
      "celona": 7952,
      "Ġsurvive": 7953,
      "Ġturning": 7954,
      "abetes": 7955,
      "Ġrepeated": 7956,
      "Ġdependent": 7957,
      "Ġsavings": 7958,
      "Ġbillions": 7959,
      "Ġpitcher": 7960,
      "ĠPhoenix": 7961,
      "ĠSaturday": 7962,
      "Car": 7963,
      "IN": 7964,
      "cut": 7965,
      "pret": 7966,
      "rations": 7967,
      "yram": 7968,
      "inction": 7969,
      "Ġcul": 7970,
      "Ġwider": 7971,
      "ĠSix": 7972,
      "cts": 7973,
      "Ġnob": 7974,
      "ĠCA": 7975,
      "ĠCab": 7976,
      "ĠCateg": 7977,
      "chang": 7978,
      "ĠMumbai": 7979,
      "ĠBand": 7980,
      "ĠBud": 7981,
      "utation": 7982,
      "ĠPad": 7983,
      "Ġwaste": 7984,
      "ĠDat": 7985,
      "ĠDown": 7986,
      "ĠLady": 7987,
      "abits": 7988,
      "ĠJane": 7989,
      "izer": 7990,
      "Ġmeals": 7991,
      "Ġclock": 7992,
      "Ġresolution": 7993,
      "ensed": 7994,
      "Ġrecipe": 7995,
      "ĠIndex": 7996,
      "Ġmode": 7997,
      "amese": 7998,
      "Ġfinals": 7999,
      "ĠNewton": 8000,
      "Ġcalls": 8001,
      "forest": 8002,
      "Ġmetropolitan": 8003,
      "ĠAny": 8004,
      "Ġexpression": 8005,
      "enness": 8006,
      "afe": 8007,
      "Ġ75": 8008,
      "pected": 8009,
      "Ġengines": 8010,
      "Ġeveryday": 8011,
      "Ġtrading": 8012,
      "Ġadvis": 8013,
      "Ġeffectively": 8014,
      "Ġespresso": 8015,
      "Ġdiscip": 8016,
      "Ġstructural": 8017,
      "Ġidentity": 8018,
      "ĠFloyd": 8019,
      "Ġpresentation": 8020,
      "Ġhitting": 8021,
      "Ġpredomin": 8022,
      "Ġofficials": 8023,
      "going": 8024,
      "Ġcontaining": 8025,
      "Ġasking": 8026,
      "ĠCapit": 8027,
      "ĠCapital": 8028,
      "Ġsuggests": 8029,
      "Ġchallenge": 8030,
      "Ġefficiency": 8031,
      "Ġmerch": 8032,
      "Ġdocuments": 8033,
      "Ġplatforms": 8034,
      "ĠTerrier": 8035,
      "Ġnominated": 8036,
      "hetic": 8037,
      "Ġratio": 8038,
      "Ġmolecules": 8039,
      "imensional": 8040,
      "Ġsuitable": 8041,
      "Ġchairman": 8042,
      "ĠDuke": 8043,
      "ĠTechnology": 8044,
      "cosystem": 8045,
      "Ġfeaturing": 8046,
      "Ġdowntown": 8047,
      "ĠCeltics": 8048,
      "Ad": 8049,
      "Japan": 8050,
      "US": 8051,
      "gal": 8052,
      "hill": 8053,
      "rong": 8054,
      "organ": 8055,
      "Ġfan": 8056,
      "Ġfil": 8057,
      "Ġinduct": 8058,
      "Ġmand": 8059,
      "Ġhus": 8060,
      "Ġhur": 8061,
      "Ġlap": 8062,
      "ela": 8063,
      "Ġgol": 8064,
      "Ġgather": 8065,
      "rays": 8066,
      "imize": 8067,
      "ĠMike": 8068,
      "ĠBan": 8069,
      "iration": 8070,
      "ĠPier": 8071,
      "Ġ($": 8072,
      "ĠGor": 8073,
      "ĠGord": 8074,
      "ĠNorm": 8075,
      "Ġvirus": 8076,
      "ocracy": 8077,
      "ĠJam": 8078,
      "ĠJoh": 8079,
      "ardens": 8080,
      "berry": 8081,
      "mented": 8082,
      "rice": 8083,
      "Ġenem": 8084,
      "pty": 8085,
      "Ġunable": 8086,
      "Ġimperial": 8087,
      "Ġscript": 8088,
      "Ġtwenty": 8089,
      "cknow": 8090,
      "Ġformula": 8091,
      "Ġamber": 8092,
      "ologists": 8093,
      "ika": 8094,
      "Ġunderstood": 8095,
      "Ġprovinces": 8096,
      "ĠMarc": 8097,
      "Ġ64": 8098,
      "Ġvariation": 8099,
      "Ġvariants": 8100,
      "Ġskating": 8101,
      "ĠColl": 8102,
      "ĠAdam": 8103,
      "Ġestate": 8104,
      "Ġ1954": 8105,
      "ĠOnly": 8106,
      "Ġsecure": 8107,
      "Ġpossibly": 8108,
      "laim": 8109,
      "Ġconnections": 8110,
      "Ġfeelings": 8111,
      "ipping": 8112,
      "Ġintroduction": 8113,
      "Ġexisted": 8114,
      "Step": 8115,
      "Ġprize": 8116,
      "Ġ1929": 8117,
      "Ġargue": 8118,
      "Ġselection": 8119,
      "Ġwatching": 8120,
      "Ġattractions": 8121,
      "Ġlabel": 8122,
      "Ġalgorithms": 8123,
      "ĠDogs": 8124,
      "Ġvoting": 8125,
      "Ġbanana": 8126,
      "Ġolive": 8127,
      "Ġcrack": 8128,
      "ĠSpecial": 8129,
      "Ġgrocery": 8130,
      "ĠPhilippines": 8131,
      "itrogen": 8132,
      "ĠIndependence": 8133,
      "ĠBusiness": 8134,
      "ĠAntonio": 8135,
      "folio": 8136,
      "bernetes": 8137,
      "El": 8138,
      "Le": 8139,
      "MO": 8140,
      "Russ": 8141,
      "aired": 8142,
      "gram": 8143,
      "hu": 8144,
      "mers": 8145,
      "rub": 8146,
      "É¾": 8147,
      "aters": 8148,
      "Ġcogn": 8149,
      "Ġcinem": 8150,
      "Ġwait": 8151,
      "Ġfir": 8152,
      "Ġfurn": 8153,
      "aro": 8154,
      "Ġmang": 8155,
      "endment": 8156,
      "Ġhob": 8157,
      "Ġhidden": 8158,
      "ĠSab": 8159,
      "rock": 8160,
      "etch": 8161,
      "ĠCa": 8162,
      "ushing": 8163,
      "ĠWW": 8164,
      "Ġeighth": 8165,
      "ĠBroad": 8166,
      "ĠTheatre": 8167,
      "ĠPand": 8168,
      "ĠHerm": 8169,
      "ĠHistory": 8170,
      "ĠDue": 8171,
      "ĠRain": 8172,
      "ĠEU": 8173,
      "acc": 8174,
      "riage": 8175,
      "Ġwheat": 8176,
      "iece": 8177,
      "ĠThink": 8178,
      "Ġalliance": 8179,
      "Ġ33": 8180,
      "Ġrooms": 8181,
      "Ġpret": 8182,
      "Ġcolumn": 8183,
      "Ġinvasion": 8184,
      "Ġinteractions": 8185,
      "Ġdrinks": 8186,
      "Ġpasses": 8187,
      "Ġdepartment": 8188,
      "ĠPlace": 8189,
      "Ġimportance": 8190,
      "Ġtourists": 8191,
      "Ġstreets": 8192,
      "Ġoccasion": 8193,
      "Ġannually": 8194,
      "Ġtemples": 8195,
      "Ġtrillion": 8196,
      "Ġinvestments": 8197,
      "Ġelevation": 8198,
      "Ġguarant": 8199,
      "ĠGuinea": 8200,
      "standing": 8201,
      "Ġreturns": 8202,
      "Ġfalling": 8203,
      "Ġconsumed": 8204,
      "Ġcalendar": 8205,
      "Ġdefeating": 8206,
      "Ġentertainment": 8207,
      "Ġclosest": 8208,
      "ĠDepending": 8209,
      "Ġnucle": 8210,
      "Ġnormally": 8211,
      "Ġquarterback": 8212,
      "----": 8213,
      "Ġcolonies": 8214,
      "Ġsynthesis": 8215,
      "Ġemotions": 8216,
      "founded": 8217,
      "ĠNetflix": 8218,
      "Ġescape": 8219,
      "Ġwicket": 8220,
      "ĠMcDonald": 8221,
      "ĠTypically": 8222,
      "Ġadapted": 8223,
      "communic": 8224,
      "61": 8225,
      "Af": 8226,
      "mo": 8227,
      "pack": 8228,
      "pose": 8229,
      "top": 8230,
      "É¡": 8231,
      "Ġtight": 8232,
      "inational": 8233,
      "inals": 8234,
      "Ġsight": 8235,
      "isk": 8236,
      "itime": 8237,
      "Ġfu": 8238,
      "Ġfal": 8239,
      "Ġpadd": 8240,
      "Ġlb": 8241,
      "Ġloved": 8242,
      "ĠSon": 8243,
      "roit": 8244,
      "ĠCorps": 8245,
      "olves": 8246,
      "ĠWolf": 8247,
      "Ġecosystem": 8248,
      "Ġstable": 8249,
      "ĠPuerto": 8250,
      "ĠFamily": 8251,
      "agen": 8252,
      "ĠNash": 8253,
      "avia": 8254,
      "ĠEle": 8255,
      "ocur": 8256,
      "Ġrural": 8257,
      "Ġplus": 8258,
      "ĠOk": 8259,
      "aki": 8260,
      "Ġcoverage": 8261,
      "Ġclay": 8262,
      "Ġunf": 8263,
      "Ġuncertain": 8264,
      "ĠThailand": 8265,
      "Ġprison": 8266,
      "Ġschem": 8267,
      "Ġspeaking": 8268,
      "Ġquiet": 8269,
      "obs": 8270,
      "Ġevolution": 8271,
      "lette": 8272,
      "Ġelectromagn": 8273,
      "Ġcolour": 8274,
      "Ġblind": 8275,
      "Ġassass": 8276,
      "Ġpolice": 8277,
      "Ġrunner": 8278,
      "Ġmining": 8279,
      "ometimes": 8280,
      "Ġpublication": 8281,
      "coming": 8282,
      "Ġpotato": 8283,
      "Ġ1937": 8284,
      "ĠGuj": 8285,
      "Ġinvolving": 8286,
      "ĠAugusta": 8287,
      "Ġsteep": 8288,
      "Ġpainter": 8289,
      "Ġjoining": 8290,
      "Ġcookies": 8291,
      "Ġconsumer": 8292,
      "Ġportray": 8293,
      "Ġpasta": 8294,
      "Ġliterary": 8295,
      "ĠBuilding": 8296,
      "Ġgolden": 8297,
      "Ġcolonial": 8298,
      "Ġdollars": 8299,
      "ĠBetween": 8300,
      "ĠPeninsula": 8301,
      "Ġlatest": 8302,
      "Ġpicture": 8303,
      "Ġcaptured": 8304,
      "ographer": 8305,
      "ĠJewish": 8306,
      "ĠDragon": 8307,
      "Ġbacteria": 8308,
      "Ġaccurate": 8309,
      "Ġexperimental": 8310,
      "Ġanxiety": 8311,
      "ĠTunis": 8312,
      "400": 8313,
      "foot": 8314,
      "hra": 8315,
      "iy": 8316,
      "jo": 8317,
      "Ġtied": 8318,
      "Ġwonder": 8319,
      "Ġbaking": 8320,
      "asa": 8321,
      "otal": 8322,
      "othes": 8323,
      "Ġlung": 8324,
      "ĠSel": 8325,
      "umps": 8326,
      "ament": 8327,
      "ĠCape": 8328,
      "ĠCzech": 8329,
      "ima": 8330,
      "Ġfort": 8331,
      "Ġonion": 8332,
      "urora": 8333,
      "Ġbeings": 8334,
      "ĠBrand": 8335,
      "uto": 8336,
      "irates": 8337,
      "irty": 8338,
      "ĠHindi": 8339,
      "Ġancest": 8340,
      "ĠGun": 8341,
      "ĠRang": 8342,
      "ĠEric": 8343,
      "Ġexists": 8344,
      "ĠOnt": 8345,
      "ghai": 8346,
      "Ġplayoff": 8347,
      "Ġsole": 8348,
      "ints": 8349,
      "Ġapparent": 8350,
      "2015": 8351,
      "Ġagent": 8352,
      "190": 8353,
      "Ġinstruction": 8354,
      "ĠNews": 8355,
      "Ġassign": 8356,
      "Ġassigned": 8357,
      "ĠShah": 8358,
      "Ġkeys": 8359,
      "Ġexposed": 8360,
      "Ġsignals": 8361,
      "ventional": 8362,
      "Ġtourism": 8363,
      "Ġexplained": 8364,
      "Ġevening": 8365,
      "Ġoccas": 8366,
      "Ġtitled": 8367,
      "Ġenerg": 8368,
      "Ġsunrise": 8369,
      "2004": 8370,
      "ĠFinal": 8371,
      "Ġguard": 8372,
      "Ġthoughts": 8373,
      "ĠGuy": 8374,
      "Ġproperly": 8375,
      "ĠBarcelona": 8376,
      "Ġbiology": 8377,
      "Ġemployee": 8378,
      "Ġcrimin": 8379,
      "ĠResort": 8380,
      "Ġprotected": 8381,
      "Ġauthority": 8382,
      "Ġfacilit": 8383,
      "ascular": 8384,
      "ĠBrazilian": 8385,
      "Ġimplemented": 8386,
      "ĠAuthor": 8387,
      "Ġtomatoes": 8388,
      "ruption": 8389,
      "Ġdocumentary": 8390,
      "ĠEngineering": 8391,
      "ĠHyder": 8392,
      "Ġnickname": 8393,
      "Ġphenomenon": 8394,
      "Ġdestroyed": 8395,
      "Ġrecipes": 8396,
      "Ġrecover": 8397,
      "ĠOhio": 8398,
      "Ġadvertising": 8399,
      "Ġsettlement": 8400,
      "cribe": 8401,
      "Ġsucceeded": 8402,
      "ĠSunday": 8403,
      "Ġfossil": 8404,
      "Ġsemicond": 8405,
      "Ġgolfer": 8406,
      "53": 8407,
      "Aust": 8408,
      "CD": 8409,
      "CS": 8410,
      "Can": 8411,
      "DR": 8412,
      "EA": 8413,
      "West": 8414,
      "dess": 8415,
      "hire": 8416,
      "mod": 8417,
      "spec": 8418,
      "Ġeld": 8419,
      "Ġtrophy": 8420,
      "Ġacknow": 8421,
      "incess": 8422,
      "reams": 8423,
      "Ġsa": 8424,
      "itely": 8425,
      "omer": 8426,
      "Ġhat": 8427,
      "ĠTampa": 8428,
      "Ġlie": 8429,
      "Ġreward": 8430,
      "ĠAx": 8431,
      "ĠMill": 8432,
      "ĠPur": 8433,
      "ĠHon": 8434,
      "heric": 8435,
      "ĠRoc": 8436,
      "ĠRings": 8437,
      "ĠNaz": 8438,
      "avers": 8439,
      "ĠEqu": 8440,
      "quer": 8441,
      "sea": 8442,
      "geon": 8443,
      "ogen": 8444,
      "Ġshore": 8445,
      "Ġkill": 8446,
      "iper": 8447,
      "Ġnotice": 8448,
      "ibet": 8449,
      "ĠHead": 8450,
      "Ġdisappe": 8451,
      "Ġdesert": 8452,
      "2016": 8453,
      "2022": 8454,
      "Ġgenus": 8455,
      "arsh": 8456,
      "Ġmanip": 8457,
      "rosse": 8458,
      "Ġlooks": 8459,
      "Ġhelpful": 8460,
      "Ġartistic": 8461,
      "Ġmonitor": 8462,
      "Ġpowered": 8463,
      "Ġwriters": 8464,
      "Ġtopics": 8465,
      "Ġsolved": 8466,
      "Ġperformances": 8467,
      "odynam": 8468,
      "Ġoperate": 8469,
      "Ã©e": 8470,
      "Ġeditor": 8471,
      "ĠProfess": 8472,
      "ĠAmong": 8473,
      "Ġparagraphs": 8474,
      "2001": 8475,
      "2007": 8476,
      "shire": 8477,
      "Ġenjoyed": 8478,
      "ĠHeritage": 8479,
      "Ġsupervised": 8480,
      "Ġhistorians": 8481,
      "Ġcrust": 8482,
      "Station": 8483,
      "Ġfunding": 8484,
      "Ġbullets": 8485,
      "Ġroutes": 8486,
      "Ġargument": 8487,
      "Ġsubjects": 8488,
      "Ġpersist": 8489,
      "century": 8490,
      "ĠMaryland": 8491,
      "Young": 8492,
      "Ġbranches": 8493,
      "ĠToronto": 8494,
      "Ġdeployed": 8495,
      "Ġcontroversial": 8496,
      "Ġsubsid": 8497,
      "ĠObama": 8498,
      "ĠMalaysia": 8499,
      "ĠSecretary": 8500,
      "Ġinequality": 8501,
      "ifferent": 8502,
      "ĠDallas": 8503,
      "boh": 8504,
      "fe": 8505,
      "tail": 8506,
      "Ã¤": 8507,
      "Ġvert": 8508,
      "Ġton": 8509,
      "Ġtends": 8510,
      "heim": 8511,
      "iner": 8512,
      "Ġwalls": 8513,
      "iture": 8514,
      "itarian": 8515,
      "Ġpig": 8516,
      "ashed": 8517,
      "Ġtopped": 8518,
      "ĠTennis": 8519,
      "olia": 8520,
      "ĠPas": 8521,
      "ĠPearl": 8522,
      "ĠHay": 8523,
      "ĠHell": 8524,
      "Ġyeast": 8525,
      "ĠGPT": 8526,
      "ĠGulf": 8527,
      "agers": 8528,
      "ĠDod": 8529,
      "oples": 8530,
      "abama": 8531,
      "Ġhearing": 8532,
      "ĠJan": 8533,
      "apor": 8534,
      "Ġshopping": 8535,
      "Ġenables": 8536,
      "Ġroof": 8537,
      "Ġtwelve": 8538,
      "orney": 8539,
      "ĠAmericas": 8540,
      "Ġagency": 8541,
      "Ġmodified": 8542,
      "Ġregulation": 8543,
      "ĠHoward": 8544,
      "Ġlisten": 8545,
      "Ġdecrease": 8546,
      "eek": 8547,
      "iented": 8548,
      "connect": 8549,
      "athers": 8550,
      "Ġarticles": 8551,
      "Ġsupports": 8552,
      "Ġdesigns": 8553,
      "Ġmultinational": 8554,
      "Ġcompeting": 8555,
      "Ġadvoc": 8556,
      "Ġbroke": 8557,
      "Ġbeneficial": 8558,
      "ĠTele": 8559,
      "Ġsouthwest": 8560,
      "Ġrisks": 8561,
      "Ġconsisted": 8562,
      "Ġconsistency": 8563,
      "ĠTwitter": 8564,
      "Ġsequencing": 8565,
      "ĠAbd": 8566,
      "Ġfrequent": 8567,
      "ĠHollywood": 8568,
      "ĠAntar": 8569,
      "ĠMilan": 8570,
      "ĠSupp": 8571,
      "Ġvarying": 8572,
      "Ġpowder": 8573,
      "Ġfeedback": 8574,
      "Ġshooting": 8575,
      "Ġparameter": 8576,
      "Ġtheorem": 8577,
      "onymous": 8578,
      "ĠVictoria": 8579,
      "ĠLewis": 8580,
      "ĠShanghai": 8581,
      "44": 8582,
      "52": 8583,
      "81": 8584,
      "CP": 8585,
      "FO": 8586,
      "Go": 8587,
      "German": 8588,
      "dough": 8589,
      "gate": 8590,
      "iability": 8591,
      "nut": 8592,
      "note": 8593,
      "source": 8594,
      "Äĩ": 8595,
      "Ġaired": 8596,
      "erts": 8597,
      "aline": 8598,
      "alore": 8599,
      "alities": 8600,
      "ouch": 8601,
      "oured": 8602,
      "Ġdie": 8603,
      "Ġdensity": 8604,
      "Ġhub": 8605,
      "ĠTog": 8606,
      "ĠTarg": 8607,
      "ĠTrophy": 8608,
      "ĠSaudi": 8609,
      "Ġreven": 8610,
      "ums": 8611,
      "ctors": 8612,
      "ĠCr": 8613,
      "ĠCra": 8614,
      "ĠCorn": 8615,
      "lyn": 8616,
      "ĠMaur": 8617,
      "ĠPra": 8618,
      "ĠHo": 8619,
      "Ġyards": 8620,
      "ĠGil": 8621,
      "ĠGab": 8622,
      "ĠFle": 8623,
      "ĠFair": 8624,
      "ĠFalls": 8625,
      "ĠDer": 8626,
      "ĠRab": 8627,
      "Ġcong": 8628,
      "andon": 8629,
      "Ġvoted": 8630,
      "uda": 8631,
      "apers": 8632,
      "aste": 8633,
      "ogs": 8634,
      "Ġcompounds": 8635,
      "ĠStev": 8636,
      "Ġabund": 8637,
      "Ġspots": 8638,
      "Ġenable": 8639,
      "ĠUnlike": 8640,
      "Ġknife": 8641,
      "Ġcommittee": 8642,
      "Ġraw": 8643,
      "Ġracial": 8644,
      "ĠAlabama": 8645,
      "Ġinterface": 8646,
      "Ġinterpret": 8647,
      "ĠMarathon": 8648,
      "Ġtransc": 8649,
      "Ġrepet": 8650,
      "Ġconsidering": 8651,
      "Ġhumanity": 8652,
      "Ġmonetary": 8653,
      "Ã©mon": 8654,
      "Ġsummit": 8655,
      "Ġsuccessor": 8656,
      "Ġballs": 8657,
      "clusion": 8658,
      "anned": 8659,
      "Ġtelephone": 8660,
      "Ġconsumers": 8661,
      "Ġcivilization": 8662,
      "Ġwinds": 8663,
      "Ġwindow": 8664,
      "Ġvacuum": 8665,
      "Ġfacilities": 8666,
      "ĠMahar": 8667,
      "Ġrotation": 8668,
      "finals": 8669,
      "leveland": 8670,
      "ĠDenver": 8671,
      "Ġruled": 8672,
      "Ġethnic": 8673,
      "ĠPokÃ©mon": 8674,
      "Ġstrategies": 8675,
      "Ġfleet": 8676,
      "bourne": 8677,
      "Ġopinion": 8678,
      "ĠMessi": 8679,
      "Ġenabling": 8680,
      "apolis": 8681,
      "69": 8682,
      "Sep": 8683,
      "bu": 8684,
      "electric": 8685,
      "gi": 8686,
      "pet": 8687,
      "produ": 8688,
      "riger": 8689,
      "tics": 8690,
      "uction": 8691,
      "Ġcable": 8692,
      "esides": 8693,
      "alo": 8694,
      "Ġfinger": 8695,
      "Ġfrozen": 8696,
      "Ġborrow": 8697,
      "Ġtot": 8698,
      "ĠTurn": 8699,
      "Ġloud": 8700,
      "style": 8701,
      "Ġrect": 8702,
      "Ġreaches": 8703,
      "Ġgains": 8704,
      "ollo": 8705,
      "rac": 8706,
      "lys": 8707,
      "ĠPit": 8708,
      "ĠHi": 8709,
      "Ġalign": 8710,
      "Ġalphabet": 8711,
      "verning": 8712,
      "ĠFree": 8713,
      "ĠDire": 8714,
      "ĠRoss": 8715,
      "ĠErn": 8716,
      "Ġvess": 8717,
      "Ġrig": 8718,
      "quet": 8719,
      "ĠJac": 8720,
      "Ġplug": 8721,
      "ĠUr": 8722,
      "apest": 8723,
      "asts": 8724,
      "Ġworst": 8725,
      "Ġwheels": 8726,
      "Ġcoal": 8727,
      "Ġtraits": 8728,
      "Ġtracks": 8729,
      "Ġserious": 8730,
      "ensions": 8731,
      "Ġspeakers": 8732,
      "2012": 8733,
      "Ġboats": 8734,
      "Ġaccident": 8735,
      "Ġcenters": 8736,
      "Ġreliable": 8737,
      "ugby": 8738,
      "Ġfinishing": 8739,
      "Ġmush": 8740,
      "ĠShould": 8741,
      "Ġhelium": 8742,
      "vengers": 8743,
      "Ġrunners": 8744,
      "Ġcurve": 8745,
      "rossing": 8746,
      "ĠBeck": 8747,
      "Ġoperates": 8748,
      "Ġdetail": 8749,
      "Ġexplos": 8750,
      "Ġexplored": 8751,
      "Ġrestricted": 8752,
      "Ġapproved": 8753,
      "anny": 8754,
      "Ġordered": 8755,
      "Ġconnecting": 8756,
      "Ġputting": 8757,
      "evin": 8758,
      "Ġcycl": 8759,
      "Ġgeomet": 8760,
      "ĠMalay": 8761,
      "Ġscientist": 8762,
      "Ġtowns": 8763,
      "Ġpanels": 8764,
      "ĠPatrick": 8765,
      "Ġcopy": 8766,
      "Ġmagical": 8767,
      "What": 8768,
      "writing": 8769,
      "Ġimplementation": 8770,
      "Ġincreasingly": 8771,
      "Ġobservation": 8772,
      "Ġsettled": 8773,
      "Ġoccupied": 8774,
      "ĠOrganization": 8775,
      "Ġteaching": 8776,
      "Ġwickets": 8777,
      "ĠStanley": 8778,
      "Ġadventure": 8779,
      "Ġflavors": 8780,
      "ĠGrammy": 8781,
      "ĠSoftware": 8782,
      "ĠMunich": 8783,
      "Ġhemisphere": 8784,
      "ĠPatriots": 8785,
      "According": 8786,
      "ennessee": 8787,
      "++": 8788,
      "LC": 8789,
      "Will": 8790,
      "])": 8791,
      "iw": 8792,
      "iac": 8793,
      "oz": 8794,
      "pa": 8795,
      "then": 8796,
      "zed": 8797,
      "Êĥ": 8798,
      "Ġtries": 8799,
      "Ġtried": 8800,
      "inth": 8801,
      "Ġcoc": 8802,
      "Ġwines": 8803,
      "Ġpour": 8804,
      "ingly": 8805,
      "icon": 8806,
      "Ġdynasty": 8807,
      "ĠTal": 8808,
      "ĠTry": 8809,
      "ĠTax": 8810,
      "ĠSar": 8811,
      "ĠSav": 8812,
      "ĠCD": 8813,
      "ĠCleveland": 8814,
      "olve": 8815,
      "ĠISO": 8816,
      "ĠBag": 8817,
      "ĠBiden": 8818,
      "iri": 8819,
      "Ġstatic": 8820,
      "ĠPant": 8821,
      "ĠPGA": 8822,
      "uls": 8823,
      "estine": 8824,
      "estone": 8825,
      "agram": 8826,
      "emen": 8827,
      "ĠRon": 8828,
      "ĠRun": 8829,
      "ĠRest": 8830,
      "ĠRoy": 8831,
      "ĠNHL": 8832,
      "ĠLiang": 8833,
      "Ġring": 8834,
      "season": 8835,
      "ĠUlt": 8836,
      "Ġcomplic": 8837,
      "mental": 8838,
      "ideo": 8839,
      "outs": 8840,
      "oked": 8841,
      "lude": 8842,
      "ignon": 8843,
      "Ġ37": 8844,
      "Ġ38": 8845,
      "orsche": 8846,
      "wealth": 8847,
      "onsin": 8848,
      "ifications": 8849,
      "Ġacres": 8850,
      "ĠDeep": 8851,
      "Ġentering": 8852,
      "afael": 8853,
      "nergy": 8854,
      "Ġrelevant": 8855,
      "ĠZe": 8856,
      "risket": 8857,
      "ĠBlood": 8858,
      "ventions": 8859,
      "Ġengage": 8860,
      "ĠBeijing": 8861,
      "Ġlasted": 8862,
      "ĠHarrison": 8863,
      "Ġheads": 8864,
      "atching": 8865,
      "Ġcourts": 8866,
      "Ġdelay": 8867,
      "Ġcamping": 8868,
      "Ġbias": 8869,
      "ĠWithout": 8870,
      "Ġappearing": 8871,
      "ĠMedal": 8872,
      "Ġcommunications": 8873,
      "ĠPortland": 8874,
      "Ġcomplexity": 8875,
      "Ġelectronics": 8876,
      "Ġcutting": 8877,
      "Ġmechanism": 8878,
      "Ġemergency": 8879,
      "ĠTurk": 8880,
      "Ġquantity": 8881,
      "Ġtargeted": 8882,
      "Ġerup": 8883,
      "Ġabsol": 8884,
      "Ġcampaigns": 8885,
      "ĠCampbell": 8886,
      "Ġgarlic": 8887,
      "ĠInstead": 8888,
      "ĠJustice": 8889,
      "founder": 8890,
      "ĠMotor": 8891,
      "Ġdialect": 8892,
      "Ġsculptor": 8893,
      "ĠUCLA": 8894,
      "Ġstimul": 8895,
      "ĠMLB": 8896,
      "Ġdataset": 8897,
      "Ġblend": 8898,
      "ĠSeveral": 8899,
      "Ġsubstantial": 8900,
      "Ġmurder": 8901,
      "Ġfirms": 8902,
      "August": 8903,
      "Files": 8904,
      "LP": 8905,
      "PO": 8906,
      "SU": 8907,
      "gence": 8908,
      "ii": 8909,
      "nai": 8910,
      "worth": 8911,
      "yard": 8912,
      "Ã¦": 8913,
      "Ġtag": 8914,
      "hered": 8915,
      "herent": 8916,
      "Ġtheories": 8917,
      "atial": 8918,
      "anon": 8919,
      "isco": 8920,
      "Ġwed": 8921,
      "Ġfiles": 8922,
      "aration": 8923,
      "Ġbars": 8924,
      "Ġpump": 8925,
      "Ġpounds": 8926,
      "otten": 8927,
      "otype": 8928,
      "ĠSug": 8929,
      "uses": 8930,
      "igm": 8931,
      "uru": 8932,
      "irth": 8933,
      "ĠPress": 8934,
      "ĠHold": 8935,
      "ĠHimal": 8936,
      "ĠGarden": 8937,
      "ĠFund": 8938,
      "ĠFender": 8939,
      "eman": 8940,
      "osc": 8941,
      "osal": 8942,
      "aved": 8943,
      "acrosse": 8944,
      "Ġchrom": 8945,
      "Ġcharts": 8946,
      "Ġexceed": 8947,
      "Ġshops": 8948,
      "Ġshocks": 8949,
      "Ġabandon": 8950,
      "Ġcoat": 8951,
      "Ġpeoples": 8952,
      "Ġconsoles": 8953,
      "aware": 8954,
      "Ġindigenous": 8955,
      "Ġinvention": 8956,
      "Ġassistance": 8957,
      "Ġgenerating": 8958,
      "Ġexpressed": 8959,
      "ĠSeason": 8960,
      "arma": 8961,
      "Ġexploration": 8962,
      "Ġanimated": 8963,
      "Ġopposition": 8964,
      "comes": 8965,
      "Ġpotentially": 8966,
      "Ġ1936": 8967,
      "2009": 8968,
      "scale": 8969,
      "Ġkeyboard": 8970,
      "ĠGuard": 8971,
      "ĠCups": 8972,
      "Ġchoices": 8973,
      "ĠAssembly": 8974,
      "ippi": 8975,
      "Ġpatient": 8976,
      "Ġcalm": 8977,
      "Ġcircuits": 8978,
      "Ġcreatures": 8979,
      "ommod": 8980,
      "Ġcycling": 8981,
      "Ġpayments": 8982,
      "ĠPlayStation": 8983,
      "Ġbatteries": 8984,
      "Ġmassive": 8985,
      "ĠMexican": 8986,
      "Ġparticipants": 8987,
      "Ġlifetime": 8988,
      "Ġqualified": 8989,
      "Ġdrying": 8990,
      "Ġpreferences": 8991,
      "Ġbattles": 8992,
      "Ġefficiently": 8993,
      "isconsin": 8994,
      "Ġtruck": 8995,
      "ĠNadu": 8996,
      "Ġhybrid": 8997,
      "ĠScottish": 8998,
      "Ġcorrectly": 8999,
      "Ġmotorcy": 9000,
      "Ġpursue": 9001,
      "Ġtribes": 9002,
      "Ġconversation": 9003,
      "ĠDetroit": 9004,
      "Ġmortg": 9005,
      "ĠCroat": 9006,
      "Ġdynamic": 9007,
      "Ġromantic": 9008,
      "Ġtroops": 9009,
      "Ġroyal": 9010,
      "ĠMesopotamia": 9011,
      "Ġjuris": 9012,
      "Ġhusband": 9013,
      "82": 9014,
      "94": 9015,
      "But": 9016,
      "Con": 9017,
      "RM": 9018,
      "SM": 9019,
      "WS": 9020,
      "],": 9021,
      "cat": 9022,
      "fly": 9023,
      "free": 9024,
      "gs": 9025,
      "gra": 9026,
      "grossing": 9027,
      "krit": 9028,
      "Ð¸": 9029,
      "á»": 9030,
      "Ġtiss": 9031,
      "Ġtank": 9032,
      "Ġtaught": 9033,
      "hett": 9034,
      "esis": 9035,
      "esium": 9036,
      "itational": 9037,
      "Ġpure": 9038,
      "Ġpink": 9039,
      "ĠTen": 9040,
      "ĠTit": 9041,
      "Ġlighter": 9042,
      "elines": 9043,
      "ĠAthlet": 9044,
      "Ġnitrogen": 9045,
      "olo": 9046,
      "ĠPut": 9047,
      "Ġanthrop": 9048,
      "ĠDick": 9049,
      "through": 9050,
      "ĠRub": 9051,
      "ĠRoll": 9052,
      "ĠEston": 9053,
      "Ġ1918": 9054,
      "Ġatoms": 9055,
      "Ġsup": 9056,
      "Ġchannel": 9057,
      "apse": 9058,
      "Ġshaped": 9059,
      "mentation": 9060,
      "Ġclar": 9061,
      "oku": 9062,
      "ĠYan": 9063,
      "phones": 9064,
      "aws": 9065,
      "awks": 9066,
      "Ġacclaim": 9067,
      "issance": 9068,
      "issippi": 9069,
      "inking": 9070,
      "Ġpopularized": 9071,
      "Ġgreatly": 9072,
      "ĠPlate": 9073,
      "Ġvalley": 9074,
      "Ġ1952": 9075,
      "Ġoptical": 9076,
      "ossible": 9077,
      "compass": 9078,
      "2006": 9079,
      "Ġflower": 9080,
      "ĠEdin": 9081,
      "Ġglobally": 9082,
      "Ġconsume": 9083,
      "Ġiniti": 9084,
      "ĠTwenty": 9085,
      "Ġcollected": 9086,
      "Ġaccessible": 9087,
      "Ġappearances": 9088,
      "Ġsnowboard": 9089,
      "ĠPlayers": 9090,
      "Ġroutine": 9091,
      "Ġencounter": 9092,
      "ĠSummarize": 9093,
      "ĠHoly": 9094,
      "Ġparticipated": 9095,
      "Ġhappiness": 9096,
      "Although": 9097,
      "Ġmathematic": 9098,
      "ĠSantos": 9099,
      "Art": 9100,
      "Ġcriticism": 9101,
      "warf": 9102,
      "Ġhyper": 9103,
      "Spanish": 9104,
      "ĠAlternatively": 9105,
      "Ġjacket": 9106,
      "Ġexpedition": 9107,
      "ĠNigeria": 9108,
      "Ġabstract": 9109,
      "Ġtrigger": 9110,
      "pherd": 9111,
      "Ġsimultaneously": 9112,
      "Ġauthors": 9113,
      "BM": 9114,
      "Red": 9115,
      "Te": 9116,
      "];": 9117,
      "br": 9118,
      "count": 9119,
      "do": 9120,
      "ko": 9121,
      "lings": 9122,
      "Ä«": 9123,
      "à¦": 9124,
      "âĤ": 9125,
      "erated": 9126,
      "Ġsend": 9127,
      "Ġsought": 9128,
      "Ġcrown": 9129,
      "Ġfo": 9130,
      "Ġdess": 9131,
      "ĠTennessee": 9132,
      "ĠSi": 9133,
      "ĠSoutheast": 9134,
      "ĠAk": 9135,
      "eta": 9136,
      "ĠWisconsin": 9137,
      "ĠBron": 9138,
      "ĠBomb": 9139,
      "Ġstocks": 9140,
      "ĠPack": 9141,
      "ĠHave": 9142,
      "ĠGate": 9143,
      "ĠNi": 9144,
      "ĠNon": 9145,
      "ĠNative": 9146,
      "Ġroman": 9147,
      "Ġheating": 9148,
      "see": 9149,
      "apple": 9150,
      "Ġlemon": 9151,
      "0000": 9152,
      "Ġspaces": 9153,
      "uba": 9154,
      "ĠVerm": 9155,
      "ĠUnivers": 9156,
      "Ġpermit": 9157,
      "Ġperhaps": 9158,
      "Ġresemb": 9159,
      "Ġrope": 9160,
      "oster": 9161,
      "Ġsoap": 9162,
      "oba": 9163,
      "obi": 9164,
      "ovascular": 9165,
      "yself": 9166,
      "Ġflo": 9167,
      "Ġdefending": 9168,
      "Ġreprodu": 9169,
      "Ġvariables": 9170,
      "ĠShort": 9171,
      "ĠAnimal": 9172,
      "Ġobl": 9173,
      "Ġpassengers": 9174,
      "rompt": 9175,
      "Ġbreaking": 9176,
      "ĠIsa": 9177,
      "Ġdepression": 9178,
      "ĠAdvent": 9179,
      "Ġmusicians": 9180,
      "Ġtraditions": 9181,
      "Ġ1951": 9182,
      "Ġ1944": 9183,
      "Ġdescribing": 9184,
      "ĠAnderson": 9185,
      "Ġmanagers": 9186,
      "Ġmaritime": 9187,
      "Ġpubl": 9188,
      "Ġtells": 9189,
      "Ġgranted": 9190,
      "Ġrising": 9191,
      "ĠPrior": 9192,
      "Ġphotos": 9193,
      "Ġinternationally": 9194,
      "ĠRegion": 9195,
      "ĠSmall": 9196,
      "Ġsurrounded": 9197,
      "Ġviolin": 9198,
      "Ġoutdoors": 9199,
      "Ġjudge": 9200,
      "Ġatmospheric": 9201,
      "Ġsuffered": 9202,
      "Ġjournalist": 9203,
      "speaking": 9204,
      "Ġventure": 9205,
      "ĠElder": 9206,
      "ĠRadio": 9207,
      "Ġresidential": 9208,
      "Ġpuppy": 9209,
      "ĠCapitol": 9210,
      "Ġcognitive": 9211,
      "ĠHyderabad": 9212,
      "ĠAbdul": 9213,
      "%,": 9214,
      "/;": 9215,
      "56": 9216,
      "98": 9217,
      "EE": 9218,
      "SS": 9219,
      "bird": 9220,
      "log": 9221,
      "ni": 9222,
      "vignon": 9223,
      "yon": 9224,
      "ËĮ": 9225,
      "Ġtape": 9226,
      "anne": 9227,
      "Ġflying": 9228,
      "Ġbinary": 9229,
      "ouri": 9230,
      "asant": 9231,
      "Ġhyd": 9232,
      "ĠSalt": 9233,
      "rose": 9234,
      "ethe": 9235,
      "eting": 9236,
      "ĠCart": 9237,
      "ĠCats": 9238,
      "ĠICC": 9239,
      "usually": 9240,
      "ĠMas": 9241,
      "igible": 9242,
      "igious": 9243,
      "ĠBalt": 9244,
      "irmed": 9245,
      "Ġorb": 9246,
      "Ġ250": 9247,
      "agu": 9248,
      "emed": 9249,
      "ĠDoc": 9250,
      "ĠRico": 9251,
      "ĠLow": 9252,
      "avid": 9253,
      "acent": 9254,
      "Ġproport": 9255,
      "Ġmood": 9256,
      "Ġ1913": 9257,
      "riends": 9258,
      "Ġcanal": 9259,
      "Ġcompens": 9260,
      "Ġsharing": 9261,
      "Ġshapes": 9262,
      "ĠChampion": 9263,
      "Ġclin": 9264,
      "Ġclust": 9265,
      "Ġcontribute": 9266,
      "ĠVi": 9267,
      "ternoon": 9268,
      "ĠAlf": 9269,
      "Ġquote": 9270,
      "ovic": 9271,
      "Ġapprec": 9272,
      "Ġ1800": 9273,
      "ĠMarin": 9274,
      "Ġemissions": 9275,
      "Ġ62": 9276,
      "Ġ600": 9277,
      "Ġsurvey": 9278,
      "Ġpassion": 9279,
      "mann": 9280,
      "airy": 9281,
      "Ġreturning": 9282,
      "Ġcheaper": 9283,
      "ĠAdv": 9284,
      "ĠAdminist": 9285,
      "Ġavoc": 9286,
      "Ġcompeted": 9287,
      "Ġrefriger": 9288,
      "gery": 9289,
      "Ġsunny": 9290,
      "shaped": 9291,
      "ĠCommittee": 9292,
      "ĠRepresent": 9293,
      "Ġcriteria": 9294,
      "ĠPeace": 9295,
      "Ġsignificance": 9296,
      "Ġenvironments": 9297,
      "Ġspeeds": 9298,
      "Ġvillages": 9299,
      "ompson": 9300,
[...]
